{
  "version": "1.0",
  "truncation": null,
  "padding": null,
  "added_tokens": [
    {
      "id": 24094,
      "content": "<|begin_of_text|>",
      "single_word": false,
      "lstrip": false,
      "rstrip": false,
      "normalized": false,
      "special": true
    },
    {
      "id": 24095,
      "content": "<|end_of_text|>",
      "single_word": false,
      "lstrip": false,
      "rstrip": false,
      "normalized": false,
      "special": true
    }
  ],
  "normalizer": {
    "type": "Sequence",
    "normalizers": [
      {
        "type": "Replace",
        "pattern": {
          "String": "``"
        },
        "content": "\""
      },
      {
        "type": "Replace",
        "pattern": {
          "String": "''"
        },
        "content": "\""
      },
      {
        "type": "Strip",
        "strip_left": true,
        "strip_right": true
      },
      {
        "type": "NFD"
      },
      {
        "type": "Lowercase"
      },
      {
        "type": "StripAccents"
      },
      {
        "type": "Replace",
        "pattern": {
          "Regex": " {2,}"
        },
        "content": " "
      }
    ]
  },
  "pre_tokenizer": {
    "type": "Sequence",
    "pretokenizers": [
      {
        "type": "Digits",
        "individual_digits": true
      },
      {
        "type": "Split",
        "pattern": {
          "String": "(?i:'s|'t|'re|'ve|'m|'ll|'d)|[^\\r\\n\\p{L}\\p{N}]?\\p{L}+|\\p{N}{1,3}| ?[^\\s\\p{L}\\p{N}]+[\\r\\n]*|\\s*[\\r\\n]+|\\s+(?!\\S)|\\s+"
        },
        "behavior": "Isolated",
        "invert": false
      },
      {
        "type": "ByteLevel",
        "add_prefix_space": false,
        "trim_offsets": true,
        "use_regex": true
      }
    ]
  },
  "post_processor": {
    "type": "Sequence",
    "processors": [
      {
        "type": "ByteLevel",
        "add_prefix_space": true,
        "trim_offsets": false,
        "use_regex": true
      }
    ]
  },
  "decoder": {
    "type": "ByteLevel",
    "add_prefix_space": true,
    "trim_offsets": true,
    "use_regex": true
  },
  "model": {
    "type": "BPE",
    "dropout": null,
    "unk_token": null,
    "continuing_subword_prefix": null,
    "end_of_word_suffix": null,
    "fuse_unk": false,
    "byte_fallback": false,
    "vocab": {
      "$": 0,
      "%": 1,
      "&": 2,
      "+": 3,
      "-": 4,
      ".": 5,
      "0": 6,
      "1": 7,
      "2": 8,
      "3": 9,
      "4": 10,
      "5": 11,
      "6": 12,
      "7": 13,
      "8": 14,
      "9": 15,
      "<": 16,
      "=": 17,
      ">": 18,
      "?": 19,
      "[": 20,
      "]": 21,
      "^": 22,
      "a": 23,
      "b": 24,
      "c": 25,
      "d": 26,
      "e": 27,
      "f": 28,
      "g": 29,
      "h": 30,
      "i": 31,
      "j": 32,
      "k": 33,
      "l": 34,
      "m": 35,
      "n": 36,
      "o": 37,
      "p": 38,
      "q": 39,
      "r": 40,
      "s": 41,
      "t": 42,
      "u": 43,
      "v": 44,
      "w": 45,
      "x": 46,
      "y": 47,
      "z": 48,
      "£": 49,
      "§": 50,
      "¨": 51,
      "©": 52,
      "ª": 53,
      "«": 54,
      "¬": 55,
      "®": 56,
      "¯": 57,
      "°": 58,
      "±": 59,
      "²": 60,
      "³": 61,
      "´": 62,
      "µ": 63,
      "¶": 64,
      "·": 65,
      "¸": 66,
      "¹": 67,
      "º": 68,
      "¾": 69,
      "Â": 70,
      "Ø": 71,
      "Ù": 72,
      "Ú": 73,
      "Û": 74,
      "â": 75,
      "Ġ": 76,
      "Ģ": 77,
      "ģ": 78,
      "Ĥ": 79,
      "Ħ": 80,
      "ħ": 81,
      "Ĩ": 82,
      "ĩ": 83,
      "Ī": 84,
      "Į": 85,
      "ĵ": 86,
      "Ķ": 87,
      "ĺ": 88,
      "ļ": 89,
      "Ń": 90,
      "Ø§": 91,
      "ĠØ": 92,
      "ÛĮ": 93,
      "Ø±": 94,
      "ĠÙ": 95,
      "Ø§Ù": 96,
      "Ø¯": 97,
      "Ùĩ": 98,
      "Øª": 99,
      "ÙĪ": 100,
      "Ø§Ø": 101,
      "ÙĨ": 102,
      "ĠØ¨": 103,
      "Ú©": 104,
      "ĠÙħ": 105,
      "ÙĦ": 106,
      "Ùħ": 107,
      "Ø§ÛĮ": 108,
      "Ø§ÙĨ": 109,
      "ĠØ¯": 110,
      "Ø§Ø±": 111,
      "Ø´": 112,
      "ĠØ§Ø": 113,
      "Ø³": 114,
      "ĠØª": 115,
      "ĠÚ©": 116,
      "ĠÙĪ": 117,
      "Ø²": 118,
      "ĠØ¯Ø±": 119,
      "Ú¯": 120,
      "ĠØ±": 121,
      "ĠÙĩ": 122,
      "ĠÙĨ": 123,
      "Ø§ÙĦ": 124,
      "Ø¨": 125,
      "ĠØ³": 126,
      "Ø§Ùħ": 127,
      "ĠØ´": 128,
      "Ùģ": 129,
      "ĠØ¨Ùĩ": 130,
      "ÙĪØ¯": 131,
      "ÙĦÛĮ": 132,
      "Ø¹": 133,
      "ĠÙħÛĮ": 134,
      "Ø§Øª": 135,
      "Ø§Ø¯": 136,
      "Ø§Ùĩ": 137,
      "ÙĤ": 138,
      "ĠØ§Ø³": 139,
      "ÛĮÙĨ": 140,
      "ĠØ§ÛĮ": 141,
      "ĠØ®": 142,
      "ĠØ§Ø²": 143,
      "ÙĨØ¯": 144,
      "ĠÙ¾": 145,
      "ĠÙģ": 146,
      "ĠØ§Ø³Øª": 147,
      "ÙĪØ±": 148,
      "Ø§Ø²": 149,
      "ĠÚ¯": 150,
      "ÛĮÙħ": 151,
      "Ø¬": 152,
      "ĠØ§Ù": 153,
      "ĠØ¨Ø±": 154,
      "ĠÙĤ": 155,
      "Ø±ÙĪ": 156,
      "Øµ": 157,
      "ØŃ": 158,
      "Ø¯Ùĩ": 159,
      "Ø®": 160,
      "ĠØªÙĪ": 161,
      "ĠØŃ": 162,
      "ÙģØª": 163,
      "ĠÚ©Ùĩ": 164,
      "ÛĮØ±": 165,
      "Ø§Ø±Ø¯": 166,
      "ĠÙĩØ§ÛĮ": 167,
      "ĠØ§ÛĮÙĨ": 168,
      "Ø±ÛĮ": 169,
      "ĠØ¨Ø§": 170,
      "ĠØ§ÙĨ": 171,
      "ĠÙħÛĮÙĦÛĮ": 172,
      "ĠØ¹": 173,
      "Ø³Øª": 174,
      "ĠØ¬": 175,
      "Ø±Ø¯": 176,
      "ÚĨ": 177,
      "ÙĪÙĦ": 178,
      "Ø§Ø¨": 179,
      "Ø·": 180,
      "ĠØ±Ø§": 181,
      "Ø±Ú©": 182,
      "ĠØ§Ø±": 183,
      "Ø§Ø´": 184,
      "ĠØ±ÙĪ": 185,
      "Ø³ÛĮ": 186,
      "ĠØµ": 187,
      "ĠÛĮ": 188,
      "Ġ%": 189,
      "Ø§Ø³": 190,
      "Ø±ÙĪØ´": 191,
      "ĠÙħØ§Ùĩ": 192,
      "ÙħØ§ÙĨ": 193,
      "ĠØ¨Ø§Ø²": 194,
      "Ù¾": 195,
      "ÙĪÙĨ": 196,
      "Ø°": 197,
      "ĠØ¨ÙĪØ¯": 198,
      "ØªÙĩ": 199,
      "ÛĮÙħØª": 200,
      "ĠÙħÛĮÙĦÛĮØ§Ø±Ø¯": 201,
      "Ø±Ø§ÙĨ": 202,
      "ĠØ§Ùħ": 203,
      "ĠÙĤÛĮÙħØª": 204,
      "Ø§Ø±ÛĮ": 205,
      "ĠØ³Ø§ÙĦ": 206,
      "ĠØ±ÛĮ": 207,
      "ĠÙģØ±ÙĪØ´": 208,
      "ĠØ§Ùģ": 209,
      "Ø¶": 210,
      "ĠÙĨÙģØª": 211,
      "ĠØ¨Ø§Ø²Ø§Ø±": 212,
      "ĠÚĨ": 213,
      "ÛĮØ¯": 214,
      "Ø§ÛĮØ´": 215,
      "Ø§Ùģ": 216,
      "ĠØ¨Ø±Ø§ÛĮ": 217,
      "ĠÙħØ¹": 218,
      "Ø²Ø§Ø±": 219,
      "ÛĮØª": 220,
      "ĠÙ«": 221,
      "ĠØ§ÙĪ": 222,
      "ĠÙĩØ§": 223,
      "ĠÙĩÙħ": 224,
      "ĠØ²": 225,
      "ÛĮØ´": 226,
      "Ġ$": 227,
      "ĠØ§Ø±Ø²": 228,
      "Ø§ÙħÙĦ": 229,
      "Ø±Ú©Øª": 230,
      "Ø§Ø®": 231,
      "ĠØ´Ø¯Ùĩ": 232,
      "ØªØ±": 233,
      "ĠØ´Ø±Ú©Øª": 234,
      "ĠÙħØŃ": 235,
      "ĠØ·": 236,
      "ĠØ§ÙģØ²": 237,
      "ĠØ±ÛĮØ§ÙĦ": 238,
      "Ø§Ú©": 239,
      "ÛĮÙĦ": 240,
      "Ø§ÙĩØ´": 241,
      "ĠÙħÙĨ": 242,
      "ĠØ´Ø¯": 243,
      "ĠØªÙĪÙħØ§ÙĨ": 244,
      "ØªÛĮ": 245,
      "Ø§ÙĨÙĩ": 246,
      "ĠÚ©Ø§ÙĩØ´": 247,
      "ĠÚ¯Ø°": 248,
      "Øº": 249,
      "ĠØ®ÙĪØ¯": 250,
      "ĠØ§ÙģØ²Ø§ÛĮØ´": 251,
      "ĠÙħÙĪ": 252,
      "Ø±Ùħ": 253,
      "Ø§ÙĪ": 254,
      "Ø§ÙĦÛĮ": 255,
      "Ø§ÛĮÛĮ": 256,
      "ØªØµ": 257,
      "Úĺ": 258,
      "Ø¨Øª": 259,
      "Ø¸": 260,
      "ĠØªÙĨ": 261,
      "Ø´Ø¯": 262,
      "ÙĦÛĮØ¯": 263,
      "ĠØªØ§": 264,
      "ĠÙĨÛĮ": 265,
      "ĠÚ©Ø±Ø¯": 266,
      "Ø§ÙĨÚ©": 267,
      "ĠÚ©Ø´": 268,
      "ĠØ§ÛĮØ±Ø§ÙĨ": 269,
      "ĠÚ©ÙĨ": 270,
      "Ø§ØªÛĮ": 271,
      "ĠØ¯Ø§Ø´": 272,
      "ĠØ§ÙĤ": 273,
      "ĠÛĮÚ©": 274,
      "ĠØ®ÙĪ": 275,
      "ĠØ³Ùĩ": 276,
      "ĠØªÙĪÙĦÛĮØ¯": 277,
      "ĠÙħØ¹Ø§ÙħÙĦ": 278,
      "ĠØ¨Ø§ÙĨÚ©": 279,
      "Ø§ÙĨÛĮ": 280,
      "Ø§ÙĤ": 281,
      "ĠÙħØª": 282,
      "ÙĪÛĮ": 283,
      "Ø²ÛĮ": 284,
      "ÙģØªÙĩ": 285,
      "Ø±Ø®": 286,
      "Ú©Ùĩ": 287,
      "ÙħÛĮ": 288,
      "Ø§Øµ": 289,
      "ĠØ±Ø´Ø¯": 290,
      "Ø§ÛĮÙĩ": 291,
      "Ø§Ø¹": 292,
      "Ø§Ø¯ÛĮ": 293,
      "ĠÙħØ´": 294,
      "ĠØ±ÙĪØ²": 295,
      "ĠÙħÛĮÙĦÛĮÙĪÙĨ": 296,
      "Ø¨Ùĩ": 297,
      "ĠÙĩØ±": 298,
      "Ø§Ø¯Ø±": 299,
      "Ø±Ø¯Ùĩ": 300,
      "ĠØ±Ø³ÛĮ": 301,
      "Ø¨ÙĦ": 302,
      "ĠØ´ÙĪØ¯": 303,
      "ĠØ¹Ø±": 304,
      "Ø§Ø¯Ùĩ": 305,
      "ĠÙĦ": 306,
      "ĠØ¯Ùĩ": 307,
      "ĠØ§ÙĦ": 308,
      "Ø±Ùĩ": 309,
      "ĠÙĨØ±Ø®": 310,
      "Ø¬Ùĩ": 311,
      "ĠÚ©Ø´ÙĪØ±": 312,
      "Ø§ÙĩØ¯": 313,
      "ÙĨÛĮ": 314,
      "ĠÙħØ¯": 315,
      "ÙĨÚ¯": 316,
      "ĠÙĨØ³": 317,
      "ÙħÙĦ": 318,
      "ĠÙĩØ²Ø§Ø±": 319,
      "ĠØªØŃ": 320,
      "ÙĪÙħ": 321,
      "ĠØ§Ø®": 322,
      "ĠØµØ§Ø¯Ø±": 323,
      "ĠØ¨ÙĪØ¯Ùĩ": 324,
      "Ø«": 325,
      "ĠÙĨØ³Ø¨Øª": 326,
      "ÙĪØ¹": 327,
      "ĠØ§ÙĤØªØµ": 328,
      "ĠÙĨÙħ": 329,
      "ĠÙĨØ´": 330,
      "ÙĩØ§ÛĮ": 331,
      "ĠØ¨ÛĮØ´": 332,
      "Ø´ØªÙĩ": 333,
      "ĠÚ¯Ø§Ø²": 334,
      "ĠØ³ÙĪØ¯": 335,
      "Ø¯ÙĪØ¯": 336,
      "ĠÙ¾Ø§ÛĮ": 337,
      "Ø¨ÛĮ": 338,
      "Ø§Ø¶": 339,
      "ĠØº": 340,
      "ÙĨØ¯Ùĩ": 341,
      "ĠÙģØ±": 342,
      "ĠÚ¯Ø°Ø´ØªÙĩ": 343,
      "ĠØªØ±": 344,
      "ØµÙĪÙĦ": 345,
      "ĠÚ©Ø§Ø±": 346,
      "ĠÙħØ¬": 347,
      "ĠÙ¾ÛĮØ´": 348,
      "Ø±Ùģ": 349,
      "ĠØªÙĤ": 350,
      "ĠØ§Ø¨": 351,
      "ĠØ§Ø¹": 352,
      "ĠØ¯ÛĮ": 353,
      "ĠÙĩÙģØªÙĩ": 354,
      "ÙĤÛĮ": 355,
      "Ø§ØŃ": 356,
      "ĠØ¨ÛĮÙĨ": 357,
      "Ø±ÛĮÚ©": 358,
      "ĠØ¬Ùĩ": 359,
      "Ø§ÙħØ¯": 360,
      "ĠØ¯Ø§Ø´ØªÙĩ": 361,
      "Ø§ÙħÙĩ": 362,
      "ĠÙĤØ±": 363,
      "ĠÚ©ÙĨØ¯": 364,
      "ĠØ¯Ø§Ø±": 365,
      "Ø±Ø§ÛĮ": 366,
      "ĠØ³ÛĮ": 367,
      "ÙĪØ±Ø¯": 368,
      "Ø±ÙħØ§ÛĮÙĩ": 369,
      "Ø¶Ùĩ": 370,
      "Ø²ÛĮÙĨ": 371,
      "ĠÙħØ§ÙĦÛĮ": 372,
      "ÙĪØ±Ø³": 373,
      "Ø±ÛĮØ¯": 374,
      "ĠØ³Ø±ÙħØ§ÛĮÙĩ": 375,
      "ĠÙħØ±Ú©": 376,
      "Ú¯Ø±": 377,
      "ĠØ¯ÙĩØ¯": 378,
      "Ø³Ùĩ": 379,
      "Ø§ÛĮØ±": 380,
      "ĠÛĮØ§Ùģ": 381,
      "ĠØ®ÙĪØ§ÙĩØ¯": 382,
      "Ø¯ÛĮ": 383,
      "ĠØ¹Ø±Ø¶Ùĩ": 384,
      "ĠØ¯ÙĪ": 385,
      "ĠÙħØ§ÙĩÙĩ": 386,
      "ĠÚĨÛĮÙĨ": 387,
      "ÙĦÙĩ": 388,
      "ĠØ§ÙħØ±ÛĮÚ©": 389,
      "Ú¯Ø§Ùĩ": 390,
      "Ø§ÙĨØ¯": 391,
      "Ú©ÙĨ": 392,
      "ĠØªØ¹": 393,
      "ĠØ±Ø³ÛĮØ¯": 394,
      "Ø²Ø§Ø±Ø´": 395,
      "ĠØ¯ÙĪÙĦ": 396,
      "ĠÚ©Ùħ": 397,
      "ĠÙħØ¹Ø§ÙħÙĦØ§Øª": 398,
      "ĠÙĨÛĮØ²": 399,
      "Ø¯Ø±": 400,
      "ĠØ¨Ø§Ø´": 401,
      "ÙĨÙĪ": 402,
      "ĠÙħØŃØµÙĪÙĦ": 403,
      "ĠØ¯Ø³Øª": 404,
      "Ġ-": 405,
      "ÙĪÙĤ": 406,
      "Ø§Ø±Ùĩ": 407,
      "ĠØ«": 408,
      "ĠÚ¯Ø²Ø§Ø±Ø´": 409,
      "ĠØ®Ø±ÛĮØ¯": 410,
      "ĠØ§Øª": 411,
      "ĠØ§Ø±Ø²Ø´": 412,
      "ĠØ¨Ø´": 413,
      "ĠØ¨ÙĪØ±Ø³": 414,
      "ĠØ¨Ø§ÙĦ": 415,
      "ĠÙħÙĤ": 416,
      "ÙĦØ§Ùħ": 417,
      "Ø§Ø³Øª": 418,
      "ĠÙħØ³": 419,
      "Ø³ÛĮÙĩ": 420,
      "ĠÚ©Ø±Ø¯Ùĩ": 421,
      "ĠØ¯Ø§Ø±Ø¯": 422,
      "ĠÙĩÙħÚĨ": 423,
      "ĠØ§ÙħØ±ÛĮÚ©Ø§": 424,
      "ĠØ¨Ø´Ú©Ùĩ": 425,
      "ĠÙĨØ¸": 426,
      "ĠÙĤØ¨ÙĦ": 427,
      "ĠØ¹Ùħ": 428,
      "ĠØ§ÙĨØ¯": 429,
      "ĠÙĪØ§Ø±Ø¯": 430,
      "Ø³ØªØ§ÙĨ": 431,
      "ĠØ®Ø§Ùħ": 432,
      "ĠÙĨÙĤ": 433,
      "ÚĺÛĮ": 434,
      "ĠÚ©Ø§ÙĦ": 435,
      "ĠÙĩÙħÚĨÙĨ": 436,
      "ĠØ±ÙĪØ³ÛĮÙĩ": 437,
      "ÙĦÛĮÙĦ": 438,
      "ĠÙħÙĩ": 439,
      "ĠÙħØ±": 440,
      "ĠØµÙĨ": 441,
      "ĠØ¯ÙĪÙĦØª": 442,
      "ĠØ§ÙĨØª": 443,
      "Ú¯ÛĮ": 444,
      "Ø¹ÛĮ": 445,
      "ĠÙħØ±Ú©Ø²ÛĮ": 446,
      "ĠØ¯Ø§Ø´Øª": 447,
      "ĠØ³Ø§Ø²": 448,
      "Ø¨Ø±": 449,
      "ĠÚ¯Ø°Ø§Ø±ÛĮ": 450,
      "Ø´Øª": 451,
      "ÙĪÙ¾": 452,
      "ĠØŃØ¯ÙĪØ¯": 453,
      "Ø¯ÛĮØ¯": 454,
      "ĠØªÙĤØ§Ø¶": 455,
      "ĠÙĨØ´Ø§ÙĨ": 456,
      "ÛĮØ³": 457,
      "Ø§ÛĮØ¯": 458,
      "ÙĩØ§": 459,
      "ĠÙħÛĮØ§ÙĨ": 460,
      "ÛĮÙħØ§ÙĨ": 461,
      "ĠØªÙĪØ³": 462,
      "ĠØŃØ§ÙĦ": 463,
      "ÛĮÙħÛĮ": 464,
      "ÙĪØ³": 465,
      "Ø§Ø¨ÙĦ": 466,
      "Ø¬Ø§Ùħ": 467,
      "Ø³ÙĪØ¯": 468,
      "ĠØ¨Ø§Ø´Ø¯": 469,
      "Ø®Øª": 470,
      "Ø±ÚĺÛĮ": 471,
      "ĠÚ¯ÙģØª": 472,
      "ĠÙħØ¹Ø§ÙħÙĦÙĩ": 473,
      "ĠØ¯Ø§Ø¯": 474,
      "Ø¹Ùĩ": 475,
      "Ø±ÛĮÙĨ": 476,
      "ØªØµØ§Øµ": 477,
      "ĠÙħØµ": 478,
      "ĠØµØ§Ø¯Ø±Ø§Øª": 479,
      "ÛĮØ§ÙĨ": 480,
      "ĠØ¨Ø®": 481,
      "ÛĮÙĩ": 482,
      "ĠØ§ÙĨØ±ÚĺÛĮ": 483,
      "Ø¯Ùħ": 484,
      "ĠØ±Ø³": 485,
      "ĠØ§ÙĤØªØµØ§Ø¯ÛĮ": 486,
      "ĠÚ©ÙĦ": 487,
      "ĠÙĩØ³Øª": 488,
      "Ø§ØµÙĦ": 489,
      "ÙĪØ²": 490,
      "ĠØ§Ø±ÙĪÙ¾": 491,
      "ĠØ®ÙĪØ¯Ø±ÙĪ": 492,
      "ĠØ°": 493,
      "ĠØ¨ÛĮØ´ØªØ±": 494,
      "er": 495,
      "ĠØ§ÙħØ§": 496,
      "Ø¬ÙĪØ¯": 497,
      "ĠÚ©ÙĨÙĨØ¯": 498,
      "ĠØªØ¬": 499,
      "ĠÙħØ§ÙĩØ§ÙĨÙĩ": 500,
      "ĠÛĮØ§ÙģØª": 501,
      "ĠØ§Ø±Ø²ÛĮ": 502,
      "ĠØ¨ÙĨ": 503,
      "Ø´ÙĨ": 504,
      "ĠÙ¾Ø§ÛĮØ§ÙĨ": 505,
      "Ú¯Ø§ÙĨ": 506,
      "ĠÙģØ¹": 507,
      "ar": 508,
      "Ú¯ÛĮÙĨ": 509,
      "ĠÙħØ¯Øª": 510,
      "ĠØŃØ§ØµÙĦ": 511,
      "ĠØ§Ø¬": 512,
      "Ø§Ø¬": 513,
      "Ø§Ø®Øª": 514,
      "ØªØµØ§ØµÛĮ": 515,
      "ĠØ§": 516,
      "ĠÙĤØ±Ø§Ø±": 517,
      "ÛĮØ±ÛĮ": 518,
      "ĠØ§Ø¯": 519,
      "ĠÚ¯Ø±": 520,
      "ÙĪØ±Øª": 521,
      "ĠÙĩÙħÚĨÙĨÛĮÙĨ": 522,
      "ÙħÛĮÙĨ": 523,
      "Ø±Ú¯": 524,
      "ÙħÙĨ": 525,
      "Ø³ÛĮÙħØ§ÙĨ": 526,
      "ÙħÙĪØ¹": 527,
      "ĠØ§Øµ": 528,
      "ĠØ¬Ùħ": 529,
      "ĠØ³ÙĩØ§Ùħ": 530,
      "ĠØªÙĪØ±": 531,
      "ĠÙħÛĮØ§ÙĨÚ¯ÛĮÙĨ": 532,
      "ĠÙ¾Øª": 533,
      "Ø¨ÙĦØº": 534,
      "ÙĪØ¨": 535,
      "ĠØ¨Ø±ÙĨ": 536,
      "Ø§ÛĮØ¹": 537,
      "Ø§Ø®ØªØµØ§ØµÛĮ": 538,
      "ĠØ§Ø±ÙĪÙ¾Ø§": 539,
      "ĠØ§ÙĤØªØµØ§Ø¯": 540,
      "ĠØ²ÛĮØ±": 541,
      "ĠÙħØ¨ÙĦØº": 542,
      "ĠØ¯Ø§Ø¯Ùĩ": 543,
      "ĠÙĨÙħØ§Ø¯": 544,
      "ĠØµÙĨØ¹": 545,
      "ĠØ±Ø³ÛĮØ¯Ùĩ": 546,
      "ĠØ¨Ø®Ø´": 547,
      "ĠØ´Ùħ": 548,
      "Ø²ÛĮÙĨÙĩ": 549,
      "Ø±Ø³ÛĮ": 550,
      "Ú©ÙĦ": 551,
      "ĠØ¶": 552,
      "ĠØ§Ø¹ÙĦØ§Ùħ": 553,
      "ĠÚĨÙĩ": 554,
      "ĠØ³Ø±": 555,
      "ĠØ³ÙĪ": 556,
      "ĠØ§ÙģØª": 557,
      "Ġj": 558,
      "Ø§Ø±Ø§ÙĨ": 559,
      "ĠÙĨØ¸Ø±": 560,
      "ĠØ¬Ø¯ÛĮØ¯": 561,
      "ĠØ¨Ø§ÛĮØ¯": 562,
      "ÙģÛĮ": 563,
      "Ú©Ø±": 564,
      "Ø§ÙħÛĮÙĨ": 565,
      "ØªÙħ": 566,
      "Ġm": 567,
      "Ø§ÙĨÙĪ": 568,
      "ĠØ§ØŃ": 569,
      "Ø±ÙĪÙĩ": 570,
      "ĠØ§Ø³Ø§Ø³": 571,
      "ĠÙĪØ§ØŃ": 572,
      "ĠØ§Ø³ÛĮ": 573,
      "ÙĦÛĮÙĩ": 574,
      "ĠØ¯Ø±ÛĮ": 575,
      "ĠØµØ§Ø¯Ø±Ø§ØªÛĮ": 576,
      "ÙĤÙĩ": 577,
      "ĠØªÙĪØ¬Ùĩ": 578,
      "ÚĺÙĩ": 579,
      "ĠØºÛĮØ±": 580,
      "ĠÙħØ¯ÛĮØ±": 581,
      "Ø§Ù¾": 582,
      "Ġa": 583,
      "ĠØµÙĪØ±Øª": 584,
      "Ø§Ø¨Øª": 585,
      "ber": 586,
      "ĠÚ©Ø§ÙĦØ§": 587,
      "Ø§Ø¨Ùĩ": 588,
      "ĠÙħÙĪØ±Ø¯": 589,
      "ĠÙħØ¨": 590,
      "Ø³ØªÙĩ": 591,
      "ĠØ¯Ø§Ø®": 592,
      "ĠØ§ÙĨØ¬Ø§Ùħ": 593,
      "ĠØ¬ÙĩØ§ÙĨÛĮ": 594,
      "ĠØ±ÛĮÛĮØ³": 595,
      "ØºÛĮ": 596,
      "ĠØªÙĪØ±Ùħ": 597,
      "ĠØŃØ§ÙĦÛĮ": 598,
      "ĠÙ¾Ø§ÙĦ": 599,
      "ĠØ§ÙĪØ±": 600,
      "Ø§Ø·": 601,
      "ĠÙħÛĮØ²": 602,
      "ĠØ¨Ø²": 603,
      "ĠÙ¾Ø³": 604,
      "ĠØªØ§ÙħÛĮÙĨ": 605,
      "ĠØ±ÙĪÙĨØ¯": 606,
      "an": 607,
      "ÙĦÙĪ": 608,
      "ĠÙħØ§": 609,
      "ĠØªÙħ": 610,
      "ĠÙģØ¹Ø§ÙĦ": 611,
      "ĠÙħØŃØµÙĪÙĦØ§Øª": 612,
      "Ø±ÙĪØ´ÛĮÙħÛĮ": 613,
      "ĠØªÙĪØ§ÙĨ": 614,
      "Ø§ÙĦØµ": 615,
      "ĠÙĤØ§Ø¨ÙĦ": 616,
      "Ú©ÛĮ": 617,
      "ĠØ³ÙĨÚ¯": 618,
      "ĠØ¹ÙħÙĦÛĮ": 619,
      "ĠÙ¾Ø§ÙĦØ§ÛĮØ´": 620,
      "ĠÛĮØ§": 621,
      "ĠØ¨ÛĮÙĨÛĮ": 622,
      "ĠØ¯ÙĦÛĮÙĦ": 623,
      "ĠÙ¾ÛĮ": 624,
      "ÙĪÙĦÙĩ": 625,
      "Ø§ÛĮØª": 626,
      "ĠÙ¾ØªØ±ÙĪØ´ÛĮÙħÛĮ": 627,
      "Ø§Ø²ÛĮ": 628,
      "Ø¯Ø±Ø§ÙħØ¯": 629,
      "ĠÙ¾Ø±ÙĪ": 630,
      "ÙĪØ±ÛĮ": 631,
      "ĠÙĪØ§Ø±Ø¯Ø§Øª": 632,
      "ĠÙĩÛĮ": 633,
      "ĠÙħØ´Ø§Ø¨Ùĩ": 634,
      "Ġc": 635,
      "ØºÛĮÛĮØ±": 636,
      "ĠØ§ÙĨØªØ¸": 637,
      "ĠÙĤØ·": 638,
      "ĠØ¯Ø§Ø®ÙĦÛĮ": 639,
      "Ø§ÙĦØ§Øª": 640,
      "Ø±Ø¯Ø§Ø¯": 641,
      "Ø§Ø±Øª": 642,
      "ĠÙĪØ²": 643,
      "Ø§ÙħÛĮ": 644,
      "ĠØ·ÙĦ": 645,
      "ĠØ¨Ø¯": 646,
      "ĠØµÙĨØ¯": 647,
      "ĠÙĪÛĮ": 648,
      "ĠØ¨Ø±Ø®": 649,
      "Ø±Ø§Øª": 650,
      "ĠØ®Ø§Ø±": 651,
      "ĠØ´Ùĩ": 652,
      "ÙĪØª": 653,
      "ĠØªÛĮ": 654,
      "ÙĪÙĦÛĮ": 655,
      "Ø¬ÛĮ": 656,
      "Ġl": 657,
      "ĠØ§ÙĨØªØ¸Ø§Ø±": 658,
      "ÙģØ±": 659,
      "ĠÙħØ¬ÙħÙĪØ¹": 660,
      "Ġf": 661,
      "ĠÙħÛĮØ²Ø§ÙĨ": 662,
      "Ú¯Ø±Ø¯": 663,
      "Ø§Ø±Ø³": 664,
      "ĠÙħØªØŃ": 665,
      "ĠØ§Ø·": 666,
      "ĠØªØµ": 667,
      "Ø±ØŃ": 668,
      "Ġs": 669,
      "ĠØªØºÛĮÛĮØ±": 670,
      "ĠØ³Ø§Ø²ÙħØ§ÙĨ": 671,
      "Ø§ÙĨÙĪØ§Ø¹": 672,
      "ĠÙĪØ¬ÙĪØ¯": 673,
      "Ø§Ø´ÛĮ": 674,
      "ØªØ±ÛĮÙĨ": 675,
      "Ø¯Ø¯": 676,
      "ĠÙħØŃÙħ": 677,
      "ĠÚ¯ÙĪ": 678,
      "ĠØ¨ÛĮ": 679,
      "ĠØ§ÙĪØ±Ø§ÙĤ": 680,
      "ĠÙħØŃØ¯ÙĪØ¯": 681,
      "Ø§Ø²Ùħ": 682,
      "ĠÚ¯Ø±ÙĪÙĩ": 683,
      "ĠÙħÙĪØ¶": 684,
      "ĠØ´ÙĨ": 685,
      "em": 686,
      "ÙĪØ§ÙĨ": 687,
      "ĠØ¯Ø§Ø±Ø§ÛĮÛĮ": 688,
      "ØªØ¯": 689,
      "Ø¯Ø§Ùħ": 690,
      "ÙĨÙĩ": 691,
      "ĠØ¯ÛĮÚ¯Ø±": 692,
      "ĠØ±ÙĤ": 693,
      "ĠØªÙĩ": 694,
      "ĠØ§Ùĩ": 695,
      "ĠÙĨØ¯": 696,
      "Ø§ÙģÙĤ": 697,
      "ĠØ³ÙĩÙħ": 698,
      "ĠØ¯Ø±Ø§ÙħØ¯": 699,
      "ÙĪØ·": 700,
      "ĠØ§ÙĪØ±Ùĩ": 701,
      "ØªØ¨": 702,
      "ĠÙħØ°": 703,
      "ĠÙħÙĪØ¶ÙĪØ¹": 704,
      "ĠÙħØ·": 705,
      "ĠØ§Ø®Ø±ÛĮÙĨ": 706,
      "ĠØ¨Ø²Ø±Ú¯": 707,
      "Ø§ÙĪØ±": 708,
      "ĠØ§Ø¯Ø§ÙħÙĩ": 709,
      "ĠØªØ³": 710,
      "ĠØŃØ¯": 711,
      "ÙĨØ§": 712,
      "ĠØ¨Ø§ÙĦØ§Øª": 713,
      "ĠÙĨÙħÙĪØ¯": 714,
      "ĠØ¸": 715,
      "ÙĦØ§Ø¹": 716,
      "ĠÙħØªØŃØ¯Ùĩ": 717,
      "ĠØ°Ø®": 718,
      "Ø±ÛĮÙħ": 719,
      "ĠÙħØµØ±Ùģ": 720,
      "ember": 721,
      "ĠØŃÙħÙĦ": 722,
      "ĠØªÙĪØ³Ø·": 723,
      "ÙĪÛĮÙĦ": 724,
      "ĠØ¨Ø±Ú¯": 725,
      "ÙħØª": 726,
      "ĠØµÙĨØ¯ÙĪÙĤ": 727,
      "ĠØ³ÛĮØ§Ø³Øª": 728,
      "Ø´ÙĨØ¨Ùĩ": 729,
      "ĠÙĩØ²ÛĮÙĨÙĩ": 730,
      "ĠØ³Ù¾": 731,
      "ĠØªÙĤØ§Ø¶Ø§ÛĮ": 732,
      "ĠØ§Ú©": 733,
      "ĠÛĮØ§ÙģØªÙĩ": 734,
      "ÙĪØ´": 735,
      "ĠØ§Ø³ÛĮØ§": 736,
      "ĠØ±ÙĪÛĮ": 737,
      "ĠØ§Ø®ÛĮØ±": 738,
      "Ø³Ø§ÙĦ": 739,
      "ĠØ§Ø¨ØªØ¯": 740,
      "Ø±Ø¨": 741,
      "ĠØ¨ÙĨØ¯": 742,
      "ĠÙħÙĨØª": 743,
      "ĠÙħÙĨØ·": 744,
      "Ø´Ø§Ø±": 745,
      "Ø§Ø«": 746,
      "ĠØ§Ø·ÙĦØ§Ø¹": 747,
      "ĠÙħÙĩÙħ": 748,
      "ĠØ§ÙĪÙĦ": 749,
      "ĠÙ¾Ø±Ø¯": 750,
      "ĠØªÙĤØ§Ø¶Ø§": 751,
      "ĠÙĨÙģØªÛĮ": 752,
      "Ġju": 753,
      "ĠØ¨Ø¹": 754,
      "ĠØªÙĦ": 755,
      "ĠØ¨ÙĪØ¯Ø¬Ùĩ": 756,
      "Ø§Ø®Øµ": 757,
      "Ø¬Ùħ": 758,
      "ĠÙħØ«": 759,
      "ĠØ²ÙħØ§ÙĨ": 760,
      "ØµÙĪ": 761,
      "ĠØ§ÛĮØ§ÙĦØ§Øª": 762,
      "ĠØªÛĮÙ¾": 763,
      "ÙĪÙĨÛĮ": 764,
      "ĠÙģÙĪÙĦ": 765,
      "ĠØ¨Ø§ÙĨÚ©ÛĮ": 766,
      "ĠÙĩØ³ØªÙĨØ¯": 767,
      "ĠØ¨Ø³ÛĮ": 768,
      "Ø¯ÙħØ§Øª": 769,
      "ĠØ¬Ø§Ø±ÛĮ": 770,
      "ĠØ¨Ø±ÙĨØ§ÙħÙĩ": 771,
      "ĠØ¨Ø±Ø®ÛĮ": 772,
      "ĠÙĨØ²": 773,
      "ĠØ³Ø·": 774,
      "ĠØªÙĪØ³Ø¹Ùĩ": 775,
      "ĠØ·ÛĮ": 776,
      "ÙĪØ¯ÛĮ": 777,
      "ĠØªÙĪØ§ÙĨØ¯": 778,
      "ĠØ±Ø§Ùĩ": 779,
      "ÛĮÙĦØ§Øª": 780,
      "Ú©ÙĪ": 781,
      "ĠÙĨÙĩ": 782,
      "ĠØ´Ø§Ø®Øµ": 783,
      "ĠÙĨØ§Ø´ÛĮ": 784,
      "ĠØ¨ÙĨØ²ÛĮÙĨ": 785,
      "Ø´Ùħ": 786,
      "Ġp": 787,
      "ĠÙĪØ§ØŃØ¯": 788,
      "Ø±ÙĤ": 789,
      "ĠØ¯ÙĪÙħ": 790,
      "Ø§ÛĮÙĦ": 791,
      "ĠØ§ÛĮÙĨØ¯Ùĩ": 792,
      "ĠØ³ÙĪÛĮ": 793,
      "Ø±ÛĮÙĤ": 794,
      "ØªØ±ÛĮ": 795,
      "ØµÙĪØµ": 796,
      "Ú¯Ø±Ø§ÙĨ": 797,
      "ĠÚ©ÙħÛĮ": 798,
      "Ú¯ÛĮØ±ÛĮ": 799,
      "ĠÙ¾ÙĦ": 800,
      "ĠØ¯ÙĪØ±": 801,
      "ĠÚĨÙĩØ§Ø±": 802,
      "Ø§Ø¯ÙĦ": 803,
      "ĠØªØŃØ±ÛĮÙħ": 804,
      "ĠØ§ÙĤØ¯Ø§Ùħ": 805,
      "ĠØ¹ÙħÙĦÛĮØ§ØªÛĮ": 806,
      "ĠÙĨÙħÛĮ": 807,
      "ĠØ¨ÙĩØ±Ùĩ": 808,
      "ĠØ³ÙĪØ®Øª": 809,
      "ĠÙĪØ²ÛĮØ±": 810,
      "Ø¨ÙĪØ¯": 811,
      "Ø¨Ø§ÙĦ": 812,
      "ĠØ§Øº": 813,
      "ĠØªØ±ÛĮÙĨ": 814,
      "ĠØ³Ø¨": 815,
      "ĠÙĤØ±Ø§Ø±Ø¯": 816,
      "ĠØ¨Ø§Ø±": 817,
      "ĠØ´Ø§ÙħÙĦ": 818,
      "Ø¹ÛĮØª": 819,
      "ĠØµÙĨØ¹Øª": 820,
      "ĠØ¬ÙĨÙĪ": 821,
      "ĠÙħÙĦÛĮ": 822,
      "ĠØ²ÛĮØ§ÙĨ": 823,
      "ĠØŃÙĤ": 824,
      "ĠÙĩÙĨØ¯": 825,
      "ĠÙĨÛĮÙħ": 826,
      "ÙĨØ¯Ú¯Ø§ÙĨ": 827,
      "ĠØ§Ø´": 828,
      "ĠØ§ÙĪÙĦÛĮÙĩ": 829,
      "ĠØ§Ú¯Ø±": 830,
      "ĠØ¨Ø±ÙĤ": 831,
      "Ø§Ø¨ÛĮ": 832,
      "Ø§Ø¨Ø¹": 833,
      "ĠØ¸Ø±Ùģ": 834,
      "ary": 835,
      "ĠÙĦØ§Ø²Ùħ": 836,
      "Ø¨ÛĮØ¹ÛĮ": 837,
      "Ø±Ø§ÛĮØ·": 838,
      "Ø¯Ø§Ø±ÛĮ": 839,
      "ÙĨØ¬": 840,
      "ĠØ¨Ø±Ø±Ø³ÛĮ": 841,
      "ĠØ³Ùģ": 842,
      "Ø¨Ø§Ø±Ùĩ": 843,
      "ĠØªÙĪØ§ÙģÙĤ": 844,
      "Ø²Ø§Ø±Øª": 845,
      "ĠÙħÙĨØ·ÙĤÙĩ": 846,
      "ĠÙ¾Ø§ÛĮÛĮÙĨ": 847,
      "Ø§ÙĨÙĪÙĦ": 848,
      "uary": 849,
      "ĠØ¬ÙħÙĩ": 850,
      "ĠÚ©ÙħØªØ±": 851,
      "Ú©Øª": 852,
      "ĠØ´Ø±Ø§ÛĮØ·": 853,
      "ÙĦØ³": 854,
      "ĠÚĨÙĨØ¯": 855,
      "ĠÙħØ°Ø§Ú©": 856,
      "Ø¨Ø§Øª": 857,
      "Ø¯ÙĩÛĮ": 858,
      "ĠØ§ØºØ§Ø²": 859,
      "ÙĦÛĮÙĨ": 860,
      "ĠÙħÙĪØ§Ø¯": 861,
      "Ø§Ø¨Ø±": 862,
      "ĠØ·ÙĦØ§": 863,
      "ĠÚ¯Ø±Ø¯": 864,
      "ÙģÙĤ": 865,
      "ĠÙĪØ²Ø§Ø±Øª": 866,
      "ĠØŃØ³": 867,
      "ĠØªØ³Ùĩ": 868,
      "ĠÙĨØ®": 869,
      "ĠØ®ØµÙĪØµ": 870,
      "ĠÙ¾Ø§ÛĮÙĩ": 871,
      "ĠÙħÙĨØ§Ø¨Ø¹": 872,
      "ĠØ³Ø·ØŃ": 873,
      "ĠØ¬ÙĩØ§ÙĨ": 874,
      "ĠØ³Ø§ÛĮØ±": 875,
      "ĠØ§Ø±Ø¯": 876,
      "ĠÙ¾ÙĪÙĦ": 877,
      "ĠÙĨÛĮØ³Øª": 878,
      "ÛĮÙĦÙĨ": 879,
      "ng": 880,
      "ĠÙħØŃÙħÙĪÙĦÙĩ": 881,
      "ĠÚ©ÙĨÛĮÙħ": 882,
      "ĠØ®Ø¨Ø±": 883,
      "ĠØ´Ø¯ÙĨ": 884,
      "Ú©Ø±Ø¯": 885,
      "ĠÚ©ÙĨÙĨØ¯Ùĩ": 886,
      "ĠÛĮÚ©ÛĮ": 887,
      "ĠØªØ±Ú©": 888,
      "ĠØ¨ÙĦ": 889,
      "ĠØªÙĩØ±Ø§ÙĨ": 890,
      "ĠØ°Ø®Ø§ÛĮØ±": 891,
      "ĠØªØŃÙĪÛĮÙĦ": 892,
      "Ø±ÙħÛĮ": 893,
      "ĠØ«Ø¨Øª": 894,
      "Ø®Øµ": 895,
      "ĠÚ¯Ø±ÙģØª": 896,
      "ĠÙ¾Ø±Ø¯Ø§Ø®Øª": 897,
      "ĠÙħÙĪÙģÙĤ": 898,
      "ĠÙģØµ": 899,
      "ĠØ§Ø¨ØªØ¯Ø§ÛĮ": 900,
      "ĠØ·Ø¨ÛĮØ¹ÛĮ": 901,
      "ÙĨÙĪØ§ÙĨ": 902,
      "ĠØ§Ø³Ùģ": 903,
      "ĠØ«Ø§Ø¨Øª": 904,
      "ĠØ¯Ø±ÛĮØ§Ùģ": 905,
      "Ø¶ÛĮ": 906,
      "Ù¾Ú©": 907,
      "ĠØ¹ÙħÙĦ": 908,
      "ÙĪÙĩ": 909,
      "ĠÙ¾Ø§ÙĦØ§ÛĮØ´Ú¯Ø§Ùĩ": 910,
      "ÙģØ§Ø¯Ùĩ": 911,
      "Ø°ÛĮØ±": 912,
      "Ø§Øº": 913,
      "ĠØ²ÛĮ": 914,
      "Ø±Ø§": 915,
      "Ø¯ÙĩØ§ÛĮ": 916,
      "ĠØ¹Ø¯Ø¯": 917,
      "ĠÙħØªØ§ÙĨÙĪÙĦ": 918,
      "ĠÚ©Ø±Ø¯ÙĨØ¯": 919,
      "ĠÙ¾Ø§Ú©": 920,
      "ĠØ§ÙĦÙħÙĦ": 921,
      "ĠÚ¯Ø±ÙģØªÙĩ": 922,
      "Ø§Ø³ÛĮ": 923,
      "ĠØ§ÛĮÙĨÚ©Ùĩ": 924,
      "ĠØ·Ø±ØŃ": 925,
      "ĠØ§Ø³ØªÙģØ§Ø¯Ùĩ": 926,
      "ĠÙ¾ÙĦÛĮ": 927,
      "ĠÙĨÙĤØ¯": 928,
      "ĠØ§ÙħØ§Ø±": 929,
      "Ġâ": 930,
      "ĠØ¨Ø§Ø¹": 931,
      "ĠØŃØ¬Ùħ": 932,
      "ĠØ®ÙĪØ§Ùĩ": 933,
      "ĠØ®Ø§ÙĦØµ": 934,
      "ĠÙ¾Ø±": 935,
      "ĠÙĩØ§ÛĮÛĮ": 936,
      "ĠÙģÙĦÙĩ": 937,
      "ĠØ¨Ø§Ø¹Ø«": 938,
      "ÙĪØ±Ø¯ÛĮÙĨ": 939,
      "ĠÙħØ«Ø¨Øª": 940,
      "ĠØ´ÙĪ": 941,
      "Ġd": 942,
      "ĠØ§ÙĪÙ¾Ú©": 943,
      "ĠØ¹ÙĨÙĪØ§ÙĨ": 944,
      "ĠÚ©Ø³": 945,
      "ĠØªØŃÙĦÛĮÙĦ": 946,
      "Ġ%-": 947,
      "ĠÙģÙĪÙĦØ§Ø¯": 948,
      "ĠØ§ØŃØªÙħ": 949,
      "ÙħØ²": 950,
      "Ø±Ø§Ùĩ": 951,
      "Ø¹ÛĮØ±": 952,
      "ĠØªØ§Ø«": 953,
      "Ġb": 954,
      "Ĥ¬": 955,
      "ĠÙģØ±ÙĪØ±Ø¯ÛĮÙĨ": 956,
      "ĠØ¹Ø±Ø¨": 957,
      "Ø´Ú©": 958,
      "ĠØ¸Ø±ÙģÛĮØª": 959,
      "Ø±Ø§ÛĮÙĨ": 960,
      "ĠØ·ÙĪØ±": 961,
      "ĠØ§ØµÙĦÛĮ": 962,
      "ĠÙħØ§ÙĨ": 963,
      "ĠâĤ¬": 964,
      "Ø´Ø±": 965,
      "ĠØŃÙħ": 966,
      "ĠØ®Ø·": 967,
      "ĠÙħØ±Ø¯": 968,
      "ĠÙħØ±Ø¨": 969,
      "ĠØªÚ©": 970,
      "ĠØ®Ø¯ÙħØ§Øª": 971,
      "ĠØªØ¨": 972,
      "ĠØªØ¹Ø¯": 973,
      "ĠØ§Ø°": 974,
      "ĠØªØ§Ø±ÛĮ": 975,
      "ĠÙĪÛĮÚĺÙĩ": 976,
      "Ġo": 977,
      "ĠØ²ÛĮØ±Ø§": 978,
      "ĠØ¨ÙĩÙħÙĨ": 979,
      "ĠÙģÙĪÙĤ": 980,
      "ØºÙĨ": 981,
      "Ø¨Ø§Ø±": 982,
      "ĠØ¹Ø±Ø¨Ø³ØªØ§ÙĨ": 983,
      "ĠØ±ÙĪØ¯": 984,
      "ĠÚ©Ø§ÙĨ": 985,
      "Ø³Ø§ÛĮØ±": 986,
      "Ø§Ø¨Ø¯": 987,
      "Ú¯ÛĮØ±": 988,
      "ĠØ¨ØŃ": 989,
      "ĠØªØ§Ø±ÛĮØ®": 990,
      "ĠØªØ§Ø«ÛĮØ±": 991,
      "Ġn": 992,
      "ĠØ®Ø±Ø¯Ø§Ø¯": 993,
      "ĠØªØ³ÙĩÛĮÙĦØ§Øª": 994,
      "ÛĮØ¨Ùĩ": 995,
      "Ø§ÙĩØ¯Ùĩ": 996,
      "ĠÙģØ¹Ø§ÙĦÛĮØª": 997,
      "Ø¯Ø§ÙĦ": 998,
      "ÛĮØ¨ÙĩØ´Øª": 999,
      "ĠØµÙĨØ¹ØªÛĮ": 1000,
      "ÙĨÙĪÙĨ": 1001,
      "ĠØ§Ø±Ø¯ÛĮØ¨ÙĩØ´Øª": 1002,
      "ÙĦØ§ØŃ": 1003,
      "Ø¬Ø§Ø¯": 1004,
      "ĠÙħØ´Ø§ÙĩØ¯Ùĩ": 1005,
      "ĠÙĪØ¶": 1006,
      "ĠÙĩØ¯": 1007,
      "ĠÙĩÙħÛĮÙĨ": 1008,
      "Ø§ÙģÛĮ": 1009,
      "ĠØ·Ø±ÛĮÙĤ": 1010,
      "ÙĪØ§Ø±": 1011,
      "ĠÙħÙĨØªØ´Ø±": 1012,
      "ÚĨÙĩ": 1013,
      "ÙħØŃ": 1014,
      "ĠØªØ³Ø¹ÛĮØ±": 1015,
      "ĠÙ¾ÛĮØ´ÙĨÙĩ": 1016,
      "ĠØ³Ø§Ø²ÛĮ": 1017,
      "ĠÙĦØŃ": 1018,
      "Ú¯Ø°": 1019,
      "ĠØ§ÛĮØ¬Ø§Ø¯": 1020,
      "ÙĨØª": 1021,
      "ÙĦÙģ": 1022,
      "Ø¨Ø§": 1023,
      "ĠØ³Ù¾Ø±Ø¯Ùĩ": 1024,
      "ĠØ§ÙħØ³Ø§ÙĦ": 1025,
      "ĠØ³ÙĤ": 1026,
      "ĠØªØ¬Ø§Ø±ÛĮ": 1027,
      "ĠØ§Ø³ÙģÙĨØ¯": 1028,
      "ÙĨØ¨Ø§ÙĦ": 1029,
      "ĠØµÙĨØ§ÛĮØ¹": 1030,
      "ÛĮÙĨÚ¯": 1031,
      "ĠÚ©Ø´ÙĪØ±ÙĩØ§ÛĮ": 1032,
      "ĠØ¹ÙĦ": 1033,
      "ĠØ³Ú©Ùĩ": 1034,
      "ĠÙĩÙħÚĨÙĨØ§ÙĨ": 1035,
      "ÙħÙĪ": 1036,
      "ĠÙħØ±Ú©Ø²": 1037,
      "ĠØªØ§Ú©": 1038,
      "ĠÙĤØ§ÙĨ": 1039,
      "ĠØ´ÙĪØ±": 1040,
      "il": 1041,
      "ĠØ¯ÙĨØ¨Ø§ÙĦ": 1042,
      "ĠØ¨Ø¹Ø¯": 1043,
      "ĠØ§ÙĦÙħÙĦÙĦÛĮ": 1044,
      "Ø¶ÛĮØŃ": 1045,
      "ĠÙħØ±Ø¨ÙĪØ·": 1046,
      "ch": 1047,
      "ĠÙĨÛĮØ§Ø²": 1048,
      "Ġt": 1049,
      "Ø§ÙĦÙĩ": 1050,
      "ĠØªØµÙħ": 1051,
      "ĠÙĨÛĮØ±ÙĪ": 1052,
      "ÛĮÙĨÚ¯ÛĮ": 1053,
      "ĠØ¨Ø¯ÙĪÙĨ": 1054,
      "ĠÙħØ±Ø¯Ùħ": 1055,
      "ĠØªÛĮØ±": 1056,
      "ĠØ¨Ø³ÛĮØ§Ø±": 1057,
      "ĠÛĮØ§Ø¨Ø¯": 1058,
      "ÙĤØ·": 1059,
      "ĠØªÙĪØ¶ÛĮØŃ": 1060,
      "ÛĮÙĨÛĮ": 1061,
      "ĠÚ¯Ø±Ø§ÙĨ": 1062,
      "ĠØ¯ÙĪØ±Ùĩ": 1063,
      "ĠØ´ÙĨØ¨Ùĩ": 1064,
      "ĠÙħÙĪØ¬ÙĪØ¯": 1065,
      "ĠØ³Ø§Ø®Øª": 1066,
      "ĠÙĨÙĤØ¯ÛĮÙĨÚ¯ÛĮ": 1067,
      "ĠØ§Ø±Ø§ÛĮÙĩ": 1068,
      "Ø¯Ø§Ø±": 1069,
      "ĠÙħØ¬ÙĦØ³": 1070,
      "ĠÙĩÙħÙĩ": 1071,
      "ĠÙĤØ±Ø§Ø±Ø¯Ø§Ø¯": 1072,
      "ĠØ®ÙĪØ±": 1073,
      "Ø§ÙĪØ±Ø¯Ùĩ": 1074,
      "ĠØ¯Ø§Ø±ÙĨØ¯": 1075,
      "ĠÙĩÙģØª": 1076,
      "Ø¹ÙĪØ¯ÛĮ": 1077,
      "ĠØ¯Ø§ÙĨ": 1078,
      "Ø§Ø¬Ùĩ": 1079,
      "ĠØ³Ø§Ùħ": 1080,
      "ØªÙĪ": 1081,
      "ÛĮØ±Ùĩ": 1082,
      "Ø«Ø±": 1083,
      "ÙĪÛĮÛĮ": 1084,
      "ĠÙħØ³Øª": 1085,
      "ĠÙĩÙħØ±Ø§Ùĩ": 1086,
      "ĠØ±Ú©": 1087,
      "Ø¶Ø§ÛĮ": 1088,
      "ĠÙħØ°Ø§Ú©Ø±Ø§Øª": 1089,
      "ĠØªØµÙħÛĮÙħ": 1090,
      "ĠØ§ÙĩÙĨ": 1091,
      "Ø³Ø§ÙĨ": 1092,
      "ĠØ¨ÙĨØ¯ÛĮ": 1093,
      "Ø¹Ø¨": 1094,
      "Ø§Ø´Øª": 1095,
      "ĠÙĪÙĦÛĮ": 1096,
      "ÛĮØ²": 1097,
      "ĠØ´ÙĩØ±ÛĮ": 1098,
      "ĠÙħÙĪØ§Ø¬Ùĩ": 1099,
      "ĠÙħÙĨÙģÛĮ": 1100,
      "Ú©Ø§Ø±": 1101,
      "ÙĨØ´": 1102,
      "ÙģØ¹": 1103,
      "Ø§Ø³Ø§Ø³": 1104,
      "ĠØ§ØŃØªÙħØ§ÙĦ": 1105,
      "ØªÙĦ": 1106,
      "ĠÙĨÙĪ": 1107,
      "ÙĩØ±": 1108,
      "ĠØ´Ø§ÙĩØ¯": 1109,
      "Ġmar": 1110,
      "ĠØªÙħØ§Ùħ": 1111,
      "ĠØŃØ§Ø¶": 1112,
      "ĠÙĪØ§ÙĤ": 1113,
      "ĠØ§ÙĨÙĩØ§": 1114,
      "ĠØ²ÙħÛĮÙĨ": 1115,
      "ĠÙģÙĪØ¨": 1116,
      "ĠÙĪØ¶Ø¹ÛĮØª": 1117,
      "ĠØŃØ§Ø¶Ø±": 1118,
      "ĠÙ¾Ø°ÛĮØ±": 1119,
      "Ú©Ø§Ø±ÛĮ": 1120,
      "Ø§ÙĨØ³": 1121,
      "ĠÙĪØ±": 1122,
      "Ú©Ø³": 1123,
      "ĠÙĩÛĮÚĨ": 1124,
      "ĠÚ©ÙĨØªØ±": 1125,
      "ĠØªÙĪÙĦÛĮØ¯Ú©ÙĨ": 1126,
      "Ø·Ùĩ": 1127,
      "ÙĪØ²Ùĩ": 1128,
      "ĠÙĩØ¯Ùģ": 1129,
      "ÙĤÛĮÙĤÛĮ": 1130,
      "Ġlng": 1131,
      "ĠØ§ØªÛĮ": 1132,
      "ÙģØ±ÙĪØ´": 1133,
      "ĠØŃÙĪØ²Ùĩ": 1134,
      "ĠØ®Ø±Ø¯": 1135,
      "ĠÙ¾Ø±ÙĪÚĺÙĩ": 1136,
      "ÙĪÛĮØª": 1137,
      "ĠØ¨Ø±Ø§Ø³Ø§Ø³": 1138,
      "ĠØªØ¬Ø§Ø±Øª": 1139,
      "Ø¹Ø§Øª": 1140,
      "ĠØ§Ø°Ø±": 1141,
      "Ú¯ÙĪ": 1142,
      "ĠÙģØ´Ø§Ø±": 1143,
      "ĠÚ©ÙĨØªØ±ÙĦ": 1144,
      "ÙħØ¬": 1145,
      "ĠØ§ÙĦØ¨": 1146,
      "ĠÙħØ¹Ø¯": 1147,
      "ĠÙħÙĩØ±": 1148,
      "ĠØªØ±Ùħ": 1149,
      "ĠØ¨Ø±Ø§Ø¨Ø±": 1150,
      "Ø§Ø¯ÛĮÙĩ": 1151,
      "ÙĪÙĨÙĩ": 1152,
      "Ġmarch": 1153,
      "ĠØ´Ø¨": 1154,
      "ÙĪÙħÛĮ": 1155,
      "ĠÙĨÙħÙĪØ¯Ø§Ø±": 1156,
      "ĠØ±ÙĤÙħ": 1157,
      "ĠÙħØ¯ÛĮØ±ÛĮØª": 1158,
      "Ġjuan": 1159,
      "ĠÙĨØ²Ø¯ÛĮ": 1160,
      "ĠØ®ÙĪØ¨ÛĮ": 1161,
      "ĠØ§ØªØŃ": 1162,
      "ĠÙĨÙĪØ³": 1163,
      "ĠÙħÙĦ": 1164,
      "ĠÙħØ§ÙĦÛĮØ§Øª": 1165,
      "ĠØ´ÙĪØ±Ø§ÛĮ": 1166,
      "ĠØ¬ÙĩØª": 1167,
      "ĠØªØ®": 1168,
      "ĠÚĨØ´Ùħ": 1169,
      "ØŃÙĩ": 1170,
      "Ú©Ø§ÙĨ": 1171,
      "ĠÙħØ±Ø¯Ø§Ø¯": 1172,
      "ĠØ¬ÙĦ": 1173,
      "ĠÙģØµÙĦ": 1174,
      "ØªÙĤ": 1175,
      "ĠØ¨Ø³ØªÙĩ": 1176,
      "ĠØ¬ÙħÙĩÙĪØ±": 1177,
      "ĠØ¨Ø§ÙĦØ§ØªØ±": 1178,
      "ĠÙĪØ³": 1179,
      "ÙĤÙĦ": 1180,
      "ĠØ§ØªØŃØ§Ø¯ÛĮÙĩ": 1181,
      "ÙģØ§ÙĤ": 1182,
      "ĠØªØ¹Ø¯Ø§Ø¯": 1183,
      "ly": 1184,
      "ĠÚ©ÛĮ": 1185,
      "ĠØŃÙĤÛĮÙĤÛĮ": 1186,
      "ĠØ§ÙĪÚ©": 1187,
      "ĠØ¨Ø§ÙĦØ§ØªØ±ÛĮÙĨ": 1188,
      "ĠØ§ÙĦØ¨ØªÙĩ": 1189,
      "ec": 1190,
      "ĠØ¨Ø¯ÙĩÛĮ": 1191,
      "ĠØ§ØªÙģØ§ÙĤ": 1192,
      "Ġi": 1193,
      "ĠØ·Ø¨": 1194,
      "ĠØ³Ø§Ø¹": 1195,
      "ĠØ§Ø±Ø²ÛĮØ§Ø¨ÛĮ": 1196,
      "Ø²Ùĩ": 1197,
      "ĠØ¨Ø§ÙĦØ§": 1198,
      "ĠÙħØ¹Ø§Ø¯ÙĦ": 1199,
      "ĠØ¯Ø³ØªÙĪØ±": 1200,
      "ĠØ§Ø«": 1201,
      "ĠØ¯Ø±Ø¨Ø§Ø±Ùĩ": 1202,
      "Ø§Ø¸": 1203,
      "ĠØ³ÙĪÙħ": 1204,
      "ØªØ§": 1205,
      "ĠÙ¾ÙĪØ´": 1206,
      "ĠØ¹ÙħÙĦÚ©Ø±Ø¯": 1207,
      "ĠØ§Ø·ÙĦØ§Ø¹Ø§Øª": 1208,
      "ĠØ¹Ø±Ø§ÙĤ": 1209,
      "ĠØ±Ø³Ø§ÙĨØ¯": 1210,
      "ĠØ±ÙģØª": 1211,
      "ĠÚ¯ÙģØªÙĩ": 1212,
      "Ø±ÛĮØ§ÙĨ": 1213,
      "ĠØŃÙħØ§ÛĮØª": 1214,
      "ĠÚ¯ÛĮØ±": 1215,
      "ĠÙ¾ÙĦØ§Ø³": 1216,
      "Ø§ÛĮØ³Ùĩ": 1217,
      "ĠØ§Ø¨Ø§ÙĨ": 1218,
      "ĠØ¯Ø±ÛĮØ§ÙģØª": 1219,
      "ĠÙħÙĨØªÙĩ": 1220,
      "Ø§Ø¯ÙĦÙĩ": 1221,
      "ĠØ¨Ø§ÙĤ": 1222,
      "ĠÙħØ®": 1223,
      "ĠÙ¾Ø§Ú©ØªÛĮ": 1224,
      "ÙħØŃØµÙĪÙĦ": 1225,
      "ĠØ¨Ø±ÙĨØª": 1226,
      "ÙħÙĪØ§Ø¯": 1227,
      "ĠÙ¾ÙĪÙĦÛĮ": 1228,
      "pr": 1229,
      "Ø§Ø´ÛĮÙĩ": 1230,
      "ĠØ¬Ø§ÛĮ": 1231,
      "ĠÙħØ¨Ø§Ø¯ÙĦÙĩ": 1232,
      "Ø®Ø§ÙĨÙĩ": 1233,
      "ÙĪØ³Ø·": 1234,
      "ĠÙħØ®Øª": 1235,
      "ĠÙħÙĨØªÙĩÛĮ": 1236,
      "ĠÙĨÙħØ§ÛĮ": 1237,
      "ĠØ§ØµÙĦØ§ØŃ": 1238,
      "ĠÙĨØ²Ø¯ÛĮÚ©": 1239,
      "ĠØ§ÙĨØ¯Ø§Ø²": 1240,
      "ĠØŃÙģ": 1241,
      "ĠÚ©Ø§ÙħÙĦ": 1242,
      "ĠØŃØ§Ø´ÛĮÙĩ": 1243,
      "ĠÙĨÙĪØ³Ø§ÙĨ": 1244,
      "ĠÙĨÚ¯Ø±Ø§ÙĨ": 1245,
      "ĠØ³Ø§ÙħØ§ÙĨÙĩ": 1246,
      "ĠØ³ÙĩØ§ÙħØ¯": 1247,
      "Ø¶Ø§": 1248,
      "ØªÙĪØ±": 1249,
      "ĠØ±ÙĪØºÙĨ": 1250,
      "ĠÙ¾ÛĮØ´ÙĨÙĩØ§Ø¯": 1251,
      "ĠØ´ÙĩØ±ÛĮÙĪØ±": 1252,
      "ĠÙħØªÙĪØ³Ø·": 1253,
      "ĠØ³Ø®": 1254,
      "ĠØ§ÙĪÚ©Ø±Ø§ÛĮÙĨ": 1255,
      "Ø±Ø§ÙĨÙĩ": 1256,
      "ĠÙħÙĤØ§ÛĮØ³Ùĩ": 1257,
      "ØºØ§ÙĦ": 1258,
      "Ø¬Ø±": 1259,
      "ĠÙ¾ÙĨØ¬": 1260,
      "ĠØ§Ø¬Ø±Ø§ÛĮ": 1261,
      "ĠÙĨÚ©": 1262,
      "Ú¯Ùĩ": 1263,
      "ĠØ§Ø²Ø§Ø¯": 1264,
      "Ø¯Ø§ÙĨ": 1265,
      "ĠØ®Ø§ÙĪ": 1266,
      "ĠØ¬Ø±ÛĮØ§ÙĨ": 1267,
      "ĠÙĨØ´Ø¯Ùĩ": 1268,
      "br": 1269,
      "ĠÙĩØ³ØªÙĩ": 1270,
      "ĠØ¹Ø¯Ùħ": 1271,
      "ĠÙħØ³ÛĮØ±": 1272,
      "ĠÙħØ´Ú©ÙĦ": 1273,
      "Ø³ØªØ±": 1274,
      "ĠÚ©ÙħÚ©": 1275,
      "ĠØ´Ø±ÙĤ": 1276,
      "Ø§ÙĪØ±ÛĮ": 1277,
      "Ø¨Ø±ÛĮ": 1278,
      "Ġg": 1279,
      "ĠØ§ÙħÙĪØ±": 1280,
      "Ø§ÛĮØ¹Ø§Øª": 1281,
      "Ġjuly": 1282,
      "ĠÙģØ±ÙĪ": 1283,
      "Ø±ÙħÛĮØ§ÙĨÙĩ": 1284,
      "ĠÙĤØ§ÙĨÙĪÙĨ": 1285,
      "Ø§ÙĩØ§ÛĮ": 1286,
      "ÙħØ¯": 1287,
      "ĠÚ©Ø§ÙĨØ§ÙĦ": 1288,
      "Ġfe": 1289,
      "ĠØªØ§ÛĮ": 1290,
      "ĠØ®Ø§ÙĪØ±ÙħÛĮØ§ÙĨÙĩ": 1291,
      "ĠØ®Ø§Ø±Ø¬ÛĮ": 1292,
      "fr": 1293,
      "Ø§ÙĪØ±Ø¯": 1294,
      "ĠÙģØ±Ø§ÙĪØ±Ø¯Ùĩ": 1295,
      "ĠØªØŃØª": 1296,
      "to": 1297,
      "Ġapr": 1298,
      "ĠÙħÚ©": 1299,
      "Ġapril": 1300,
      "ĠÙĩÙĪ": 1301,
      "ĠØªØ¹Ø·": 1302,
      "Ø§Ø¯ÙĩØ§ÛĮ": 1303,
      "Ø§ÙĪÙĩ": 1304,
      "ØµØ¯": 1305,
      "ĠØ³ÙĨÚ¯ÛĮÙĨ": 1306,
      "ÙħÚ©ÙĨ": 1307,
      "Ø§Ø¯Ø§Ø±": 1308,
      "ĠØ±Ø³ÙħÛĮ": 1309,
      "ĠØ·Ø±Ùģ": 1310,
      "ĠØ¬ÙĦØ³Ùĩ": 1311,
      "ĠØ¬ÙĨÙĪØ¨ÛĮ": 1312,
      "ÙħØ¬ÙħÙĪØ¹": 1313,
      "ĠØ§Ø²Ø§ÛĮ": 1314,
      "ĠØ±Ø³Ø¯": 1315,
      "ĠÙ¾ÙĪØ´Ø´": 1316,
      "ep": 1317,
      "ĠØªÙĦØ§Ø´": 1318,
      "ĠØ¬ÙĨÙĪØ¨": 1319,
      "ÙĤÙĤ": 1320,
      "ĠØ§ØªÛĮÙĦÙĨ": 1321,
      "ĠÙĨØ§Ø®": 1322,
      "ĠØ·Ø¨ÙĤ": 1323,
      "Ú¯Ø²": 1324,
      "Ø§ÙĪÙĨ": 1325,
      "ĠÙĨØ¯Ø§Ø±Ø¯": 1326,
      "st": 1327,
      "ĠØªØ¹ÛĮ": 1328,
      "ĠØ±ÙĤØ§Ø¨Øª": 1329,
      "ĠØ®ÙĪØ±Ø§Ú©": 1330,
      "ĠØªØ¹ÛĮÛĮÙĨ": 1331,
      "ĠØŃØ³Ø§Ø¨": 1332,
      "Ø²Ø§ÛĮ": 1333,
      "ĠØ¯Ø³ØªÚ¯Ø§Ùĩ": 1334,
      "ĠÙĨØ§Ùħ": 1335,
      "ĠØ³ÙħØª": 1336,
      "ĠØ´ÙĪÙĨØ¯": 1337,
      "ĠÙħÙħÚ©ÙĨ": 1338,
      "ÛĮØªØ±": 1339,
      "ĠØ¯ÛĮØ¯": 1340,
      "ĠØ¯ÙĩÙĨØ¯": 1341,
      "bruary": 1342,
      "Ġfebruary": 1343,
      "ÙħØ¬ÙħÙĪØ¹Ùĩ": 1344,
      "ĠØ®Ø§Ø±Ø¬Ùĩ": 1345,
      "ĠØ§ÙħÛĮØ¯": 1346,
      "ĠÙĨÛĮÙħÙĩ": 1347,
      "Ġcfr": 1348,
      "ØªÙĨ": 1349,
      "Ø¨Ø¹": 1350,
      "ĠÙ¾Ø§Ø³": 1351,
      "Ø¹ÛĮÙģ": 1352,
      "Ø³ÛĮÙĪÙĨ": 1353,
      "ÙħØ¹": 1354,
      "ĠØ¨ÛĮØ´ØªØ±ÛĮÙĨ": 1355,
      "ĠØ³Ø§Ø¹Øª": 1356,
      "Ġ%+": 1357,
      "Ø±Ø³": 1358,
      "ØªÛĮØ¬Ùĩ": 1359,
      "Ø±ÙĪØ¹": 1360,
      "ĠØ§ÙĪÙĦÛĮÙĨ": 1361,
      "ÙģØ§ÙĪ": 1362,
      "ĠØªÙĪÙĦÛĮØ¯ÛĮ": 1363,
      "anuary": 1364,
      "ĠÚ©ÛĮÙĦ": 1365,
      "ĠØªØ±Ú©ÛĮÙĩ": 1366,
      "ĠÙħØ³Ú©ÙĨ": 1367,
      "ĠÚ©ÙĪ": 1368,
      "ĠØ§Ø¹ØªØ¨": 1369,
      "ĠØ§ÙģØ²ÙĪØ¯": 1370,
      "ĠÙĨØ®Ø³Øª": 1371,
      "ĠÙĨÙĤÙĦ": 1372,
      "ĠÙĨØ§Ø®Ø§ÙĦØµ": 1373,
      "ĠØ²ÛĮØ§Ø¯ÛĮ": 1374,
      "ĠØ¹ÙĦÛĮ": 1375,
      "Ø§Ø¨ÙĤ": 1376,
      "ĠÙĨØªÛĮØ¬Ùĩ": 1377,
      "Ø§ÛĮÙĨ": 1378,
      "ĠÙģØ§Ø±Ø³": 1379,
      "ÙĩØ¯": 1380,
      "ĠØ¨Ø±Ø¬Ø§Ùħ": 1381,
      "ÛĮØ¯Ø§": 1382,
      "ĠÚ©Ø§Ø±ÙħØ²": 1383,
      "ĠØ²Ùħ": 1384,
      "ĠÚ©Ø±Ùĩ": 1385,
      "ĠØªÙĨÙĩØ§": 1386,
      "ÙħÙĦÙĩ": 1387,
      "Ġe": 1388,
      "ĠÙģÙĦ": 1389,
      "ĠÚ©Ø§Ø±Ø´ÙĨ": 1390,
      "Ġjanuary": 1391,
      "ĠÚ©Ø´Ø§ÙĪØ±": 1392,
      "Ø³ØªÛĮ": 1393,
      "ĠØ¯ÙĪÙĦØªÛĮ": 1394,
      "ĠØ¨Ø²Ø±Ú¯ØªØ±ÛĮÙĨ": 1395,
      "ĠØ´Ø±ÙĪØ¹": 1396,
      "ĠØ¨Ø±Ø¯": 1397,
      "ÙĩØ²ÛĮÙĨÙĩ": 1398,
      "ĠØªØ§Ø¨": 1399,
      "ÙĨØ§ÙħÙĩ": 1400,
      "ĠØ®Ø±ÛĮØ¯Ø§Ø±ÛĮ": 1401,
      "ĠØ¯ÙĨÛĮ": 1402,
      "Ø§Ø´ØªÙĩ": 1403,
      "ĠØ§Ú©ÙĨÙĪÙĨ": 1404,
      "ĠØ¨ÙĩØ¨ÙĪØ¯": 1405,
      "ĠØ¬ÙĨÚ¯": 1406,
      "ĠØ§Ø¶": 1407,
      "ĠØªØ¯": 1408,
      "ÙĦØ§ÙħÛĮ": 1409,
      "ĠØŃØ¶": 1410,
      "ĠÙħÛĮÙĦ": 1411,
      "ĠØ«Ø¨Ø§Øª": 1412,
      "ĠÙĪÙĤ": 1413,
      "Ø§ÙħÛĮÙĪÙĨ": 1414,
      "ĠØ¯ÙĦ": 1415,
      "ĠØ¹ÙħÙĪÙħÛĮ": 1416,
      "ØªÛĮØ¨": 1417,
      "ĠØ§ÛĮÙħ": 1418,
      "ĠØ¨Ø§ÙĤÛĮ": 1419,
      "ĠÙ¾ÛĮØ¯Ø§": 1420,
      "ÙĦÛĮØ¬": 1421,
      "ĠØ¨ÙĩØ§Ø¯Ø§Ø±": 1422,
      "ĠØ·ÙĪÙĦ": 1423,
      "ĠØ´Ú©": 1424,
      "ĠÙĩÙħÚ©Ø§Ø±ÛĮ": 1425,
      "ĠØ³ÙĤÙģ": 1426,
      "ĠÚ©Ø±Ø¯ÙĨ": 1427,
      "ĠØ§Úĺ": 1428,
      "Ø³Ú©": 1429,
      "Ø±Ø§ÛĮÛĮ": 1430,
      "ĠØ¹Ø¶": 1431,
      "Ø¯ÛĮÙĦ": 1432,
      "ÙħØŃØµÙĪÙĦØ§Øª": 1433,
      "ĠØ²Ø¯": 1434,
      "ĠÙħØ®ØªÙĦÙģ": 1435,
      "ĠØ®Ø±ÛĮØ¯Ø§Ø±Ø§ÙĨ": 1436,
      "ĠØ¬ÙħÙĦÙĩ": 1437,
      "ĠØ§ÙĨØªØ´Ø§Ø±": 1438,
      "ĠÙĩÙħØ§ÙĨ": 1439,
      "ĠÚĺ": 1440,
      "ĠØ´ÙħØ´": 1441,
      "ÛĮØ´Ùĩ": 1442,
      "ĠØ¨Ø®Ø´ÛĮ": 1443,
      "ĠØ´ÙħØ§ÙĦ": 1444,
      "ĠØ³ÙĨØª": 1445,
      "Ø±Ø§ÛĮÛĮÙĦ": 1446,
      "ĠØ³ÙģÛĮØ¯": 1447,
      "ØªØ³": 1448,
      "ĠØ¯Ø±ÛĮØ§ÛĮ": 1449,
      "ov": 1450,
      "ĠÚ©ÙĨÙĨØ¯Ú¯Ø§ÙĨ": 1451,
      "ĠØ±ÛĮÙĨÚ¯": 1452,
      "ĠÙģØ±Ø¯": 1453,
      "ĠØ¨Ø±Ø§ÙĪØ±Ø¯": 1454,
      "ĠØ¨ÙĪØ¯ÙĨØ¯": 1455,
      "ĠØ¯Ø±Ø§Ùħ": 1456,
      "ÙħÛĮØª": 1457,
      "ĠÙĨÚ¯Ø±Ø§ÙĨÛĮ": 1458,
      "ĠØ§ÚĺØ§ÙĨØ³": 1459,
      "ĠØ§Ø³Ø±Ø§ÛĮÛĮÙĦ": 1460,
      "ÙĨÙģØª": 1461,
      "ĠØ¨Ø§Ø²Ú¯": 1462,
      "Ġdec": 1463,
      "ØªØ±Ú©": 1464,
      "ĠÚ©Ø´ØªÛĮ": 1465,
      "ĠÙĨØ´Ø³Øª": 1466,
      "ĠÙħØªØ±": 1467,
      "ĠØ¨Ø±Ú¯Ùĩ": 1468,
      "ĠØ§Ø³ÙĦØ§ÙħÛĮ": 1469,
      "ĠØ³ÙĩØ§ÙħØ¯Ø§Ø±Ø§ÙĨ": 1470,
      "ĠÙ¾Ø±ÙĪÙ¾": 1471,
      "ĠÚ¯ÙĪÚ¯Ø±Ø¯": 1472,
      "ĠÙħÙĨØ¸": 1473,
      "ÙĨÙĪØ²": 1474,
      "ĠØ¨Ø±Ø³": 1475,
      "ĠÙĤØ¨": 1476,
      "ĠÚ¯Ø±Ùħ": 1477,
      "Ú¯Ø±ÛĮ": 1478,
      "ĠÚ©ÙĪØª": 1479,
      "Ġdecember": 1480,
      "ĠØ³ÛĮØ§Ø³ÛĮ": 1481,
      "ĠÙĤÛĮÙħØªÛĮ": 1482,
      "ĠÙĩÙĨÙĪØ²": 1483,
      "Ġoc": 1484,
      "ĠÙĨØ§ÙħÙĩ": 1485,
      "Ø§Ø±Ø§ÙĨÙĩ": 1486,
      "ĠÙħØ´Ø§Ø±": 1487,
      "ĠØªØŃÙĪÙĦ": 1488,
      "ÙĪÙĤÛĮ": 1489,
      "ÛĮÙĦÛĮ": 1490,
      "ĠØ¹ÙħÙĦÛĮØ§Øª": 1491,
      "ĠØ§ÙĦÙĪÙħ": 1492,
      "ĠÙħÙĪØ¬ÙĪØ¯ÛĮ": 1493,
      "Ú©Ùħ": 1494,
      "ĠØªÙĪØ§ÙĨØ³ØªÙĩ": 1495,
      "ĠÚ©Ø´Ø§ÙĪØ±Ø²ÛĮ": 1496,
      "ÙĤØ±": 1497,
      "ĠØ¨ÛĮØ´ØªØ±ÛĮ": 1498,
      "ĠÙħØŃØ¯ÙĪØ¯Ùĩ": 1499,
      "ĠÙĩØ³ØªÛĮÙħ": 1500,
      "tober": 1501,
      "ÙħÙĩ": 1502,
      "Ġoctober": 1503,
      "Ø¸Ùĩ": 1504,
      "ĠÙħØªØ¹": 1505,
      "ĠØ¨Ø³ÛĮØ§Ø±ÛĮ": 1506,
      "ept": 1507,
      "ĠÚ©ÙĪØªØ§Ùĩ": 1508,
      "ĠØ³Ø§ÙĦØ§ÙĨÙĩ": 1509,
      "ĠØ³Ø¨Ú©": 1510,
      "eptember": 1511,
      "ĠØŃÙĦ": 1512,
      "Ġseptember": 1513,
      "ĠØ²ÙħØ§ÙĨÛĮ": 1514,
      "ĠØªØ§Ú©ÛĮØ¯": 1515,
      "Ø¨ÛĮØª": 1516,
      "ĠØ³Ø¹ÙĪØ¯ÛĮ": 1517,
      "ĠÙħÙĤØ§Ùħ": 1518,
      "Ø¹ÙĨÛĮ": 1519,
      "ĠØŃÙĤÙĪÙĤÛĮ": 1520,
      "ĠÙħØ¹Ø§ÙĪÙĨ": 1521,
      "ĠÙĤÛĮØ±": 1522,
      "ĠØµØŃ": 1523,
      "ÙĨÛĮØª": 1524,
      "ĠØ¯ÙĪØ´ÙĨØ¨Ùĩ": 1525,
      "ĠÙĩÙģØªÚ¯ÛĮ": 1526,
      "ÙģØ§ÙĪØª": 1527,
      "ĠØ®ÙĦÛĮØ¬": 1528,
      "ĠÛĮØ¹ÙĨÛĮ": 1529,
      "ĠØ§ÙĨØªÙĤ": 1530,
      "ĠØ´Ø±": 1531,
      "ĠÙĦØŃØ§Ø¸": 1532,
      "Ù¾Ø±Ø¯": 1533,
      "ĠÙģÙĨ": 1534,
      "ĠØ²ÙħØ³ØªØ§ÙĨ": 1535,
      "ĠÙħØ§ÙĨØ¯": 1536,
      "ĠØ´Ø¨Ú©Ùĩ": 1537,
      "ĠÙħØ³ÛĮ": 1538,
      "ĠØŃÙĪ": 1539,
      "ĠÙģØ¹Ø§ÙĦØ§ÙĨ": 1540,
      "ĠÚ©Ø§Ø±Ø´ÙĨØ§Ø³": 1541,
      "ĠÙĪØ±ÙĪØ¯": 1542,
      "ÙģØ§Øª": 1543,
      "ĠÙħØ´Ø®Øµ": 1544,
      "ĠÙĨÙĤØ¯ÛĮ": 1545,
      "ĠÙħØ§ÛĮØ¹": 1546,
      "ĠØ®ÙĪØ¨": 1547,
      "ĠÙħØ¹Ø¯ÙĨÛĮ": 1548,
      "ĠØ¹Ø§ÙħÙĦ": 1549,
      "ĠØŃØ¶ÙĪØ±": 1550,
      "ÙĨÙħ": 1551,
      "Ø³Ø§Ø²": 1552,
      "ÙģÙĩ": 1553,
      "Ø¯ÙĩØ§": 1554,
      "ÛĮÙħÙĩ": 1555,
      "ĠØªØ±Ø§Ø²": 1556,
      "ĠÙģØ¹ÙĦÛĮ": 1557,
      "ĠØŃØªÛĮ": 1558,
      "ÙħÛĮØ±": 1559,
      "ĠÙħÙĪØ¬": 1560,
      "ĠÚ©Ø§Ø±Ø®Ø§ÙĨÙĩ": 1561,
      "ĠÙ¾Ø§Ø±": 1562,
      "Ø²Ø´": 1563,
      "ĠØ§Ø¹Ùħ": 1564,
      "ĠØŃØ±Ú©Øª": 1565,
      "ĠÚ¯Ø±Ø¯Ø¯": 1566,
      "ĠÙħØ´Ø§Ø±Ú©Øª": 1567,
      "ĠØ§Ø¬Ø±Ø§ÛĮÛĮ": 1568,
      "ĠØ®ÙĪØ§ÙĩÙĨØ¯": 1569,
      "Ø§ÙĦØ¨": 1570,
      "ĠÙĤÙĪÛĮ": 1571,
      "Ú©Ø´": 1572,
      "ĠØªÙĤÙĪÛĮØª": 1573,
      "ĠÙħØ¹Ø§ÙħÙĦØ§ØªÛĮ": 1574,
      "ĠÚ©ÙħÛĮØ³ÛĮÙĪÙĨ": 1575,
      "Ġnov": 1576,
      "Ġh": 1577,
      "ØªØ±Ùĩ": 1578,
      "Ø¨ÙĪØ±": 1579,
      "ĠØ´Ùģ": 1580,
      "Ø§Ø²Ùĩ": 1581,
      "ÙĪÛĮÙĩ": 1582,
      "ĠØ¹Ø¶ÙĪ": 1583,
      "ÙĪÙĤÙģ": 1584,
      "ĠÙħØ¬Ø¯Ø¯": 1585,
      "ĠÙ¾Ø§Ø³Ø®": 1586,
      "ÙħÛĮÙĦ": 1587,
      "ĠØ¶Ø¹ÛĮÙģ": 1588,
      "Ġnovember": 1589,
      "ĠÙĨÙģØªØ§": 1590,
      "ĠØ§Ø±Ø§Ùħ": 1591,
      "ĠÙħØ§ÙĦÛĮØ§ØªÛĮ": 1592,
      "ĠØ§Ø®ØªÙĦ": 1593,
      "ÙĪÛĮÛĮÙĦ": 1594,
      "ĠØ¬ÙħÙĩÙĪØ±ÛĮ": 1595,
      "ĠÚ¯ÛĮØ±ÛĮ": 1596,
      "ĠØ®Ø±ÙĪ": 1597,
      "Ø´Ú©Ø±": 1598,
      "Ø¯Ø±Ø§ÙĦ": 1599,
      "gu": 1600,
      "ØµÙĩ": 1601,
      "ĠÙħØŃØ¯ÙĪØ¯ÛĮØª": 1602,
      "ĠØ±Ú©ÙĪØ±Ø¯": 1603,
      "ĠØ´ÛĮØ±": 1604,
      "Ø¹ÙħÙĦ": 1605,
      "ÛĮØ¨": 1606,
      "Ø²ÙĦ": 1607,
      "ÙĤØ¨": 1608,
      "ÙĤÛĮØ±": 1609,
      "ĠØ®Ø§Øµ": 1610,
      "Ø§ØªØ±": 1611,
      "Ø¯ÙĩÙħ": 1612,
      "Ú¯Ø±ÙĪÙĩ": 1613,
      "ĠÚ¯ÙĦ": 1614,
      "ĠØµØ§Ø¯": 1615,
      "ÙĦØ¨": 1616,
      "ĠØ§Ø´Ø§Ø±Ùĩ": 1617,
      "ĠÙħÙĨØ¸ÙĪØ±": 1618,
      "ÙĨÚ¯ÛĮ": 1619,
      "ĠÙħÙĪØ³": 1620,
      "ĠÙħØ§Ø²": 1621,
      "ĠØ§ØŃØªÙħØ§ÙĦØ§": 1622,
      "ĠØªØ±ØªÛĮØ¨": 1623,
      "ĠØ®Ø§Ø±Ø¬": 1624,
      "ĠØ´ÙĨØ§Ø³": 1625,
      "ĠÙĪØ§": 1626,
      "ĠÙħØ·Ø§Ø¨ÙĤ": 1627,
      "Ø®ØªÙĩ": 1628,
      "ĠÚ¯ÛĮØ±Ø¯": 1629,
      "Ø³Ø§Ø²ÛĮ": 1630,
      "ĠØ¹ÙĦÛĮÙĩ": 1631,
      "ĠÚ©ÙĨÛĮØ¯": 1632,
      "ĠÙģØ¯Ø±Ø§ÙĦ": 1633,
      "ÙĨØ¯Ø±": 1634,
      "ĠÚ¯Ø§Ø²ÛĮ": 1635,
      "ĠÙĤØ·Ø¹": 1636,
      "Ø³Ø§ÙĨØªØ±Ùĩ": 1637,
      "ĠØ§ÙĦÙħØ§ÙĨ": 1638,
      "ĠÙĨÚ¯Ùĩ": 1639,
      "ĠÙħØªÙĪÙĤÙģ": 1640,
      "ĠÙħØ§Ø¯Ùĩ": 1641,
      "ĠØ§ÙĤØ¯Ø§ÙħØ§Øª": 1642,
      "ĠØ±Ø²": 1643,
      "ĠØ¯Ø§Ø±ÛĮÙħ": 1644,
      "ĠÙĪØ§ÙĤØ¹": 1645,
      "Ø§Ø¨Ø·": 1646,
      "ĠÚ©Ø§ÙĦØ§ÙĩØ§ÛĮ": 1647,
      "ĠØ§ÙħÚ©Ø§ÙĨ": 1648,
      "Ø§ÙĤÙĦ": 1649,
      "ÙĪÛĮØ¨": 1650,
      "ĠÚ©ÙĦÛĮ": 1651,
      "ĠØªØŃÙĪÙĦØ§Øª": 1652,
      "Ø¨ÙĨ": 1653,
      "Ø¯ÛĮÙħ": 1654,
      "Ú¯Ø°Ø§Ø±ÛĮ": 1655,
      "ÙħØ§Ùĩ": 1656,
      "ĠØ¨Ø§ÙĦØ§ÛĮ": 1657,
      "Ø³Ù¾": 1658,
      "ĠØ¬ÙĦÙĪ": 1659,
      "ĠØ´Ø¯ÙĨØ¯": 1660,
      "ay": 1661,
      "ĠÙħØ¬ÙħÙĪØ¹Ø§": 1662,
      "ĠØ¨ÙĩØ§ÛĮ": 1663,
      "Ø±Ø§Ø¬": 1664,
      "Ø³ÛĮÙħ": 1665,
      "Ø±Ø¨ÛĮ": 1666,
      "Ø§Ø°": 1667,
      "Ú¯Ø±Ø¯Ø§ÙĨÛĮ": 1668,
      "ĠØ³ÛĮÙħØ§ÙĨ": 1669,
      "ÙĪØ¯Ø±": 1670,
      "ĠØ¨ÙĩØ§Ø±": 1671,
      "ĠÙĪØ§Ø±Ø¯Ø§ØªÛĮ": 1672,
      "ĠÚĨÙĩØ§Ø±Ø´ÙĨØ¨Ùĩ": 1673,
      "ĠØ¬Ø§Ùħ": 1674,
      "ĠÚ¯Ø§Ø²ÙĪÛĮÛĮÙĦ": 1675,
      "ĠØ§ÙħÙĨÛĮØª": 1676,
      "ĠØªÙĤØ±ÛĮ": 1677,
      "Ú¯ÙĦ": 1678,
      "Ù¾ÙĦ": 1679,
      "ĠØºØ±Ø¨": 1680,
      "Ø±Ú©ÙĨ": 1681,
      "ÙħÙĪÙĦ": 1682,
      "ĠØ§ÙģØ±": 1683,
      "ĠØ²ÙħÛĮÙĨÙĩ": 1684,
      "ĠÙĨØ¨": 1685,
      "ĠØ¬ÙħØ¹": 1686,
      "ĠÙĨØ®ÙĪ": 1687,
      "ĠÙħØ§ÙĨÙĨØ¯": 1688,
      "ĠÚ©Ø§Ø±ÙħØ²Ø¯ÛĮ": 1689,
      "ÙĤÛĮÙħØª": 1690,
      "ÙĪØ±Ùĩ": 1691,
      "ĠÙĩÛĮØ§Øª": 1692,
      "ĠØªØµÙĪÛĮØ¨": 1693,
      "Ø±Ú¯Ø§ÙĨÛĮ": 1694,
      "ĠØªØ¹ÙĩØ¯": 1695,
      "ĠÙĤØ·Ø±": 1696,
      "ĠØ´Ú©Ø±": 1697,
      "ĠÙĨÛĮØ±ÙĪÚ¯Ø§Ùĩ": 1698,
      "ĠØ®ÙĪØ§ÙĩÛĮÙħ": 1699,
      "ĠÙĪØ±ÙĤ": 1700,
      "ĠÙĨÙĤØ·Ùĩ": 1701,
      "ĠØ¬ÙĪ": 1702,
      "ÛĮØµ": 1703,
      "ĠÙħÙĨØ¬Ø±": 1704,
      "ĠØ¨Ø§Ø²Ø±Ú¯Ø§ÙĨÛĮ": 1705,
      "ĠØ§Ø¹ÙħØ§ÙĦ": 1706,
      "ĠØ§ÙĨØ¯Ø§Ø²ÛĮ": 1707,
      "ĠØ±Ø²Ø±ÙĪ": 1708,
      "ĠÙħØŃÙĤÙĤ": 1709,
      "ĠÙĨÙĩØ§ÛĮÛĮ": 1710,
      "ÙĤÛĮÙĤ": 1711,
      "ĠØ³ÙĩØ§ÙħÛĮ": 1712,
      "ĠØµØ§Ø¯Ø±Ú©ÙĨ": 1713,
      "ÙħØ±Ú©": 1714,
      "ĠØ±ÙģØ¹": 1715,
      "ĠÙħØ²Ø§ÛĮ": 1716,
      "ĠØ´Ø¯ÛĮØ¯": 1717,
      "Ø±ÙĩØ§ÛĮ": 1718,
      "Ú¯ÙĪØ³": 1719,
      "ĠØ¹ÙħØ¯Ùĩ": 1720,
      "ĠØ´ÙĨØ§Ø³Ø§ÛĮÛĮ": 1721,
      "ĠØ´Ú©ÙĦ": 1722,
      "ÙĨÚ¯ÙĪÛĮ": 1723,
      "ĠØªØ¨Ø¯ÛĮÙĦ": 1724,
      "ÙĦÙĤ": 1725,
      "Ġr": 1726,
      "Ø±Ø¨Ùĩ": 1727,
      "ĠÙĪØ¨": 1728,
      "ÙĪØ§Ø¹": 1729,
      "ĠØŃØ¯Ø§ÙĤÙĦ": 1730,
      "Ø¹Ø§ÙħÙĦ": 1731,
      "ĠÙģØ¶Ø§ÛĮ": 1732,
      "Ø¹Øª": 1733,
      "ĠØ·ÙĦØ§ÛĮ": 1734,
      "ĠØ¨ÙĦÙĨØ¯": 1735,
      "Ø¬Ø§ÙĨ": 1736,
      "ÛĮØ²ÛĮ": 1737,
      "ÙĨØ¬ÛĮ": 1738,
      "Ø²ÛĮÛĮ": 1739,
      "ĠØŃÙħÙĦÙĩ": 1740,
      "ĠÙħØ¹ØªÙĤ": 1741,
      "ĠØªÙĤØ±ÛĮØ¨Ø§": 1742,
      "ĠØ¯Ø§Ùħ": 1743,
      "Ø§ÙĪÙħ": 1744,
      "ĠØ¨ÛĮÙħÙĩ": 1745,
      "ÙħÙĦÛĮ": 1746,
      "ĠÙĩÙħØª": 1747,
      "Ø²ÛĮØ§ÙĨ": 1748,
      "ĠØ®Ø±ÙĪØ¬": 1749,
      "Ø§ÙĩÙħ": 1750,
      "ĠØ¯Ø±Ø®": 1751,
      "ÙĨØ²": 1752,
      "ĠÚĨÙĨ": 1753,
      "ĠÙħÙĨØ§ÙĤ": 1754,
      "ĠÙħØ´ØªØ±ÛĮ": 1755,
      "Ú©Ø§ÙħÛĮÙĪÙĨ": 1756,
      "ĠØ¨ØŃØ±Ø§ÙĨ": 1757,
      "ĠÙħÙĨØ¨Ø¹": 1758,
      "ĠØµØ¯": 1759,
      "ĠÙĦØŃØ¸Ùĩ": 1760,
      "Ø§Ù¾ÙĪØ±": 1761,
      "Ø³ØªÙħ": 1762,
      "ĠÙĨØ¸Ø§Ùħ": 1763,
      "Ġau": 1764,
      "ĠØ¨Ø§Ø´ÙĨØ¯": 1765,
      "Ø´Ø§ÙĨ": 1766,
      "ĠØªØ±ÛĮ": 1767,
      "Ú©ÙĪØ±": 1768,
      "Ø§ÙĦÛĮØ§": 1769,
      "Ø§ÛĮÙĦÛĮÙĨ": 1770,
      "Ġw": 1771,
      "ĠØ³ÙģØ±": 1772,
      "ÙħØ±": 1773,
      "ĠÚ¯Ø°Ø§Ø±Ø§ÙĨ": 1774,
      "ĠØ³Ø§ÛĮ": 1775,
      "ĠØ§Ø³Ø§Ø³ÛĮ": 1776,
      "ĠØ±ÛĮØ³Ú©": 1777,
      "ĠØ¨ØŃØ«": 1778,
      "ĠØ¬Ø°": 1779,
      "ĠØ¬Ø¯": 1780,
      "ĠØ±Ø§ÛĮ": 1781,
      "ĠØ¶Ø§ÛĮØ¹Ø§Øª": 1782,
      "ĠÙħØ¬ÙħØ¹": 1783,
      "ĠØ°Ø®ÛĮØ±Ùĩ": 1784,
      "ĠÙħÙĤØ¯Ø§Ø±": 1785,
      "ĠØ§ÙĨÙĪØ§Ø¹": 1786,
      "ÙħØ§ÙĩØ§ÙĨÙĩ": 1787,
      "et": 1788,
      "ĠÚĨÚ©": 1789,
      "ĠØ¨ÙĨÛĮ": 1790,
      "ĠÙħØ´ØªØ±Ú©": 1791,
      "ÙħÙĨØ¯": 1792,
      "ĠØ¨Ø§Ø±Ú¯ÛĮØ±ÛĮ": 1793,
      "ĠÙ¾Ø§Ø±Ø³": 1794,
      "Ø«Ø¨ÛĮØª": 1795,
      "ĠÙģØ±Ø§Ø¨": 1796,
      "Ø§Ú©ÙĨØ´": 1797,
      "ÛĮÙħÛĮØ§ÛĮÛĮ": 1798,
      "ĠÙģØ³": 1799,
      "ĠÚ©ÛĮØ³Ùĩ": 1800,
      "ĠØ±Ø®": 1801,
      "ĠÙħÙĪØ§Ø±Ø¯": 1802,
      "ĠØ¯Ø±ÛĮØ§ÙģØªÛĮ": 1803,
      "ĠÙħÛĮÙĦØ§Ø¯ÛĮ": 1804,
      "ĠØ§Ø¶Ø§Ùģ": 1805,
      "Ø¨Ø±Ú¯": 1806,
      "ĠØ§Ù¾": 1807,
      "ÙĤØ·Ø¹Ø§Øª": 1808,
      "Ø±Øª": 1809,
      "ĠÙĨÙħÙĪØ¯Ø§Ø±ÙĩØ§ÛĮ": 1810,
      "Ø¨Ø§Ø²": 1811,
      "Ø§ÛĮÙĨØ¯": 1812,
      "ĠÙħØ§Ø²Ø§Ø¯": 1813,
      "al": 1814,
      "ĠØ§Ø³ØªØ§ÙĨ": 1815,
      "Ø²Ø±": 1816,
      "ĠØ§Ø®ØªÛĮ": 1817,
      "ĠØ§ÙĨØªÙĤØ§ÙĦ": 1818,
      "ĠÚ¯ÙĨØ¯": 1819,
      "Ø§ÙĩÛĮ": 1820,
      "ÙħØ§ÙĨÛĮ": 1821,
      "gust": 1822,
      "ĠØªØ«Ø¨ÛĮØª": 1823,
      "ĠØ´ÙħØ§Ø±Ùĩ": 1824,
      "ÙĦØ§Øº": 1825,
      "ĠØ±Ø§Ø³Øª": 1826,
      "Ø³ÙĨÚ¯": 1827,
      "ØªÛĮÚ©": 1828,
      "ĠØ§Ø¨ÙĦØ§Øº": 1829,
      "Ø®Ø¯ÙħØ§Øª": 1830,
      "ĠØ³ÙģØ§Ø±": 1831,
      "ĠØ§ÙĦÙĪÙħÛĮÙĨÛĮ": 1832,
      "ĠØ³ÙĨÚ¯Ø§Ù¾ÙĪØ±": 1833,
      "ĠØ§ÙħØ±ÛĮÚ©Ø§ÛĮÛĮ": 1834,
      "ĠØ¯Ø§ÙĨØ´": 1835,
      "ĠÙ¾Ø±ÙĪÙ¾ÛĮÙĦÙĨ": 1836,
      "ĠØªØ§Ø¨Ø³ØªØ§ÙĨ": 1837,
      "ĠØ±ÙĪØ§Ø¨Ø·": 1838,
      "Ġaugust": 1839,
      "ØªØŃ": 1840,
      "ĠØ¨Ú¯ÛĮØ±": 1841,
      "ĠØ¨Ø±Ú¯Ø²Ø§Ø±": 1842,
      "ĠØ¨Ø§Ø²Ú¯Ø´Øª": 1843,
      "ĠØªØ§ÛĮÛĮØ¯": 1844,
      "ĠØ³Ø±Ø§ÙĨÙĩ": 1845,
      "ĠØ§ÙĨØ¨Ø§Ø±": 1846,
      "ĠØ§ÙĨØªØ¸Ø§Ø±Ø§Øª": 1847,
      "ÛĮØ§Ø±": 1848,
      "Ø¬ÙĩÛĮØ²": 1849,
      "ĠØ§Ø®ØªÛĮØ§Ø±": 1850,
      "ĠØ§Ø®Ø¨Ø§Ø±": 1851,
      "or": 1852,
      "ĠÙģØ±Ø§Ø¨ÙĪØ±Ø³": 1853,
      "ĠØªØ¶": 1854,
      "Ø°Ùģ": 1855,
      "ĠØ§ÙĦÚ©Øª": 1856,
      "Ù¾Ø§Ø±Ø³": 1857,
      "ĠØ§ÛĮØ±Ø§ÙĨÛĮ": 1858,
      "en": 1859,
      "ÙĪØ¨Ùĩ": 1860,
      "ĠÙħØªÙĤ": 1861,
      "ĠÚ©Ø§ÙĦØ§ÛĮ": 1862,
      "ĠÙħØ±ØŃ": 1863,
      "ĠØ®Ø¨Ø±ÛĮ": 1864,
      "Ø²Ø§Ø±ÛĮ": 1865,
      "ĠÙĨØ²ÙĪÙĦÛĮ": 1866,
      "ĠØªÙģ": 1867,
      "ĠÙħØ¨ÙĨÛĮ": 1868,
      "ĠØ¨ÙĪØ¯ÙĨ": 1869,
      "ĠÛĮØ§Ø±Ø§ÙĨÙĩ": 1870,
      "ĠØªØ§Ú©ÙĨÙĪÙĨ": 1871,
      "ĠÚ©Ø³Ø±ÛĮ": 1872,
      "Ú©Ø§": 1873,
      "Ø´Ùĩ": 1874,
      "ĠØ§ÙħØ§Ø¯Ùĩ": 1875,
      "ĠÙ¾Ø§ÛĮØ§ÙĨÛĮ": 1876,
      "ĠÙħÙĨØ§ÙĤØµÙĩ": 1877,
      "ĠØ¨ÙĨØ¯Ø±": 1878,
      "Ø¨ÙĨØ§": 1879,
      "ĠØ®ÙĪØ¯Ø±ÙĪÙĩØ§ÛĮ": 1880,
      "ĠØ´ÙĩØ±": 1881,
      "ØªØ¨Ø·": 1882,
      "ĠØ¨Ø±Ø¯Ø§Ø±ÛĮ": 1883,
      "ĠÙĦÙĪÙĦÙĩ": 1884,
      "ĠÙħØ·Ø§ÙĦ": 1885,
      "ĠÚ©Ø§Ø±ÛĮ": 1886,
      "ĠØ¨Ø±Ø³Ø¯": 1887,
      "Ø§Ø¹ÛĮ": 1888,
      "ĠÙ¾Ø§ÛĮÛĮ": 1889,
      "ĠØ§Ø³Ú©ÙĨ": 1890,
      "ĠÚ©Ø§Ø±Øª": 1891,
      "ÙĦØ§": 1892,
      "ĠØ§ÛĮØ¨ÙĨØ§": 1893,
      "Ġmay": 1894,
      "ĠØŃÙģØ¸": 1895,
      "ĠÙĨÙĪØ¹": 1896,
      "ĠÙĨØ¨ÙĪØ¯": 1897,
      "ÙĨØ§ÛĮ": 1898,
      "ĠÙĪÛĮÙĨ": 1899,
      "ĠØªØŃÙĦÛĮÙĦÚ¯Ø±Ø§ÙĨ": 1900,
      "ĠØµØ¹ÙĪØ¯ÛĮ": 1901,
      "ĠÙħØ¯ÛĮØ±Ø¹Ø§ÙħÙĦ": 1902,
      "ĠÙħÙĤØ¯Ø§Ø±ÛĮ": 1903,
      "ĠÙħØµÙĪØ¨Ùĩ": 1904,
      "ĠÚ©Ø§ÙĩØ´ÛĮ": 1905,
      "ĠØ§Ø³Ú©ÙĨØ§Ø³": 1906,
      "ĠØ§Ø±Ú¯ÙĪØ³": 1907,
      "ĠÙħÙĨØ§Ø·": 1908,
      "Ġ+": 1909,
      "Ø²Ø¯ÙĩÙħ": 1910,
      "Ù¾Ø±ÙĪ": 1911,
      "ĠÙĨÙģØ±": 1912,
      "Ø§ÙģØ²": 1913,
      "ĠØ±Ùĩ": 1914,
      "ĠÙĨØª": 1915,
      "ĠÙĤØ¨ÙĦÛĮ": 1916,
      "ÛĮÙĨØ§": 1917,
      "ĠÙħÙĨØ§Ø³": 1918,
      "ĠØ´ÛĮÙħÛĮØ§ÛĮÛĮ": 1919,
      "ĠØ§Ø±ÙĪÙ¾Ø§ÛĮÛĮ": 1920,
      "Ø±ÙĪØ²": 1921,
      "ÙĤÛĮÙħ": 1922,
      "Ø±ÛĮÙĦ": 1923,
      "ĠØµØ±": 1924,
      "ĠØ³Ø®ÙĨÚ¯ÙĪÛĮ": 1925,
      "ĠØŃØ°Ùģ": 1926,
      "ĠØŃÙĤÙĪÙĤ": 1927,
      "ĠØªØ¹ÙħÛĮØ±": 1928,
      "ĠØ¯ÙĨÛĮØ§": 1929,
      "ĠØ¨ÛĮØ§ÙĨ": 1930,
      "ĠØªØ³ÙĪÛĮÙĩ": 1931,
      "ĠØµØ±Ùģ": 1932,
      "ĠÙħØ±ØŃÙĦÙĩ": 1933,
      "ĠØªØ®Øµ": 1934,
      "Ø±ÙħØ²": 1935,
      "Ø¬ÙĩÛĮØ²Ø§Øª": 1936,
      "Ø·ÙĪØ±": 1937,
      "ĠØ³Ø§ÙĦÙĩ": 1938,
      "ØºØ¯": 1939,
      "ĠØ§ÙħØ§Ø±Ø§Øª": 1940,
      "ĠØªÙĪØ§ÙĨÙĨØ¯": 1941,
      "ĠØµÙħØª": 1942,
      "ĠÙģÙĤØ·": 1943,
      "ĠØ¯ÙĪØ¨Ø§Ø±Ùĩ": 1944,
      "ĠØ§Ø¶Ø§ÙģÙĩ": 1945,
      "ĠÙħØ¬ÙĪØ²": 1946,
      "Ø§ÙĦØ¹ÙħÙĦ": 1947,
      "ĠÙĪØ§Ùħ": 1948,
      "ĠÙħØ§ÙĨØ¯Ùĩ": 1949,
      "Ø¨Ø±Ø¯": 1950,
      "Ø¨Ø§ÙĨ": 1951,
      "ĠØ³ÙĩÙħÛĮ": 1952,
      "at": 1953,
      "ĠØ°ØºØ§ÙĦ": 1954,
      "ĠÙħØ§ÙĦ": 1955,
      "ĠÙħØŃÙĦ": 1956,
      "ØªÙģ": 1957,
      "ÛĮØ¨ÛĮ": 1958,
      "ĠÙħØ²Ø§ÛĮØ¯Ùĩ": 1959,
      "Ø¸Ø±": 1960,
      "ĠØ³ÛĮØ²Ø¯ÙĩÙħ": 1961,
      "ĠØ¨Ø§Ø²ÛĮ": 1962,
      "ĠÚĺØ§Ù¾": 1963,
      "Ø²ÙĨ": 1964,
      "ĠØ´ÙģØ§Ùģ": 1965,
      "Ú©Ø§ÙĦ": 1966,
      "ĠØŃØ§Ú©": 1967,
      "ĠÚ©Ø±Ø¯ÛĮÙħ": 1968,
      "ÛĮØ¯Ùĩ": 1969,
      "ĠÙħÙĨØ§Ø·ÙĤ": 1970,
      "ÛĮØªÛĮ": 1971,
      "ĠÙĪÙĦ": 1972,
      "Ø§ÙĨØª": 1973,
      "ĠØ§Ø±ØªØ¨": 1974,
      "ĠØ§Ø±ØªØ¨Ø§Ø·": 1975,
      "ĠÛĮÚ©Ø´ÙĨØ¨Ùĩ": 1976,
      "ĠØ§ÙĨØ¬": 1977,
      "ĠØ¬ÙħØ¹Ùĩ": 1978,
      "Ø¨Ø±Ø§ÙĨ": 1979,
      "Ø®Ø´": 1980,
      "ĠÙĨÚ©ØªÙĩ": 1981,
      "ĠØŃØ¯Ø§Ú©": 1982,
      "Ú¯ÙĪÙĨÙĩ": 1983,
      "Ø²ÛĮÛĮØ§Øª": 1984,
      "ĠÙĪØ§ØŃØ¯ÛĮ": 1985,
      "ĠØ¯ÛĮÚ¯Ø±ÛĮ": 1986,
      "ĠØ§Ø¬Ø§Ø±Ùĩ": 1987,
      "ĠÙ¾ÙĦØªØ³": 1988,
      "ĠÙħØ´Ú©ÙĦØ§Øª": 1989,
      "ĠØ¹ÙĤØ¨": 1990,
      "ĠÙĨØ¸Ø§Ø±Øª": 1991,
      "ĠÙħØŃØ§Ø³": 1992,
      "Ú¯ÙĪÛĮ": 1993,
      "ĠØ®ØµÙĪØµÛĮ": 1994,
      "ĠÙģØµÙĦÛĮ": 1995,
      "ĠÚ¯Ø±Ø§ÙĨÙĪÙĦ": 1996,
      "ĠÚ©Ø±": 1997,
      "ĠÚ©ÙħØªØ±ÛĮÙĨ": 1998,
      "ĠÙ¾ØªØ±ÙĪ": 1999,
      "ĠØ±Ú©ÙĪØ¯": 2000,
      "ĠØ¨ÙĩØªØ±": 2001,
      "ĠÚ©ÙĪØ±Ùĩ": 2002,
      "ĠÙħØ°Ú©ÙĪØ±": 2003,
      "ĠØ§Ø±Ø³Ø§ÙĦ": 2004,
      "ĠÙĪØ§ØŃØ¯ÙĩØ§ÛĮ": 2005,
      "ĠØ¨Øª": 2006,
      "ĠØ³Ø±Ø¹Øª": 2007,
      "ÙĦØ§Ú©": 2008,
      "ĠÙĨÛĮÙħØ§": 2009,
      "ĠÙ¾Úĺ": 2010,
      "ĠØ§ÙģØ±Ø§Ø¯": 2011,
      "ĠÙĨØ®ÙĪØ§ÙĩØ¯": 2012,
      "ĠØªÙĪØ¬ÙĩÛĮ": 2013,
      "es": 2014,
      "ĠØ²ÙĨØ¬": 2015,
      "ĠØ³ÙĨ": 2016,
      "ĠÙħØ¹ÙĨÛĮ": 2017,
      "ĠØ¨Ø±Ú¯Ø²Ø§Ø±ÛĮ": 2018,
      "ÙĩØ§Ø±": 2019,
      "ĠÙħØ±ØªØ¨Ø·": 2020,
      "ĠØªØ¬Ø±Ø¨Ùĩ": 2021,
      "Ø¯ÙĨ": 2022,
      "Ø±ÛĮØ¹": 2023,
      "Ø¨ÛĮÙĨ": 2024,
      "Ø´Ú©ÛĮÙĦ": 2025,
      "ĠØ³ÙģØ§Ø±Ø´": 2026,
      "ĠØ§Ø¸": 2027,
      "ĠØ¨ÙĨØ§Ø¨": 2028,
      "ĠØ§Ø¨Ø²Ø§Ø±": 2029,
      "ĠØ¹ÙĪ": 2030,
      "ÛĮØ¯Ø±ÙĪ": 2031,
      "Ø¨ÛĮØ±": 2032,
      "ĠØ§Ø¯Ø§Ø±Ùĩ": 2033,
      "ĠÙħØ·Ø±ØŃ": 2034,
      "ÙĨÙĤ": 2035,
      "ĠÚĺØ§Ù¾ÙĨ": 2036,
      "ĠØ¨ÙĨØ§Ø¨Ø±Ø§ÛĮÙĨ": 2037,
      "Ø§Ú©Ø³": 2038,
      "ĠØªØ¬Ø¯ÛĮØ¯": 2039,
      "ĠÚ©Ø³Ø¨": 2040,
      "ĠØ§Ø³ØªØ§ÙĨØ¯": 2041,
      "ØªØ±Ùħ": 2042,
      "ĠØªØ´Ú©ÛĮÙĦ": 2043,
      "ÙģØµ": 2044,
      "ĠÚĨØ±Ø§": 2045,
      "ĠØ§Ø¸ÙĩØ§Ø±": 2046,
      "ĠØ§ÙĪØ§ÛĮÙĦ": 2047,
      "ĠØ³Øª": 2048,
      "ĠØ¨Ø§Ø´ÛĮÙħ": 2049,
      "ĠØ§ÙĩÙħÛĮØª": 2050,
      "ĠÙ¾Ø§ÛĮÛĮØ²": 2051,
      "ĠÙģØ±Ùħ": 2052,
      "ĠØ§ÙħÛĮØ¯ÙĪØ§Ø±": 2053,
      "ĠÙħØªÙĪ": 2054,
      "ĠÙħÙĪØ¬Ø¨": 2055,
      "ĠÚĨÛĮÙĨÛĮ": 2056,
      "ĠÙħÛĮØ¯Ø§ÙĨ": 2057,
      "Ø±ÙĪÙĨÛĮ": 2058,
      "ØµØ§Ø¯Ø±": 2059,
      "ĠØ¨ÙĪØ±": 2060,
      "ĠØ¬ÙĩØ´": 2061,
      "ĠØ±Øª": 2062,
      "ĠØºØ°": 2063,
      "ĠÙħØ°Ø§Ú©Ø±Ùĩ": 2064,
      "ĠØ±ÛĮØ²ÛĮ": 2065,
      "ĠÙħÙĪÙĤ": 2066,
      "ĠØ¯Ø±Ø§ÙħØ¯ÙĩØ§ÛĮ": 2067,
      "ĠÙĤØ·Ø¹Ø§Øª": 2068,
      "ÙĪØ§Ø³Øª": 2069,
      "ĠÙĨÙĤØ´": 2070,
      "ĠÙģÙĦØ²": 2071,
      "ÛĮÙĨÙĩ": 2072,
      "Ø§ÙĦØ´": 2073,
      "ÛĮØªØ±Ø²": 2074,
      "Ù¾ÙĪØ¯Ø±": 2075,
      "ĠØ¬Ø¯ÛĮ": 2076,
      "ĠÙĨØŃ": 2077,
      "ĠÙħØªÙĤØ§Ø¶": 2078,
      "ĠÙħØ³ØªÙĤÛĮÙħ": 2079,
      "ĠÙĩÛĮÛĮØª": 2080,
      "ĠÙħÙĪÙĨ": 2081,
      "ØµÙģ": 2082,
      "ĠØ¯Ø³ØªÛĮ": 2083,
      "ĠØ¯Ø§Ø¯ÙĨØ¯": 2084,
      "ĠÙ¾ÙĨ": 2085,
      "Ù¾Ø§": 2086,
      "ĠÚ©ÙĨØ§Ø±": 2087,
      "ĠØ¯Ø±ÛĮØ§ÛĮÛĮ": 2088,
      "ĠÙħÚ©Ø¹Ø¨": 2089,
      "on": 2090,
      "ĠØ§Ø¹Ø¶Ø§ÛĮ": 2091,
      "ĠØ¨Ø¯Ø§ÙĨ": 2092,
      "ĠÙħÙĤØ§Ø¨ÙĦ": 2093,
      "ĠÚ©ÙħØ¨ÙĪØ¯": 2094,
      "ĠØºØ±Ø¨ÛĮ": 2095,
      "ĠØ¯ÙĩÙĩ": 2096,
      "ØªÙĪÙĦÛĮØ¯": 2097,
      "ĠØ¯ÛĮØ¯Ø§Ø±": 2098,
      "Ø±ÙĪØºÙĨ": 2099,
      "ĠØªØºÛĮÛĮØ±Ø§Øª": 2100,
      "ĠØ´Ø¯Øª": 2101,
      "ĠØ¨ÙĪØ¯ÛĮÙħ": 2102,
      "ĠØ³ÙĤÙĪØ·": 2103,
      "ĠØ§Ø¹ØªØ¨Ø§Ø±": 2104,
      "ĠÙĨØ¯Ø§Ø±": 2105,
      "ĠØ¨Ø§ÛĮØ¯ÙĨ": 2106,
      "ĠÚ©ÛĮÙĦÙĪ": 2107,
      "ĠÚĨÙĨÛĮÙĨ": 2108,
      "ĠÚ¯Ø³ØªØ±": 2109,
      "ĠÛĮÙĪØ§ÙĨ": 2110,
      "ØºÙħ": 2111,
      "ĠÙĤØ¯Ø±": 2112,
      "ĠØ¯ÙĪÙħÛĮÙĨ": 2113,
      "ĠØ§ÙĨÚ¯": 2114,
      "ĠØ¯ÛĮØ²ÙĦ": 2115,
      "ĠØ¨ÙĦÙĪÙħ": 2116,
      "Ø§ØµÙĦÙĩ": 2117,
      "Ø§ÛĮØ±ÙĨ": 2118,
      "Ø³ØªÚ¯ÛĮ": 2119,
      "ĠØ³ÛĮØ³ØªÙħ": 2120,
      "ĠØ¶Ø±": 2121,
      "ĠÙ¾ÙĪØ²": 2122,
      "in": 2123,
      "ĠÙĦØ§ÛĮ": 2124,
      "Ø¨Ø±Ø±Ø³ÛĮ": 2125,
      "ĠÙĨÙĩØ§ÛĮ": 2126,
      "ĠÚĨØ§ÙĦØ´": 2127,
      "ĠØ§Ø³ØªØ±": 2128,
      "Ø²ÛĮÙĦ": 2129,
      "ÙĨØ¯Ú¯ÛĮ": 2130,
      "ĠØ±ÙĪÛĮØªØ±Ø²": 2131,
      "ĠÙĨÚ¯Ø§Ùĩ": 2132,
      "ĠÙħØ³Ø§ÛĮÙĦ": 2133,
      "ĠØ³ÙĩÙħÛĮÙĩ": 2134,
      "ĠØ¹Ø§Ø¯ÛĮ": 2135,
      "ĠØ¹Ø¯Ø§ÙĦ": 2136,
      "ĠÚ¯ÙĪÛĮØ¯": 2137,
      "Ø¨ØŃ": 2138,
      "ĠØ±Ø§Ø³ØªØ§ÛĮ": 2139,
      "ĠØªÙĨØ´": 2140,
      "Ø¸ÛĮÙħ": 2141,
      "ĠØŃØ¯Ø§Ú©Ø«Ø±": 2142,
      "ĠØ¯Ø§ÙĨÙĩ": 2143,
      "ĠØ¹ÙĦØ§ÙĪÙĩ": 2144,
      "ĠØ§ÛĮØ±": 2145,
      "ĠÙģØ±Øµ": 2146,
      "ÙģÙĪØ±": 2147,
      "ĠØ¬Ø§ÙĨ": 2148,
      "Ú¯Ø²Ø§Ø±Ø´": 2149,
      "ÛĮØ³ÛĮ": 2150,
      "ĠÚ¯ÙħØ±Ú©": 2151,
      "ĠØ®ÙĪØ¯Ø±ÙĪÛĮ": 2152,
      "ĠÙģØ±Ø§ÛĮÙĨØ¯": 2153,
      "ĠØ¬ÙĦÙĪÚ¯ÛĮØ±ÛĮ": 2154,
      "ĠÙĨÙħÙĪØ¯Ùĩ": 2155,
      "ĠØ¹Ø¯Ø§ÙĦØª": 2156,
      "ÙĩÙħ": 2157,
      "ĠØ´Ø´": 2158,
      "Ú¯Ø°Ø§Ø±": 2159,
      "ĠØ§ØŃÛĮ": 2160,
      "Ø¹Ø§ÛĮØª": 2161,
      "Ù¾ÛĮ": 2162,
      "Ø§Ú¯Ø±": 2163,
      "ĠØ§ÛĮÙĨØªØ±": 2164,
      "ĠÙħØŃØªØ±Ùħ": 2165,
      "ĠÙħÙĤØ±": 2166,
      "ĠÙħØ¹Ø¯ÙĨ": 2167,
      "ĠØ§Ø³ØªØŃ": 2168,
      "ĠÚĨÙĩØ§Ø±Ùħ": 2169,
      "ĠØŃÙĪØ§ÙĦÙĩ": 2170,
      "ĠÙħØªÙĨ": 2171,
      "Ø²ÛĮØ¹": 2172,
      "ĠØªÙĪØ±ÙħÛĮ": 2173,
      "ĠÚ¯ÙĪÙĨÙĩ": 2174,
      "ĠØ§Ø¹Ø·": 2175,
      "ĠØµØŃØ¨Øª": 2176,
      "ĠØ§Ø®ØªØµØ§Øµ": 2177,
      "Ø§Ø®ØªÙĩ": 2178,
      "ĠØ¯Ø§Ø±Ø§ÛĮ": 2179,
      "ĠÙħØŃÙħØ¯": 2180,
      "Ø§ÙģØ²Ø§ÛĮØ´": 2181,
      "ĠØªØ®ÙģÛĮ": 2182,
      "Ú¯Ø§Ø²": 2183,
      "ĠÚĨØº": 2184,
      "ĠÙģÙĪÙĦØ§Ø¯ÛĮ": 2185,
      "ĠØ¯Ø±Ø®ÙĪØ§Ø³Øª": 2186,
      "ob": 2187,
      "ĠØ§ÙħÙĪÙĨÛĮ": 2188,
      "ÙĦÛĮØ³": 2189,
      "ĠØ§ÙģØ²ÙĪØ¯Ùĩ": 2190,
      "ĠÙĪÚ¯ÙĪ": 2191,
      "ĠØ§Ø¬ØªÙħ": 2192,
      "ĠÙĦØ§ÛĮØŃÙĩ": 2193,
      "ĠÙĦÙĪ": 2194,
      "ĠÙĨØ´Ø§ÙĨÙĩ": 2195,
      "ĠØ¬Ø²": 2196,
      "ĠÙħÙĪØ§ÙģÙĤ": 2197,
      "ĠÙħØ´ØªØ±ÛĮØ§ÙĨ": 2198,
      "ĠØ³Ø¨Ø²": 2199,
      "ĠÙ¾ÛĮØ´ÙĨÙĩØ§Ø¯Ø§Øª": 2200,
      "ĠÙĨØ§": 2201,
      "ĠÙĨØ¯Ø§Ø´ØªÙĩ": 2202,
      "ĠÙ¾Ø°ÛĮØ±Ø´": 2203,
      "ĠØ´ÙħØ§": 2204,
      "Ø³ÙĪÙĦ": 2205,
      "Ø®Ø§Ø¨": 2206,
      "ĠØŃÙģØ§Ø±ÛĮ": 2207,
      "Ø§ÙģØª": 2208,
      "Ú©Ø§Ø¨ÙĦ": 2209,
      "ĠØ±Ø¹Ø§ÛĮØª": 2210,
      "ĠØ¯Ø§Ø´ØªÙĨØ¯": 2211,
      "ĠØ§Ø¬ØªÙħØ§Ø¹ÛĮ": 2212,
      "ĠØ¬Ø°Ø¨": 2213,
      "ĠØ¨ÙĨØ²ÙĨ": 2214,
      "ĠØ²ÛĮØ§Ø¯": 2215,
      "ĠØ§ÙĦÚ©ØªØ±ÙĪÙĨÛĮ": 2216,
      "ĠØ®ÙĪØ´": 2217,
      "ĠØ§Ø«Ø±": 2218,
      "ĠØŃØ±Ø§Ø¬": 2219,
      "ĠØ¹Ø§ÙĦÛĮ": 2220,
      "Ø´Ø¯ÛĮØ¯": 2221,
      "ĠÙħØ¯ÛĮØ±Ùĩ": 2222,
      "ĠØµØ±Ø§ÙģÛĮ": 2223,
      "Ø±Ø§ÛĮØ¯": 2224,
      "ĠÙħØ¨Ø§Ø±": 2225,
      "ĠØ³ÙĪÙĦ": 2226,
      "ĠÙ¾ÛĮÚ¯ÛĮØ±ÛĮ": 2227,
      "ĠÙĪØ§ÙĤØ¹ÛĮ": 2228,
      "ÙĤÙģ": 2229,
      "ØŃØ³": 2230,
      "ĠØ³Ø¨Ø¯": 2231,
      "ÙĪØŃ": 2232,
      "ĠØ§Ø®ØªÙĦØ§Ùģ": 2233,
      "ĠÚ©Ø´ÙĪØ±ÙĩØ§": 2234,
      "Ù¾ÙĦÙħ": 2235,
      "ĠÛĮØ§Ø¯": 2236,
      "ĠØ§ÙĦÙĪÙħÛĮÙĨÛĮÙĪÙħ": 2237,
      "ØªØŃÙĦÛĮÙĦ": 2238,
      "Ø¨Ú©Ø³": 2239,
      "ĠØªØ´Ø¯ÛĮØ¯": 2240,
      "ĠÙ¾ÙĪØ²ÙĪÙĦ": 2241,
      "Ø´ÛĮØ±": 2242,
      "ĠÚ¯Ø±Ø¯ÛĮØ¯": 2243,
      "ĠÙ¾ÛĮØ´Ø±": 2244,
      "ĠØ§ÙģØ±ÛĮÙĤ": 2245,
      "ÙģÛĮÙĩ": 2246,
      "ĠØ¨Ø±Ø²ÛĮÙĦ": 2247,
      "ĠØ¬Ø²ÛĮÛĮØ§Øª": 2248,
      "ÛĮØ³Øª": 2249,
      "ÙĨØ³": 2250,
      "ĠØ±Ø³ÛĮØ¯ÙĨ": 2251,
      "ÙĪØ±ÙĤ": 2252,
      "ĠØªØ±Ú©ÛĮØ¨ÛĮ": 2253,
      "ĠÙĪØ§Ú¯Ø°Ø§Ø±ÛĮ": 2254,
      "ĠØ¹Ø¨": 2255,
      "Ġth": 2256,
      "ĠØ¬Ø¯ÛĮØ¯ÛĮ": 2257,
      "ĠØ±ÙĪÛĮØ¯": 2258,
      "ĠØ¯Ø§Ø±ÙĪ": 2259,
      "ĠØ§Ø³ØªØ§ÛĮØ±ÙĨ": 2260,
      "ĠØªØ¬ÙĩÛĮØ²Ø§Øª": 2261,
      "ĠØªØ§Ø³": 2262,
      "ĠØ¯ÛĮÙ¾ÙĦÙħ": 2263,
      "Ø§Ø´ÛĮÙĨ": 2264,
      "ĠÚ¯ÙģØªÙĨØ¯": 2265,
      "ĠØ§ÙĤÙĦØ§Ùħ": 2266,
      "ĠØ§Ø¹ØªØ¨Ø§Ø±ÛĮ": 2267,
      "ĠÙħØ¬ÙħÙĪØ¹Ùĩ": 2268,
      "Ø¯ØªØ§": 2269,
      "ÙħÛĮÙĨÛĮ": 2270,
      "Ø´ÙħØ´": 2271,
      "ĠØªØ¯Ø§ÙĪÙħ": 2272,
      "ĠØ³Ø±Ø¯": 2273,
      "ĠØ¯Ú©ÙĦ": 2274,
      "ĠØ±ÙĪØ´": 2275,
      "ĠÚ¯Ø°Ø§Ø±": 2276,
      "ÙĨØ§Ø¯": 2277,
      "Ø±Ø§ÙĨØ³": 2278,
      "ĠØ²ÙĨØ¬ÛĮØ±Ùĩ": 2279,
      "ĠØ±ØªØ¨Ùĩ": 2280,
      "ĠÙĤØµØ¯": 2281,
      "ĠØ¨ÙĦÙĪ": 2282,
      "ĠÙĨÙĪØ³Ø§ÙĨØ§Øª": 2283,
      "Ø³Ø§ÛĮ": 2284,
      "ĠØ³Ø®Øª": 2285,
      "ĠØ§Ø¬Ø±Ø§": 2286,
      "Ø§ÙĩØ§": 2287,
      "ĠÙģØ±ØµØª": 2288,
      "ĠÚ©ÙĪØ¯": 2289,
      "ĠÙĨÙĪÛĮ": 2290,
      "ÙĪØ§Ø±Ø¶": 2291,
      "ĠÙĪØ§Ø±ÛĮ": 2292,
      "ĠØ¨Ø§Ø²Ø¯ÙĩÛĮ": 2293,
      "ĠÙģØ±ÙħØ§ÙĨ": 2294,
      "ĠØ³Ø±Ø®": 2295,
      "Ġin": 2296,
      "Ø§Ø®Ø±": 2297,
      "ÙĪØ§ÙĦ": 2298,
      "Ø±ÙĪÛĮ": 2299,
      "ĠÙħÙĤØ§ÙħØ§Øª": 2300,
      "Ú©Ø§ÙĩØ´": 2301,
      "ĠØ¯ÙĩÙĨØ¯Ùĩ": 2302,
      "ĠÙģØ±Ø§ÙĩÙħ": 2303,
      "ĠÚ¯Ø³ØªØ±Ø´": 2304,
      "ĠØ§Ø±Ø´Ø¯": 2305,
      "ĠØ§Ø³ÛĮØ§ÛĮÛĮ": 2306,
      "ÙĨÛĮØ¯Ùĩ": 2307,
      "ĠØ§ÙĨØªØ®Ø§Ø¨": 2308,
      "ØªØ¹": 2309,
      "Ø±Ø§ÙĨÛĮ": 2310,
      "ĠÙģØ±Ø¯Ø§": 2311,
      "Ø¹Ø§ÙĨ": 2312,
      "Ø³Ø§Ø®Øª": 2313,
      "ĠØ¨Ø§Ø²Ø§Ø±ÙĩØ§": 2314,
      "ĠÙħØ¹ØªÙĤØ¯": 2315,
      "ĠØµÙģ": 2316,
      "Ø§Ú©ØªÙĪØ±": 2317,
      "ÙĨØ²ÙĪÛĮÙĦ": 2318,
      "ØŃÙħÙĦ": 2319,
      "ĠÙĤØ¯Ø±Øª": 2320,
      "ĠØªÙĪØ§Ùģ": 2321,
      "ĠÚ©Ùģ": 2322,
      "ĠÙĦØº": 2323,
      "ĠØªÙĪØ§ÙģÙĤÛĮ": 2324,
      "ĠÚ¯ÙģØªÚ¯ÙĪ": 2325,
      "ĠÙĪÙĨØ²ÙĪÛĮÙĦ": 2326,
      "Ø§Ø¯ÛĮÙĨ": 2327,
      "ĠØ®ÛĮÙĦÛĮ": 2328,
      "ĠÚ¯Ø§Ùħ": 2329,
      "ĠØ´Ø±ÙĤÛĮ": 2330,
      "ĠÚ©ÙĦÛĮØ¯": 2331,
      "ĠÙħÙĪØªÙĪØ±": 2332,
      "ĠØ¶ÙħÙĨ": 2333,
      "ĠØ´ÙĨÛĮØ¯Ùĩ": 2334,
      "ĠÙĦÛĮØªØ±": 2335,
      "Ù¾Ø°ÛĮØ±": 2336,
      "Ø§ÙĨÛĮØ§": 2337,
      "ÙĪØ³Øª": 2338,
      "ĠØ¹ÙħØ¯ØªØ§": 2339,
      "ĠÙħÙĪØ³Ø³Ùĩ": 2340,
      "ÙĩÛĮ": 2341,
      "Ú¯ÙĨ": 2342,
      "ĠÚ¯Ø±ÛĮ": 2343,
      "ĠØ¬Ø¨Ø±Ø§ÙĨ": 2344,
      "Ú¯ÛĮØ±Ø¨Ú©Ø³": 2345,
      "ĠØ¬Øª": 2346,
      "ĠÙĤØ§ÙĦØ¨": 2347,
      "ĠÙĪÙĨØ²ÙĪÛĮÙĦØ§": 2348,
      "ĠØªÚ¯Ø²": 2349,
      "ĠØªÚ©ÙħÛĮÙĦ": 2350,
      "ĠØªÚ¯Ø²Ø§Ø³": 2351,
      "ĠØ§Ø®Ø±": 2352,
      "Ø¯Ø§Ø«": 2353,
      "ÛĮØ¯ÛĮ": 2354,
      "ĠØªØ®ØµÛĮØµ": 2355,
      "ĠØªØ´": 2356,
      "Ø§ÙħØ§": 2357,
      "Ø´Ø¯Ø§Ø±": 2358,
      "ĠÚ©Ø±Ø¨": 2359,
      "Ø³Ø§Ø²Ø§ÙĨ": 2360,
      "ti": 2361,
      "Ø¹Ø¨Ùĩ": 2362,
      "Ø¹ÙħÙĦÛĮ": 2363,
      "ĠÙģØ§Ø²": 2364,
      "ÛĮÙĦØª": 2365,
      "pe": 2366,
      "ĠÙĨØ¯Ø§Ø´Øª": 2367,
      "ĠØ§ÙħØ±": 2368,
      "ĠÙĪØ²ÙĨ": 2369,
      "ĠÚ¯ÙĨØ¯Ùħ": 2370,
      "ĠØ³Ø±ÛĮØ¹": 2371,
      "Ù¾Ø§Ú©": 2372,
      "ĠÙħØªÙĪØ§ÙĦÛĮ": 2373,
      "ĠØªØ§Ø³ÛĮØ³": 2374,
      "ÙģØµÙĦÛĮ": 2375,
      "ĠÙĩÛĮØ¯Ø±ÙĪ": 2376,
      "ĠØ§ØªÙģØ§ÙĤØ§Øª": 2377,
      "ĠØ®Ø²": 2378,
      "ĠÚ©Ø¯Ø§ÙĦ": 2379,
      "ĠÙĨÙĩØ§ÛĮØª": 2380,
      "ĠØªÙĪÙĤÙģ": 2381,
      "Ø§Ø³ØªÙĩ": 2382,
      "Ú¯Ø²Ø§Ø±ÛĮ": 2383,
      "ĠØªØ®ÙģÛĮÙģ": 2384,
      "Ø«ÛĮ": 2385,
      "ĠÚ¯Ø±ÙħÛĮ": 2386,
      "ĠØ§ØµÙģÙĩ": 2387,
      "Ø§Ù¾Ø§": 2388,
      "Ø¶Ø§Ø±": 2389,
      "ÙħÙĨÙĪØ¹": 2390,
      "ĠÙĨÙĪØ´Øª": 2391,
      "ĠØªØ¹Ø·ÛĮÙĦØ§Øª": 2392,
      "Ù¾Ø§Ø±": 2393,
      "ĠØ²ÙĪØ¯ÛĮ": 2394,
      "ÙĪÙĨØ¯": 2395,
      "ĠÙĤØ§ÙĨÙĪÙĨÛĮ": 2396,
      "Ú©ÙĨØ³Ø§ÙĨØªØ±Ùĩ": 2397,
      "ĠØ¹ÙĦØª": 2398,
      "Ø²ÙħØ§ÙĨ": 2399,
      "Ø¨ÙĪ": 2400,
      "Ø§ÙĩÙĨ": 2401,
      "Ø³ÙĪ": 2402,
      "ĠÚ¯Ø³Øª": 2403,
      "Ø²Ø¯": 2404,
      "ĠØ§ÙģØ´": 2405,
      "ĠØµÙĨØ¯ÙĦÛĮ": 2406,
      "ĠØ§ØµÙģÙĩØ§ÙĨ": 2407,
      "ĠØ±ÙĨÚ¯": 2408,
      "Ø§ÙĦØª": 2409,
      "ur": 2410,
      "ĠÙĨØ§Ø´": 2411,
      "ĠÙ¾ÛĮØ§Ùħ": 2412,
      "ĠØªØ§Ø²Ùĩ": 2413,
      "ĠÙħØ·Ø§ÙĦØ¨Ø§Øª": 2414,
      "ĠØ®Ø§ÙĨÙĪ": 2415,
      "ĠÚ©Ø¯": 2416,
      "ĠØ´Ù¾": 2417,
      "ĠØ¨ÙĨØ§Ø¯Ø±": 2418,
      "ĠØ¨Ø§Øª": 2419,
      "ĠØ§Ø¨ØªØ¯Ø§ÛĮÛĮ": 2420,
      "ĠØ¯Ø±Ø³Øª": 2421,
      "ĠØ§ÙħÛĮØ±": 2422,
      "Ú¯Ø±Ø¯Ø§ÙĨ": 2423,
      "ĠÙħÙħÙĨÙĪØ¹": 2424,
      "ÛĮÙĨØ¯": 2425,
      "ĠÙĨÚ¯ÙĩØ¯Ø§Ø±ÛĮ": 2426,
      "ĠÙĨØŃÙĪÙĩ": 2427,
      "ĠÙĪØ§Ú©ÙĨØ´": 2428,
      "ĠØ§ØªØ´": 2429,
      "ĠØ³Ø§ÛĮØª": 2430,
      "ĠØ§ÙħØ¯Ùĩ": 2431,
      "ĠÙħÙĪØ«Ø±": 2432,
      "Ú¯Ø²ÛĮÙĨ": 2433,
      "Ø§ÙĪØ±Ùĩ": 2434,
      "ĠØªØ§Ø®": 2435,
      "Ġk": 2436,
      "ÚĨÚ©": 2437,
      "ĠØ§ØªÙħÛĮ": 2438,
      "ĠØ±Ø³Ø§ÙĨÙĩ": 2439,
      "ĠÙ¾Ø§ÙĦØ§ÛĮØ´ÛĮ": 2440,
      "ĠÙ¾ÚĺÙĪ": 2441,
      "Ø§ØªÛĮÚ©": 2442,
      "as": 2443,
      "ĠØªÙĨÛĮ": 2444,
      "Ø§ØŃÙĦ": 2445,
      "ĠØ¹ÙĪØ§Ø±Ø¶": 2446,
      "ØªÙħØ¹": 2447,
      "ĠØ±ÙģØªÙĩ": 2448,
      "ĠÙĨØ§ØªØ±": 2449,
      "ØªØ¬": 2450,
      "ĠØªÙĨØ¸ÛĮÙħ": 2451,
      "ĠÙģØ±ÙĪØ®ØªÙĩ": 2452,
      "ÙĪÛĮÙĨ": 2453,
      "ÙħØ±ÛĮ": 2454,
      "ĠÙħØµØ±": 2455,
      "ĠØªÙĦÙģÛĮ": 2456,
      "ĠØªÙĪØ²ÛĮØ¹": 2457,
      "Ø§Ø±ÙĩØ§": 2458,
      "Ø®Ø§ÙĦØµ": 2459,
      "ĠÚ©ÛĮÙĦÙĪÛĮÛĮ": 2460,
      "ĠØ§ÙħØ¯": 2461,
      "ĠØ§Ø±Ø²Ø§ÙĨ": 2462,
      "ĠØ¨Ø±Ø¯Ø§Ø´Øª": 2463,
      "ĠØ¹ÙĪØ§ÙħÙĦ": 2464,
      "ĠØ§ÙĦØ§Øª": 2465,
      "ØªÙħØ§Ø¯": 2466,
      "ĠØªÙħØ¯ÛĮØ¯": 2467,
      "ÙħØ³": 2468,
      "ĠÙĨÙħØ§ÛĮØ¯": 2469,
      "ĠØ¯Ø§Ø®ÙĦ": 2470,
      "ĠØµØ§Ø¯Ø±Ú©ÙĨÙĨØ¯Ùĩ": 2471,
      "ØºØ¯ÛĮØ±": 2472,
      "Ø¨Ø±ÙĪ": 2473,
      "ĠØºØ²Ùĩ": 2474,
      "ĠØ³Ø·ÙĪØŃ": 2475,
      "Ú©Ø§Ùħ": 2476,
      "ĠÙģÙĨÛĮ": 2477,
      "Ø§Ø²ÙĨ": 2478,
      "ĠÙĪØ§Ø±ÛĮØ²": 2479,
      "ĠÙħØµØ±ÙģÛĮ": 2480,
      "ÙĦØ§Øª": 2481,
      "ĠØ´Ø§ÙĨ": 2482,
      "ĠØ§ÛĮØ§": 2483,
      "ĠØ´ÛĮ": 2484,
      "ĠÙģÙĨØ§ÙĪØ±ÛĮ": 2485,
      "ĠÙģÙĦØ²Ø§Øª": 2486,
      "ĠÙĪØ§Ø±Ø¯Ú©ÙĨ": 2487,
      "ĠØ¬Ø§ÛĮÚ¯Ø²ÛĮÙĨ": 2488,
      "ĠØªØ¹Ø·ÛĮÙĦ": 2489,
      "ØªØ§Ø¨": 2490,
      "ĠØ¨Ø¯Ùĩ": 2491,
      "ĠØ§Ø³ØªØŃØ¶Ø§Ø±": 2492,
      "Ġv": 2493,
      "Ø²ÙĪÙħ": 2494,
      "ĠÙ¾Ø±Ø§ÛĮØ¯": 2495,
      "ĠØ§Ø³ØªØ±Ø§Øª": 2496,
      "ĠØ§ÙĪØ§Ø®Ø±": 2497,
      "ĠØ³ÛĮØ§Ùĩ": 2498,
      "ĠÚ¯Ø³ØªØ±Ø¯Ùĩ": 2499,
      "ĠØ§ÙħÙĦØ§Ú©": 2500,
      "ĠØ®Ø§Ú©": 2501,
      "ĠØ¯ÙĤÛĮÙĤ": 2502,
      "ĠØ§ØªØ§ÙĤ": 2503,
      "ĠØ§Ø³ØªØ±Ø§ØªÚĺÛĮ": 2504,
      "ĠÙģØ§ØµÙĦÙĩ": 2505,
      "ĠÙģØ±Ø§ÙĨ": 2506,
      "ĠÙĨØ¸Ø§ÙħÛĮ": 2507,
      "ĠØ§Ø³ØªØ§ÙĨØ¯Ø§Ø±Ø¯": 2508,
      "ĠØ®Ø´Ú©": 2509,
      "ĠØ§Ø®ØªØµØ§ØµÛĮ": 2510,
      "ĠÙĤØ·Ø¹ÛĮ": 2511,
      "ĠØ´Ø±Ø§ÛĮØ·ÛĮ": 2512,
      "ĠØ¨ÙĪØª": 2513,
      "ĠÙĨØ²Ø¯": 2514,
      "ĠØ¯Ùħ": 2515,
      "ĠÙħØ¯ÛĮØ±Ø§ÙĨ": 2516,
      "Ù¾Ø±": 2517,
      "ĠÙ¾ÙĪØ²ÙĪÙĦØ§ÙĨÛĮ": 2518,
      "ĠØ³ÙĦ": 2519,
      "ĠÙħÙĪÙĦ": 2520,
      "ĠØ§ÛĮØ³": 2521,
      "ĠØ³Ø§Ø¨": 2522,
      "ÙģÙĨ": 2523,
      "ĠØ¹ÙħØ§ÙĨ": 2524,
      "ĠØ§ÙĪØ¬": 2525,
      "ĠØ¨ÙĦÙĪÙħØ¨Ø±Ú¯": 2526,
      "ĠØ´ÛĮØ´Ùĩ": 2527,
      "Ø§Ø¯ÙĨ": 2528,
      "ĠÚĨÛĮØ²ÛĮ": 2529,
      "ĠÙ¾ÛĮØ±ÙĪ": 2530,
      "ĠØ¨Ø±Ø®ÙĪØ±Ø¯": 2531,
      "ĠØ®Ø±": 2532,
      "ĠÙħÙģ": 2533,
      "ĠÙ¾ÛĮØ´Ø±ÙģØª": 2534,
      "ĠØ±ÛĮÛĮØ³ÛĮ": 2535,
      "ÚĺÙĨ": 2536,
      "ĠÙĩØ´Ø¯Ø§Ø±": 2537,
      "ĠØ¯ÙĨÛĮØ§ÛĮ": 2538,
      "ĠØ²Ø¯Ùĩ": 2539,
      "ĠØ¨ÙĪØ±Ø³ÛĮ": 2540,
      "ĠØªØŃÙĤÙĤ": 2541,
      "ĠØ¹ÛĮØ§Ø±": 2542,
      "ÙĩØ§Ùħ": 2543,
      "ĠØ§ÙĨØ¯Ú©ÛĮ": 2544,
      "ĠÙħÙĪØ§ÙģÙĤØª": 2545,
      "ĠÙĨØ±Ùħ": 2546,
      "Ø¨Ø§Ø²Ø§Ø±": 2547,
      "ĠØ°Ú©Ø±": 2548,
      "Ú©ÙĪÙĨÛĮ": 2549,
      "ĠØ®Ø±ÛĮØ¯Ø§Ø±": 2550,
      "ĠØ³Ø§ÛĮÙ¾Ø§": 2551,
      "ĠØŃÙħÙĦØ§Øª": 2552,
      "ĠÚ©Ø§Ø±Ø´ÙĨØ§Ø³Ø§ÙĨ": 2553,
      "ĠÚ©Ø§ÙģÛĮ": 2554,
      "Ø±ÙĪÙģ": 2555,
      "ĠÚ©ÙĨØ³Ø§ÙĨØªØ±Ùĩ": 2556,
      "ĠØ¨Ø¹Ø¯ÛĮ": 2557,
      "ĠØ¨Ø§Ø¨Øª": 2558,
      "ĠÙĨÛĮØ±ÙĪÙĩØ§ÛĮ": 2559,
      "ĠØ§ÙħØ¶Ø§": 2560,
      "ĠØ§ÙģØ²Ø§ÛĮØ´ÛĮ": 2561,
      "ĠÙĦØºÙĪ": 2562,
      "ĠØŃØ±Ùģ": 2563,
      "ĠØ§ÙĨÙĤÙĦ": 2564,
      "ĠÙĩÙħØ²ÙħØ§ÙĨ": 2565,
      "ĠÙħØ±Ø²": 2566,
      "ĠØ¯ÙĩÛĮÙħ": 2567,
      "ĠÙħØ³Ú©ÙĪ": 2568,
      "ØªØ´": 2569,
      "ĠÙģÚ©Ø±": 2570,
      "ĠØ¯Ø±Ø§ÙħØ¯ÙĩØ§": 2571,
      "ĠÙ¾Ø§ÛĮØ¯Ø§Ø±": 2572,
      "ĠÙħØªÙĤØ§Ø¶ÛĮØ§ÙĨ": 2573,
      "ĠØ§ÙĩØ¯": 2574,
      "ĠÙĩÙĦ": 2575,
      "ĠØ¬Ø§ÛĮÚ¯Ø§Ùĩ": 2576,
      "ĠÙħØµÙĪØ¨": 2577,
      "ÙĪØ§ÙĨØª": 2578,
      "Ġpv": 2579,
      "tm": 2580,
      "ĠØªØ¹ÙĩØ¯Ø§Øª": 2581,
      "Ø²Ùħ": 2582,
      "ÙĦÛĮÚ©": 2583,
      "ĠØ³Ø±Ø§Ø³": 2584,
      "ĠØ§ÙĤØ§ÛĮ": 2585,
      "ĠØŃØ§ÙĦØ§": 2586,
      "Ø§Ø·Ø±": 2587,
      "ĠÚ¯Ø±ÙģØªÙĨ": 2588,
      "ÙħÙ¾": 2589,
      "ÙħØ²Ø¯": 2590,
      "ĠÙģØ±Ø¹ÛĮ": 2591,
      "Ø§ÙĨÚ¯ÛĮ": 2592,
      "ĠÚ©ÙĦØ§ÙĨ": 2593,
      "ĠÙĨØ´Ø¯": 2594,
      "Ø§ÙĨÛĮÙĩ": 2595,
      "ĠØºØ°Ø§ÛĮÛĮ": 2596,
      "Ø·Ø±": 2597,
      "Ø¹Ø§ÙĨØ§Øª": 2598,
      "Ġpet": 2599,
      "ĠÙģØ±Ø§ÙĨØ³Ùĩ": 2600,
      "ĠØ³Ø§Ø¨ÙĤÙĩ": 2601,
      "ĠØ§ØŃÛĮØ§ÛĮ": 2602,
      "ĠØªØµÙħÛĮÙħØ§Øª": 2603,
      "ÙĨØ®": 2604,
      "ÙĦØŃ": 2605,
      "ÙģØ±ÙĤÙĩ": 2606,
      "ĠÚ¯ÙĪÛĮÙĨØ¯": 2607,
      "Ø±ÛĮÙĩ": 2608,
      "ĠØ§Ú¯Ø±ÚĨÙĩ": 2609,
      "ĠØ³ÛĮÙħ": 2610,
      "ĠØªÙħØ§ÙħÛĮ": 2611,
      "ĠÙħÙĩØ§Ø±": 2612,
      "Ø¯Ø§ÙĦÙĦÙĩ": 2613,
      "ĠØ¯Ø´": 2614,
      "ĠÙĤØ·Ø¹Ùĩ": 2615,
      "ĠØªØ³ÙĩÛĮÙĦ": 2616,
      "ĠØ¬Ø¯ÙĪÙĦ": 2617,
      "ĠÙħÙĨØ§Ø³Ø¨": 2618,
      "ĠØ¨ÛĮÙĦØª": 2619,
      "ÙĨØ¯ÛĮ": 2620,
      "ĠØ¹Ø¨ÙĪØ±": 2621,
      "ĠÙĪÙĤØªÛĮ": 2622,
      "ĠØ§Ú¯Ø§Ùĩ": 2623,
      "ĠÙħØŃØ§Ø³Ø¨Ùĩ": 2624,
      "Ú¯Ø§ÙĪ": 2625,
      "ĠØªØ¹ÙħÛĮØ±Ø§Øª": 2626,
      "ĠÙħØ¹ÙħÙĪÙĦ": 2627,
      "Ø§ØºØ°": 2628,
      "Ø´ÛĮ": 2629,
      "ĠØ§Ø¬Ø§Ø²Ùĩ": 2630,
      "ĠØ§ØŃØªÙħØ§ÙĦÛĮ": 2631,
      "ÙĪÛĮØ¯": 2632,
      "ĠÚĨÙĨØ¯ÛĮÙĨ": 2633,
      "ĠØ¯Ú©": 2634,
      "ĠØ¹Ø§Ùħ": 2635,
      "ĠÚ¯ÙĪØ§ÙĩÛĮ": 2636,
      "ĠØ¨Ú¯ÛĮØ±Ø¯": 2637,
      "ĠØ®Ø¨": 2638,
      "ĠÙħÙĦØª": 2639,
      "ĠÙĪØ³Øª": 2640,
      "ĠØ®Ø¨Ø±ÙĨÚ¯": 2641,
      "ĠÙ¾Ø®Ø´": 2642,
      "ĠÙħÙĨØªØ¸Ø±": 2643,
      "ic": 2644,
      "ĠÙĪØ§Ø¨": 2645,
      "ĠØ§ÛĮØ±ÙĨØ§": 2646,
      "ĠØªØ§Ø®ÛĮØ±": 2647,
      "Ø±ÙĪÙĨ": 2648,
      "ÙĪØ³ØªØ§ÙĨ": 2649,
      "ĠÙħØ§Ø´ÛĮÙĨ": 2650,
      "ĠØ±ÙĪØ¨Ø±ÙĪ": 2651,
      "ĠÙħØªÙģØ±ÙĤÙĩ": 2652,
      "Ø³ØªØ±ÛĮ": 2653,
      "ĠØ±ÛĮØ²Ø´": 2654,
      "ĠÚ©Ø´Øª": 2655,
      "ĠØ¹ÙĦÛĮØ±": 2656,
      "Ø´Ø±Ú©Øª": 2657,
      "Ø¹Ùģ": 2658,
      "ĠÙħØªØ¹ÙĦÙĤ": 2659,
      "ĠØ§ÙĦÛĮ": 2660,
      "Ø§ÚĨ": 2661,
      "ĠÙħØ³Ú©ÙĪÙĨÛĮ": 2662,
      "ĠØ¨ÙĦÚ©Ùĩ": 2663,
      "Ø´ÛĮØ´Ùĩ": 2664,
      "ĠØ®Ø¯Ùħ": 2665,
      "ĠØ§Ø²Ùħ": 2666,
      "ĠÙĨÚ©Ø±Ø¯Ùĩ": 2667,
      "ĠØ§ÛĮØª": 2668,
      "ĠØ§ÙĩØ¯Ø§Ùģ": 2669,
      "ĠØªØ²": 2670,
      "Ø§Ø¯Ú¯ÛĮ": 2671,
      "ĠØ¨Ø±ÛĮØª": 2672,
      "Ú©ÙĪÚ©": 2673,
      "ĠÚ©ÙĪÚĨÚ©": 2674,
      "ĠØ¯Ø§ÙħÙĨÙĩ": 2675,
      "Ø¹ÙĤ": 2676,
      "ĠÙĤÙĦ": 2677,
      "ÙĦÛĮÙĪÙĨ": 2678,
      "ĠØ¯Ø³ØªØ±Ø³ÛĮ": 2679,
      "ĠØ±ÙģØªØ§Ø±": 2680,
      "ĠØ·ÙĪÙĦØ§ÙĨÛĮ": 2681,
      "ÙĪØ²ÛĮ": 2682,
      "ĠØ§Ø¹ØªÙħØ§Ø¯": 2683,
      "ĠØµØ¯ÙĪØ±": 2684,
      "ĠØ´Ø§ÛĮØ¯": 2685,
      "ĠÙħÛĮØ¹Ø§ÙĨØ§Øª": 2686,
      "ÚĨØ§Ø±": 2687,
      "ĠÙħÙĩÙħØªØ±ÛĮÙĨ": 2688,
      "ing": 2689,
      "Ø§ÙĦØ§Ø±": 2690,
      "ĠÚ©Ø±Ø¨ÙĨ": 2691,
      "ĠØ§ÛĮØ¯": 2692,
      "ĠÙħØ±Ø§Ø¬": 2693,
      "ĠØ§ÙĨÙĤÙĦØ§Ø¨": 2694,
      "Ø±ÙĨÚ¯": 2695,
      "ĠØ³ÛĮØ¯": 2696,
      "ĠØ§Ø³Ù¾": 2697,
      "ĠØ§Ø³Ù¾Ø±Ø¯": 2698,
      "ĠÙħØ´Ùĩ": 2699,
      "ĠØ§ÙĨÚĨÙĩ": 2700,
      "ĠÙħÙĨØ·ÙĤÛĮ": 2701,
      "ĠÙĨÙħØ§ÛĮÙĨØ¯Ú¯Ø§ÙĨ": 2702,
      "ĠØªØ±Ø³": 2703,
      "ÙĩØ§ÛĮÛĮ": 2704,
      "ĠÙ¾ÛĮØ´ÙĨÙĩØ§Ø¯ÛĮ": 2705,
      "ĠÚĨØºÙĨØ¯Ø±": 2706,
      "ĠØ®Ø³": 2707,
      "Ù¾ÙĦÛĮ": 2708,
      "ĠØ±Ø³Ø§ÙĨÛĮ": 2709,
      "ĠØ§ÙģØ±ÛĮÙĤØ§": 2710,
      "ĠØŃØ§Ú©ÛĮ": 2711,
      "ĠØ§ÙħØ§Ø±ÙĩØ§ÛĮ": 2712,
      "Ø§Úĺ": 2713,
      "ĠØ®Ø§ÙĨÙĩ": 2714,
      "ĠØ§ÙĦØ²": 2715,
      "ia": 2716,
      "ĠØªÙĪÙĦÙĪ": 2717,
      "ØªÙĩØ§ÛĮ": 2718,
      "ÙģÙĪÙĦ": 2719,
      "ĠÙĩÙħØ§ÙĨØ·ÙĪØ±": 2720,
      "ÙĤØ¯Ø±": 2721,
      "ĠØ¨Ø§Ø²ÙĨØ´": 2722,
      "ĠØ§ÙĪØ±Ø¯": 2723,
      "ĠØ¯Ø³ØªÙĪØ±ÛĮ": 2724,
      "Ø§Ø¶ÛĮ": 2725,
      "it": 2726,
      "ÙĦÛĮÙĦÛĮ": 2727,
      "ĠØªØ§ÙĦØ§Ø±": 2728,
      "ĠØ®Ø§Ø·Ø±": 2729,
      "ĠÚ©Ø§Øª": 2730,
      "ĠÙĩÙĪØ§ÛĮ": 2731,
      "ĠØ§ÙĨØ¬ÙħÙĨ": 2732,
      "ĠØµØ¨ØŃ": 2733,
      "Ø§Ø¯ÙĦØ§Øª": 2734,
      "ÙĦÙĪÛĮØª": 2735,
      "ĠØ¨Ø±ÙĤÛĮ": 2736,
      "ĠÚ©ÙĦÛĮØ¯ÛĮ": 2737,
      "ĠØªÙĤØ¯Ùħ": 2738,
      "ĠØ¯ÛĮØ±ÙĪØ²": 2739,
      "ĠØªØ¹Ø·ÛĮÙĦÛĮ": 2740,
      "ĠØ¨ØªÙĪØ§ÙĨ": 2741,
      "ĠÙĩØ´Øª": 2742,
      "ĠÙĩÙĨØ¯ÙĪØ³ØªØ§ÙĨ": 2743,
      "ĠØ®ÙĪØ±Ø¯": 2744,
      "ĠØ²ÙĨØ¯": 2745,
      "ÙħØ¯Øª": 2746,
      "ĠÙĪÙ¾": 2747,
      "ĠØ§ÙĪÙĦÙĪÛĮØª": 2748,
      "ĠÙĨØ§ØªØ±Ø§Ø²ÛĮ": 2749,
      "ĠÙĩÙĪØ´": 2750,
      "ĠØ§Ú©Ø«Ø±": 2751,
      "ÛĮÚ©": 2752,
      "ĠØ¨Ø³": 2753,
      "Ø§Ø´ÙĨÚ¯": 2754,
      "Ġu": 2755,
      "ØªØ±Ø§Ú©ØªÙĪØ±": 2756,
      "Ø¹ÙĪØ¯": 2757,
      "ĠØ¯Ø§Ø±ÙĪÛĮÛĮ": 2758,
      "Ø§Ø´ÙĨÚ¯ØªÙĨ": 2759,
      "ĠÙĨÙģØªÚ©Ø´": 2760,
      "ĠØ¯Ø§Ø±ÛĮ": 2761,
      "ĠØ§Ø¯Ø¹": 2762,
      "ĠØ¶Ø¯": 2763,
      "ĠÙĨÙħØ§ÛĮÙĨØ¯Ùĩ": 2764,
      "Ø¯Ø§ÙĦÙĦÙĩÛĮØ§ÙĨ": 2765,
      "ĠÙ¾Ø§ÛĮØ§ÙĨÙĩ": 2766,
      "ĠØ®ÙĪØ§Ø³Øª": 2767,
      "Ġthe": 2768,
      "Ġpvc": 2769,
      "Ø§ØªÙĪØ±": 2770,
      "Ø¬Ø§": 2771,
      "ĠÙĪØ§Ø³": 2772,
      "ĠØ®Ø²Ø§ÙĨÙĩ": 2773,
      "Ø³Ø¨": 2774,
      "ĠÙħÙĩÙħÛĮ": 2775,
      "Ø§ØŃÛĮ": 2776,
      "ĠÙħØªÙģØ§ÙĪØª": 2777,
      "ĠØ§ÙĦÙĦÙĩ": 2778,
      "Ø±ÛĮØ²": 2779,
      "ĠØ§Ø®Ø°": 2780,
      "ĠØ¯Ø³ØªØ±Ø³": 2781,
      "ĠØ§ÛĮØ³Øª": 2782,
      "ĠØªØ¶ÙħÛĮÙĨ": 2783,
      "ĠØ§ÛĮØ³ÙĨØ§": 2784,
      "Ø±ÙĩØ§": 2785,
      "ĠÙ¾ÙĨØ¬Ø´ÙĨØ¨Ùĩ": 2786,
      "ĠØµÙģØ±": 2787,
      "ĠÙħØŃØ³": 2788,
      "Ø§Ø°Ø±": 2789,
      "ĠØ²Ø§ÛĮÙĦÛĮÙĨ": 2790,
      "Ø²ÛĮØª": 2791,
      "Ø§ÛĮØ¬": 2792,
      "Ø®Ø§Ú©": 2793,
      "Ø°Ø§": 2794,
      "ĠØ¨ÛĮØ§ÙĨÛĮÙĩ": 2795,
      "ĠÙħØ´ÙĩÙĪØ¯": 2796,
      "ĠÙħØ±Øº": 2797,
      "Ø¹ÙħÙĦÛĮØ§ØªÛĮ": 2798,
      "dpe": 2799,
      "ÙĪØ§": 2800,
      "ĠØ¨ÙĨÚ¯": 2801,
      "ĠØ§ÙĦÙħÙĦÙĦ": 2802,
      "ĠØ§ÙĨØ¨": 2803,
      "ĠÚĨØ±Ø®": 2804,
      "ĠÙĩÙĪØ§ÛĮÛĮ": 2805,
      "ĠÚ©ÛĮÙĦÙĪÚ¯": 2806,
      "ĠÙ¾Ùĩ": 2807,
      "Ø¬Ø§Øª": 2808,
      "ĠÙħØ´ÙħÙĪÙĦ": 2809,
      "ĠØªÚ©ÙĦÛĮ": 2810,
      "ĠØ§Ø«Ø±Ø§Øª": 2811,
      "ĠØ§Ø·ÙħÛĮÙĨ": 2812,
      "ĠÙ¾Ø´Øª": 2813,
      "ĠØªÙĪÙĦÙĪÛĮÙĨ": 2814,
      "ĠÙħØ§ÙĩÙĨÚ¯ÛĮ": 2815,
      "ĠØ¯ÙĦØ§ÛĮÙĦ": 2816,
      "ÙħÙĩÙħ": 2817,
      "ĠØ´Ø§Ø±": 2818,
      "ĠØ¯Ø§Ø¯ÙĨ": 2819,
      "ĠØ±Ùģ": 2820,
      "ĠÚ©Ø´Ùģ": 2821,
      "ĠÙħØ¨ÙĨØ§ÛĮ": 2822,
      "ĠÙħØ¬Ø¯Ø¯Ø§": 2823,
      "ĠÚ¯Ø°Ø§Ø´Øª": 2824,
      "ĠØ´Ø±ØŃ": 2825,
      "Ø§Ø±ØªÛĮ": 2826,
      "ĠÙħØ¬ØªÙħØ¹": 2827,
      "ĠØ±Ø§Ø¨": 2828,
      "ĠÙħØ³ÛĮÙĪÙĦ": 2829,
      "ÙħØ§": 2830,
      "ĠØ¯ÛĮØ¯Ùĩ": 2831,
      "ÙĨÙħØ§ÛĮ": 2832,
      "ĠÙĨØ¨Ø§ÛĮØ¯": 2833,
      "ĠØ¨ÙĦÙĨØ¯ÙħØ¯Øª": 2834,
      "ÙħÙĤ": 2835,
      "ĠØªØ±ÛĮÙĦÛĮÙĪÙĨ": 2836,
      "ĠØ§Ø³ØªØ±Ø§ÙĦÛĮØ§": 2837,
      "Ø¯ÙĪ": 2838,
      "Ø§ÙĨØ¯Ùĩ": 2839,
      "Ø§Ø¯Ø§": 2840,
      "ĠØ³Ø±Ø§Ø³Ø±": 2841,
      "ĠÙĪØ§Ø´ÙĨÚ¯ØªÙĨ": 2842,
      "Ø¬ÛĮØŃ": 2843,
      "ĠÙħÙĪÙĦØ¯": 2844,
      "ĠØ³Ø±Ø¨": 2845,
      "Ġfob": 2846,
      "ÙĪÙģ": 2847,
      "ĠÙħØªØ±Ùħ": 2848,
      "ØªÙĪØ§ÙĨØ¯": 2849,
      "ĠØ§ÙĨØ¯Ø§Ø²Ùĩ": 2850,
      "Ø±ÛĮÛĮØ³": 2851,
      "ĠØ§ÙĦØ¹": 2852,
      "ĠØ´ÙħØ§ÙĦÛĮ": 2853,
      "Ø§Ú¯Ø±Ø³": 2854,
      "ĠÚ©Ø§ÙħÛĮÙĪÙĨ": 2855,
      "ĠØªØ±Ø¬ÛĮØŃ": 2856,
      "el": 2857,
      "ĠØªÙģØ§ÙĪØª": 2858,
      "ĠØ§Ø·ÙĦØ§Ø¹ÛĮÙĩ": 2859,
      "Ø®ÙĪØ¯": 2860,
      "ĠÙħÙĤØµØ¯": 2861,
      "ĠØªÙħØ§ÛĮÙĦ": 2862,
      "ĠØ§Ø·ÙħÛĮÙĨØ§ÙĨ": 2863,
      "ÙĪÚ©": 2864,
      "Ø³ØªØ§": 2865,
      "ĠØ¨Ø§ÙĦØº": 2866,
      "Ø³Ø±ÙĪ": 2867,
      "ĠØ³ÙĪÙħÛĮÙĨ": 2868,
      "ÙĦØ§Ùģ": 2869,
      "ĠØ·ÙĪØ±ÛĮ": 2870,
      "ed": 2871,
      "ĠÚĨØ§Ù¾": 2872,
      "Ø§ÙħÙ¾": 2873,
      "Ø®Ø§Ø±": 2874,
      "ÙĨØ±Ø®": 2875,
      "Ø²ÙħÛĮÙĨ": 2876,
      "Ø±ÛĮØª": 2877,
      "ÙĦÙĪÙĦÙĩ": 2878,
      "ĠÚ©Ø³ÛĮ": 2879,
      "Ø³ÛĮÙĦÛĮ": 2880,
      "ĠØ¯Ùģ": 2881,
      "Ù¾Ø±ÙĪÚĺÙĩ": 2882,
      "Ø¬ÛĮØª": 2883,
      "ĠØ§ÙĦØŃØ³": 2884,
      "ĠÙħØŃÙĦÛĮ": 2885,
      "ĠÚĨÛĮØ²": 2886,
      "ĠØ¨Ø²Ø±": 2887,
      "ĠÙģØ³ÙģØ§Øª": 2888,
      "is": 2889,
      "ĠØªØ§Ø¨ÙĦ": 2890,
      "Ø¨ÛĮÙĦ": 2891,
      "Ø§Ø³Ùĩ": 2892,
      "ĠÙħØ¹ØªÙĤØ¯ÙĨØ¯": 2893,
      "Ø§ÛĮØ´Ú¯Ø§Ùĩ": 2894,
      "ĠÙħØ¨Ø§Ø¯ÙĦØ§Øª": 2895,
      "ĠØ³ÙĪÛĮØ§": 2896,
      "Ø±ÛĮØ¨": 2897,
      "ØºÛĮØ±": 2898,
      "ĠÙ¾ÙĦÛĮÙħØ±ÛĮ": 2899,
      "ĠØ³ÙĨØ§Ø±ÛĮ": 2900,
      "ØªØºØ§ÙĦ": 2901,
      "ĠÙħØŃÙĪØ±": 2902,
      "ĠØ§Ø¯Ø§Ø±ÛĮ": 2903,
      "ĠØ®Ø·Ø±": 2904,
      "ĠØ®Ø·ÙĪØ·": 2905,
      "Ú¯Ø§ÙĪØ§Øª": 2906,
      "ĠØ®ÙĨ": 2907,
      "ts": 2908,
      "ĠÙĦØ°Ø§": 2909,
      "ĠÚ©Ø§ÙĦØ§ÙĩØ§": 2910,
      "ĠØ§Ø³ÙģÙĨØ¬ÛĮ": 2911,
      "ro": 2912,
      "Ø§ÙģØ¹": 2913,
      "ÙħÙĦØª": 2914,
      "ĠØ§ÙħÙĪÙĨÛĮØ§Ú©": 2915,
      "ĠØŃØ¨": 2916,
      "ĠÙģØ±Ø²ÛĮÙĨ": 2917,
      "ĠØŃÚ©": 2918,
      "ĠÙħØ¹Ø§Ùģ": 2919,
      "ĠØ´Ø®Øµ": 2920,
      "ĠØ§Ø¹Ø·Ø§ÛĮÛĮ": 2921,
      "Ø§Ø®ØªÛĮ": 2922,
      "Ø§Ø¬Ø±": 2923,
      "ĠÙĨØªØ§ÛĮØ¬": 2924,
      "ĠØ§ÙħÛĮØ¯ÙĪØ§Ø±ÛĮÙħ": 2925,
      "ĠÙģÛĮØ²ÛĮ": 2926,
      "ĠÙĨÙĩØ§Ø¯": 2927,
      "Ø±Ø´Ø¯": 2928,
      "ĠØ¯Ø¨ÛĮØ±": 2929,
      "ĠØ¯Ø±Ú¯ÛĮØ±ÛĮ": 2930,
      "ĠØ§ÙĨÛĮ": 2931,
      "Ø®Ø±ÛĮØ¯": 2932,
      "Ù¾Ø³ÙĪÙĦ": 2933,
      "Ø¶Ø§ÛĮÛĮ": 2934,
      "ĠÙ¾Ø±ÙĪÙĨØ¯Ùĩ": 2935,
      "ĠØªØ§ÛĮÙĪØ§ÙĨ": 2936,
      "ĠÙĦÙĪØ§Ø²Ùħ": 2937,
      "ĠØ¨Ø±ÛĮØªØ§ÙĨÛĮØ§": 2938,
      "Ø±Ø¯Ø§Ùħ": 2939,
      "ĠØ§ÙħÙĪØ§ÙĦ": 2940,
      "ĠØ¯ÛĮØ¬ÛĮØª": 2941,
      "ĠØ§ØŃØ³": 2942,
      "ĠÚ©Ø§ÙħÙĦØ§": 2943,
      "ĠÙĪÙĦÙĪ": 2944,
      "Ġto": 2945,
      "Ù¾ÙĪ": 2946,
      "ĠØ¯Ø§Ø´ØªÛĮÙħ": 2947,
      "ĠØªØ§Ø±ÛĮØ®ÛĮ": 2948,
      "ĠØªÙĪØ§ÙĨØ³Øª": 2949,
      "Ø®Ø§Øµ": 2950,
      "ĠÙħØ·ÙĦ": 2951,
      "ĠÚ©Ø§Ø±ÙħØ²Ø¯": 2952,
      "ĠØ¬Ø§ÙħØ¹Ùĩ": 2953,
      "Ø²Ø§ÙĨ": 2954,
      "Ø´ØªÛĮ": 2955,
      "ĠÙħØ¬Ø§Ø²": 2956,
      "ĠÚ©ÙĪÙĪÛĮØ¯": 2957,
      "ĠÚ©ÛĮÙģ": 2958,
      "ĠØªØµÙģÛĮÙĩ": 2959,
      "ÙģØ§": 2960,
      "ĠØ¨ÙĨÛĮØ§ÙĨ": 2961,
      "ĠØ§Ø¨ÙĩØ§Ùħ": 2962,
      "ĠØ±Ø§Ø¨Ø·Ùĩ": 2963,
      "ĠÙģÛĮØ²ÛĮÚ©ÛĮ": 2964,
      "ĠØ³ÙĪØ¯Ø§ÙĪØ±ÛĮ": 2965,
      "ĠØ§ÙĪØ±ÛĮ": 2966,
      "ĠØ§Ø³ÛĮØ¨": 2967,
      "Ø´Ú©ÙĦ": 2968,
      "ĠÙĤÙĨØ¯": 2969,
      "ĠØ±ÙĪØ´ÙĨ": 2970,
      "ĠØ¨Ø§Ø´ÛĮØ¯": 2971,
      "ĠØ¨Ø§Ø²Ùĩ": 2972,
      "ĠÙĨØ¯Ø§Ø±ÙĨØ¯": 2973,
      "ĠØ³Ø§ÙħØ§ÙĨ": 2974,
      "ĠØ§Ø³ÛĮØ¯": 2975,
      "ØµØ§Ø¯Ø±Ø§ØªÛĮ": 2976,
      "ĠØªÛĮÙħ": 2977,
      "ĠÚ¯Ø§ÙĦ": 2978,
      "ĠÙĨØ³Ø¨ØªØ§": 2979,
      "ĠØ§Ø´Ø®Ø§Øµ": 2980,
      "ÙģÙĪ": 2981,
      "Ø³ÛĮØ¯": 2982,
      "Ø±ÙģÛĮ": 2983,
      "ØªÙģØ§ÙĪØª": 2984,
      "ÙģØ±ÙĪ": 2985,
      "Ø§ÛĮØ´ÛĮ": 2986,
      "Ø³Ø§Ø·": 2987,
      "ĠÚ¯Ø°Ø§Ø´ØªÙĩ": 2988,
      "Ġan": 2989,
      "ĠÙĪØ§Ø³Ø·Ùĩ": 2990,
      "ÙħÙĪÙĦÛĮ": 2991,
      "ĠÙĨÛĮØª": 2992,
      "Ø³ÛĮØ§ÙĨ": 2993,
      "ĠØ¯Ø±ØŃ": 2994,
      "ĠÙĪÙĤØª": 2995,
      "Ø§Ø¯ÙĩØ§": 2996,
      "ĠØ§Ø³ØªØ®": 2997,
      "ØµÛĮ": 2998,
      "Ø¯Ø§Ø´": 2999,
      "ĠØ¯ÙģØª": 3000,
      "ĠÙħØ®Ø§ÙĦ": 3001,
      "ĠÙĨØ´ÙĪØ¯": 3002,
      "ĠØ°ÙĪØ¨": 3003,
      "Ø®Ø§Ø°": 3004,
      "Ø§Ø¨ÙĦÙĩ": 3005,
      "ĠØ´Ú©Ø³Øª": 3006,
      "Ø±Ø§Ùħ": 3007,
      "ĠØ¯ÙĤ": 3008,
      "Ø²Ø§": 3009,
      "Ø·ÛĮ": 3010,
      "ĠØ²ÛĮØ±Ø³Ø§Ø®Øª": 3011,
      "ĠØ§ÙģØ´Ø§ÛĮ": 3012,
      "Ø§Ø¨ØŃÙĩ": 3013,
      "ĠÙħØ±Ø§Ø¨ØŃÙĩ": 3014,
      "ĠÙĨØ®Ø³ØªÛĮÙĨ": 3015,
      "ĠØ§Ø´ØªØºØ§ÙĦ": 3016,
      "ÙħØ¯ÛĮØª": 3017,
      "ĠØªØ¯Ø±ÛĮ": 3018,
      "ĠØªØ¬Ø¯ÛĮØ¯Ù¾Ø°ÛĮØ±": 3019,
      "ØµØ±": 3020,
      "ĠØ®Ø§ÙĨÚ¯ÛĮ": 3021,
      "ØŃØ§ØµÙĦ": 3022,
      "ĠØ«Ø±ÙĪ": 3023,
      "ĠÙħÙĨØ§ÙģØ¹": 3024,
      "ĠØ³Ø§Ø®ØªÙħØ§ÙĨ": 3025,
      "ĠØ§ÙĨÚ¯ÙĦÛĮØ³": 3026,
      "ÙĪØ§ÙĨÛĮ": 3027,
      "Ø´ÙĩØ±": 3028,
      "Ù¾Øª": 3029,
      "Ú©ÙĦÛĮ": 3030,
      "ÙĦØ§ÙĦ": 3031,
      "Ø§Ø±Ùģ": 3032,
      "ĠØ§ÛĮÙĨØªØ±ÙħØ¯ÛĮØª": 3033,
      "ce": 3034,
      "Ø³ÙĦ": 3035,
      "ĠØ±ÙĪÛĮØ¯Ø§Ø¯": 3036,
      "ĠÙħØ¹Ø§Ø¯ÙĨ": 3037,
      "ÙĪÙħØ±": 3038,
      "ĠÙ¾Ø§Ú©Ø³ØªØ§ÙĨ": 3039,
      "ĠØ§ØŃØ³Ø§Ø³": 3040,
      "ĠØ¬Ø§ÛĮÛĮ": 3041,
      "Ø§Ø·Ø¹": 3042,
      "ĠØ¯Ø§ÙĪ": 3043,
      "Ø±ÛĮÙģ": 3044,
      "ØªÙĪØ³": 3045,
      "ĠÙħØ¨Øª": 3046,
      "ĠÙĩØ±ÙħØ²": 3047,
      "ĠØ¹Ø±Ø¨ÛĮ": 3048,
      "ĠØ³ÙĦÙģ": 3049,
      "ĠÚ¯Ø±Ø¯ÛĮØ¯Ùĩ": 3050,
      "ĠØªØŃÙĦÛĮÙĦÚ¯Ø±": 3051,
      "ÛĮØªØ±Ø§ÙĨÙĩ": 3052,
      "ĠØ§ÙĪØª": 3053,
      "ĠØ§Ø±Ø§ÙħÚ©ÙĪ": 3054,
      "Ø§ÙħÛĮØ¯": 3055,
      "Ø§Ø³Ø§ÙĨ": 3056,
      "ĠÙħØ¯ÛĮØªØ±Ø§ÙĨÙĩ": 3057,
      "ĠØ¨ØªÙĪØ§ÙĨØ¯": 3058,
      "ĠØ¨ÙĩØªØ±ÛĮÙĨ": 3059,
      "be": 3060,
      "ÙĦØª": 3061,
      "ÙħÛĮØ§ÙĨ": 3062,
      "ĠÙĤØ·Ø¹Ø§": 3063,
      "ÛĮØ§Ø±Ø§ÙĨÙĩ": 3064,
      "ĠØ³Ø§Ø±": 3065,
      "ÛĮØ§ÙĨÙĪ": 3066,
      "ĠØ¹ÙĦÛĮØ±ØºÙħ": 3067,
      "ÚĨÙĪØ¨": 3068,
      "ĠØ®ÛĮ": 3069,
      "ØµÙĪØ±Øª": 3070,
      "ĠØ¨ÙĨÛĮØ§Ø¯ÛĮ": 3071,
      "ĠÙħØ¨Ø§Ø±Ú©Ùĩ": 3072,
      "Ø±Ú©Ø²": 3073,
      "ĠÙħØ§ÙĨØ¹": 3074,
      "Ġx": 3075,
      "ĠÙĪØ¬": 3076,
      "ĠØ§ØªØ®Ø§Ø°": 3077,
      "ĠØ¹ÙĨ": 3078,
      "Ù¾ÛĮØ´": 3079,
      "ĠÙ¾Ø±ØªÙĦ": 3080,
      "ĠÙħØ³ÛĮÙĦÙĩ": 3081,
      "ĠÙħØ±Ø§Ø¬Ø¹Ùĩ": 3082,
      "ĠÙ¾Ø±ÛĮÙĦ": 3083,
      "ĠÚ©ÙĨÙĪÙĨ": 3084,
      "ĠØ³ÛĮÚ¯ÙĨ": 3085,
      "ĠØ§Ø®ÛĮØ±Ø§": 3086,
      "ĠØ¹Ø¬ÛĮ": 3087,
      "ĠØªÙĦÙģÛĮÙĤÛĮ": 3088,
      "ĠØ¯Ø±Ø¬Ùĩ": 3089,
      "ĠØ¹Ø§ÛĮ": 3090,
      "Ù¾Ø§Ø±ÚĨÙĩ": 3091,
      "ĠÚ©ÙĦÛĮÙĩ": 3092,
      "ĠÙģØ±ÙĪØ´ÛĮ": 3093,
      "ĠÙħØ§Ø±": 3094,
      "ĠØ®Ø±ÛĮ": 3095,
      "ĠØ¬ÙĨ": 3096,
      "ĠØ±ÛĮØ§Ø³Øª": 3097,
      "ĠØ²ÙĪØ¯": 3098,
      "ĠÙħØŃÛĮ": 3099,
      "ĠØ¨Ø¨ÛĮÙĨ": 3100,
      "ĠÙĪØµÙĪÙĦ": 3101,
      "ÙĪÙĨØ²ÛĮ": 3102,
      "ĠØªÙħØ±Ú©Ø²": 3103,
      "ĠÙ¾Ø§Ø¯": 3104,
      "ĠØ¨ÙĨÚ¯Ø§Ùĩ": 3105,
      "ÛĮØ§ÙĨÙĪØ³ÛĮÙĩ": 3106,
      "ÙħØ§Ø±": 3107,
      "Ø§ÛĮØ¬Ø§ÙĨ": 3108,
      "ĠØ·Ø±": 3109,
      "ĠØªÙĤØ³ÛĮÙħ": 3110,
      "ĠÚĨÛĮØ³Øª": 3111,
      "ĠØªÙĪÙĦÛĮØ¯Ø§Øª": 3112,
      "ĠÙĦÛĮ": 3113,
      "ÙħÛĮØ§ÙĨÚ¯ÛĮÙĨ": 3114,
      "Ú¯Ø³ØªØ±": 3115,
      "Ø±ÛĮØŃ": 3116,
      "ĠÙĨÙĤØ§Ø·": 3117,
      "ĠÙ¾Ø±ÙĪÙ¾Ø§ÙĨ": 3118,
      "Ø±Ø§ÛĮÙħ": 3119,
      "ĠÙħØ«ÙĦ": 3120,
      "ĠÙĨÙĪÛĮØ³ÛĮ": 3121,
      "ĠØ§ÙħØ§Ùħ": 3122,
      "Ø±ÙģÙĩ": 3123,
      "ĠÙħØ¯Ø§Ø±": 3124,
      "ea": 3125,
      "ĠØ§ÙĨØ³": 3126,
      "ĠÙħÙĦÚ©": 3127,
      "ĠØ¯ÙĦØ§ÙĦ": 3128,
      "ĠÙĪØ§ÙĦ": 3129,
      "Ú©ÙĪÙĦ": 3130,
      "Ø®ÙĪØ²": 3131,
      "Ø¹Ø±": 3132,
      "Ø±Ø¨Ø§ÛĮØ¬Ø§ÙĨ": 3133,
      "ĠØŃÙħØ§Ø³": 3134,
      "ĠÚ©Ø¯Ø§Ùħ": 3135,
      "Ø§Ø¨Ø±ÛĮ": 3136,
      "ĠØ³Ø±Ø§ÙĨ": 3137,
      "ĠÙĩÙĪØ§": 3138,
      "ĠÙ¾Ø±ØªÙĦÙĨØ¯": 3139,
      "Ø¬Ø¹Ø¨Ùĩ": 3140,
      "ĠÙĨÛĮØ³Ø§ÙĨ": 3141,
      "ÙĪØ¹ÙĦÛĮ": 3142,
      "ĠØ§ÙĨØ¯ÙĪÙĨØ²ÛĮ": 3143,
      "ĠØ¨Ø§Ø¯": 3144,
      "Ø¨ÙĪØ¨": 3145,
      "bs": 3146,
      "ĠÙħØ¨ØªÙĨÛĮ": 3147,
      "Ø¨ÙĪØ±Ø³": 3148,
      "ĠØ¯ÚĨØ§Ø±": 3149,
      "ĠÚ©ÙĪÛĮØª": 3150,
      "ĠØªÙĩØ¯ÛĮØ¯": 3151,
      "ĠØ§Ø°Ø±Ø¨Ø§ÛĮØ¬Ø§ÙĨ": 3152,
      "ĠØ§ÙĦØ¹Ø§Ø¯Ùĩ": 3153,
      "ĠØ§Ø±Ø§ÙħØ´": 3154,
      "ĠØ´ÙģØ§ÙģÛĮØª": 3155,
      "ĠÙĨØ§Ø´Ø±": 3156,
      "ÙħØ§ÙĨØ¯": 3157,
      "ÙĩØ±Ø³Øª": 3158,
      "ØªØ§Úĺ": 3159,
      "ÙĨØ¯Ø§ÙĨ": 3160,
      "ĠÚĨØ§Ø±": 3161,
      "ĠØªØŃÙĤÛĮÙĤ": 3162,
      "ĠÚ¯ÙĨØ¯ÙĦÙĩ": 3163,
      "ĠØ¯ÛĮØ¬ÛĮØªØ§ÙĦ": 3164,
      "Ø³ÙĨØ¬ÛĮ": 3165,
      "ĠÙĪÙĨ": 3166,
      "ĠØ³ÙĪØ§Ø±ÛĮ": 3167,
      "ĠÙĩÙģØªÙħ": 3168,
      "ÙĤÙĦØ§ÙĦ": 3169,
      "ĠØªØ¹Ø§Ø¯ÙĦ": 3170,
      "ĠØªØ¹Ø¯ÛĮÙĦ": 3171,
      "Ø¨Ø§ÙĨÚ©": 3172,
      "Ø§Ø³ØªÛĮÚ©": 3173,
      "ÙĤØ±Ø§Ø±Ø¯": 3174,
      "ÙĪØ§Ø±ÛĮ": 3175,
      "ĠÙħØ§Ø¬": 3176,
      "Ø§Ø²Ø§ÛĮÙĦÛĮÙĨ": 3177,
      "ĠØ±ÙĪÙĨÙĤ": 3178,
      "ĠÙħØŃØ±Ú©": 3179,
      "ĠÙĨØ¸Ø±Ø³ÙĨØ¬ÛĮ": 3180,
      "ĠÙģØ±ÙħÙĪÙĦ": 3181,
      "ĠÙ¾ÙĩÙ¾": 3182,
      "ĠÙĪÙĦÙĪÙĪ": 3183,
      "ĠÙħÙĤØ§Ø¨ÙĦÙĩ": 3184,
      "ĠÙħØ¹ØªÙĤØ¯ÛĮÙħ": 3185,
      "ĠÙģØ±ÙĪØ´ÙĨØ¯Ú¯Ø§ÙĨ": 3186,
      "ĠÙħØ®ØªÙĦ": 3187,
      "ĠÚ©Ø±Ú©": 3188,
      "ĠÙĨØ¨Ø§Ø´": 3189,
      "ĠØ¯Ø§ÙĨØ´Ú¯Ø§Ùĩ": 3190,
      "ĠÙģØ±Ø§ØªØ±": 3191,
      "ĠØ¨Ø±Ú¯Ø´Øª": 3192,
      "ĠÙħØ§ÙĦÚ©": 3193,
      "Ġar": 3194,
      "Ø§Ø±Ø§Øª": 3195,
      "ĠÙģÙĪØ±ÛĮ": 3196,
      "ĠØ°Ø±Øª": 3197,
      "ĠÙĨÛĮØ±ÙĪÛĮ": 3198,
      "Ø¯Ø§Ø´Øª": 3199,
      "Ø´Ø§": 3200,
      "ĠØ±Ø§ÙĩØ¨Ø±Ø¯": 3201,
      "ĠØ¨ØŃØ¨ÙĪ": 3202,
      "ĠÙħÙĤØ±Ø±Ø§Øª": 3203,
      "Ø´Ø§ÛĮÛĮ": 3204,
      "ĠÙĩÙħÚĨÙĪÙĨ": 3205,
      "ĠØªØ§Ø³ÛĮØ³Ø§Øª": 3206,
      "ĠØ¨ØŃØ¨ÙĪØŃÙĩ": 3207,
      "Ø§ÛĮØ±Ø§ÙĨ": 3208,
      "ĠØ³ÙĨÙĪ": 3209,
      "ĠÙģÙĦØ²ÛĮ": 3210,
      "ĠÙ¾Ø§Ø±Ø³ÛĮØ§ÙĨ": 3211,
      "ĠØ¯Ø³ØªÛĮØ§Ø¨ÛĮ": 3212,
      "ĠØ¨Ø²Ø±Ú¯ÛĮ": 3213,
      "ĠÙĤØ²": 3214,
      "ĠØ±ÙĪØ²ÙĨØ§ÙħÙĩ": 3215,
      "ĠØ§ÙĤØªØµØ§Ø¯Ø¯Ø§ÙĨ": 3216,
      "ĠØ³ÙĪØ±": 3217,
      "ĠÙħØ¹ÙħÙĪÙĦÛĮ": 3218,
      "Ø§ØŃØª": 3219,
      "ĠÙĤØ±Ø¶": 3220,
      "ĠÙħÙĤØ±Ø±": 3221,
      "ÙĪØ§Ø±Ùĩ": 3222,
      "ÙħÙĪØª": 3223,
      "ĠÙĨØµ": 3224,
      "ĠÙ¾ÛĮÙħ": 3225,
      "ĠØ§Ø³ØªØ§ÙĨÙĩ": 3226,
      "ĠÙħØªØºÛĮØ±": 3227,
      "ĠÙģÙĪØª": 3228,
      "Ø¯Ø§Ø´ØªÛĮ": 3229,
      "ĠØ±ÙĪØ²Ùĩ": 3230,
      "ĠÙģØ¹ÙĦØ§": 3231,
      "ÙħÙĨØ³ØªØ§ÙĨ": 3232,
      "ĠØªÙĩÛĮÙĩ": 3233,
      "ĠØ³ÛĮÚ¯ÙĨØ§ÙĦ": 3234,
      "ÙĪØ±ØªÛĮ": 3235,
      "ĠØŃÛĮ": 3236,
      "ĠØ±ØºÙħ": 3237,
      "Ø§ÙĪÙħØª": 3238,
      "ĠØ³ÙĪØ§ÙĦ": 3239,
      "ĠÚ©ÛĮÙģÛĮØª": 3240,
      "Ú©Ø¹Ø¨": 3241,
      "ĠÙģÙĩØ±Ø³Øª": 3242,
      "ĠØ±ÙģØªÙĨ": 3243,
      "ĠØµØ±ÙģØ§": 3244,
      "tbe": 3245,
      "ĠÙĨÙģØ¹": 3246,
      "Ø§Ø³Ø¨": 3247,
      "ĠØ§Ø³ØªØ±Ø§ØªÚĺÛĮÚ©": 3248,
      "ĠØ¨Ø§ÛĮ": 3249,
      "Ø´Ø§ÙĩØ¯": 3250,
      "ĠØ§ÙħÙĪØ²": 3251,
      "Ø§ÙĨØ¯ÙĪØ²ÛĮ": 3252,
      "ĠÚĨÙĪÙĨ": 3253,
      "ĠÚ¯Ø°Ø´Øª": 3254,
      "ĠØ¯Ø³ØªÙĩ": 3255,
      "ĠÙ¾Ø±Ø¯Ø§Ø®ØªÛĮ": 3256,
      "ÙĤØ¨Ø§ÙĦ": 3257,
      "ĠØ§Ø³ØªÙĤÙĦØ§ÙĦ": 3258,
      "ĠÙħØ´Øª": 3259,
      "ĠØŃØ§ÙĦØª": 3260,
      "ĠÙĩÛĮØ¯Ø±ÙĪÚ©Ø±": 3261,
      "ĠÙħØ¹Ø±ÙģÛĮ": 3262,
      "ĠÚ©ÙħÛĮØªÙĩ": 3263,
      "ĠÙħÙħÙĨÙĪØ¹ÛĮØª": 3264,
      "ĠÙĩØ§Ø³Øª": 3265,
      "ĠÙĩØ±Ú¯ÙĪÙĨÙĩ": 3266,
      "ĠÙħÙĤØ§ÙĪÙħØª": 3267,
      "ĠÙħÙĨØªÙĤÙĦ": 3268,
      "ÛĮØ§": 3269,
      "ĠØ§ØŃØ¯Ø§Ø«": 3270,
      "ĠØ§Ø¨ØªØ¯Ø§": 3271,
      "ĠØ§ÙĦØŃØ³ÙĨÙĩ": 3272,
      "ĠØ³Ø§Ø®ØªÙĩ": 3273,
      "ÚĺÛĮÙħ": 3274,
      "ĠÙĨØ¯Ø§Ø±ÛĮÙħ": 3275,
      "ĠÙĪØ§Ø±Ø¯Ú©ÙĨÙĨØ¯Ùĩ": 3276,
      "ĠØ§Ø³ÙĦØ¨": 3277,
      "Ø³ÛĮÙĦ": 3278,
      "ĠØ§ÙĦØ²Ø§Ùħ": 3279,
      "Ø§Ø±Ø§": 3280,
      "Ø¶Ø§ÛĮØ¹Ø§Øª": 3281,
      "ĠØ¹ÙĦØ§ÙĤ": 3282,
      "Ø§Ø³Ùħ": 3283,
      "ĠÙĩØ¯Ø§ÛĮØª": 3284,
      "ĠÙĪØ¬Ùĩ": 3285,
      "ĠØ§Ø±ØªÙĤ": 3286,
      "ĠØ±ÙģØ§Ùĩ": 3287,
      "ÙĦØ§ÛĮÙĨ": 3288,
      "ĠÚ¯Ø±Ø¯Ø´": 3289,
      "ĠØ³ÙĩØ§ÙħØ¯Ø§Ø±": 3290,
      "ĠÙħÚ©Ø§ÙĨÛĮ": 3291,
      "ĠØ±ÙĪØ²ÙĩØ§": 3292,
      "Ø¯Ø±Ø¶Ø§": 3293,
      "ĠÙĨÚ¯Ø±": 3294,
      "ĠÙĨØ³Ø¨ÛĮ": 3295,
      "ĠØ¯ÛĮÙ¾ÙĦÙħØ§Ø³ÛĮ": 3296,
      "ĠÙħÚ¯Ø§ÙĪØ§Øª": 3297,
      "Ø³ØªØ§ÙĨÛĮ": 3298,
      "Ø²Ø´Ú©": 3299,
      "ĠØ±ÚĺÛĮÙħ": 3300,
      "ĠÙģÛĮ": 3301,
      "Ø§ÙĪÛĮ": 3302,
      "ĠÙĤÙĪØ§ÙĨ": 3303,
      "ĠÙħÙĪØ§Ø²ÛĮ": 3304,
      "ĠÙħØªØ´Ú©ÙĦ": 3305,
      "ĠÙħØ³Ø§Ùģ": 3306,
      "Ø´ÙĨØ§ÙħÙĩ": 3307,
      "ĠØ³Ø¹ÛĮ": 3308,
      "ĠØ®Ø§ÙĪØ±": 3309,
      "Ø¬ÙĪ": 3310,
      "ĠÚ©Ø§ÙĨØ§Ø¯Ø§": 3311,
      "ĠÙħÙĦÙĦ": 3312,
      "Ø§ÛĮØ§ÙĨ": 3313,
      "ĠØ¯Ú©ØªØ±": 3314,
      "Ø§ÙĪØ±Ø§ÙĤ": 3315,
      "ĠØ§ÙĦØ¬": 3316,
      "Ø§Ø±Ø²Ø´": 3317,
      "ĠØªÚ©Ø±": 3318,
      "ØªÙģØ§ÙĦÙĩ": 3319,
      "ĠØ§ÙĦÚ©ØªØ±ÙĪÙĨÛĮÚ©": 3320,
      "ĠØŃØ¨Ø§Ø¨": 3321,
      "ĠØ§Ø²Ø§Ø¯ÛĮ": 3322,
      "ĠÙĤØ¯ÛĮÙħ": 3323,
      "ĠÙħÙĪØ±": 3324,
      "ĠØ§Ø¶Ø§ÙģÛĮ": 3325,
      "Ø§ÛĮÙħ": 3326,
      "ĠØ¨Ø§ÙĦØ§ÛĮÛĮ": 3327,
      "ÙĨØ¸Ø±": 3328,
      "ĠØ§ÙĤØ³Ø§Ø·": 3329,
      "ĠØ§Ø²Ø§Ø¯Ø³Ø§Ø²ÛĮ": 3330,
      "ĠÚ©Ú©": 3331,
      "Ú©ÙĨØ§ÙĨ": 3332,
      "ÙĪØªÛĮÙĨ": 3333,
      "ĠØµÚ©ÙĪÚ©": 3334,
      "ĠÙĨÙĪØ±": 3335,
      "Ø§Ø¨Ø§ÙĨ": 3336,
      "Ø¨ØªÛĮ": 3337,
      "ØºØ§ÙĨ": 3338,
      "Ø±Ø³ÛĮØ¯": 3339,
      "ĠØ´ÙĪÚ©": 3340,
      "ĠØ³Ø§ÙĦÛĮ": 3341,
      "ĠÙĨÙħØ§ÛĮÛĮØ¯": 3342,
      "ĠÚ©ÛĮÙĦÙĪÚ¯Ø±Ùħ": 3343,
      "Ø¯Ø§Ø¯": 3344,
      "ĠØ§Ø¨Ø§Ø¯": 3345,
      "ĠØªØ±Ø¯": 3346,
      "ĠØ¨Ø§Ø²Ú¯Ø´Ø§ÛĮÛĮ": 3347,
      "ÙĦÛĮØª": 3348,
      "Ø§Ø³ØªÛĮ": 3349,
      "ĠÚ©ÙĨÙĪÙĨÛĮ": 3350,
      "ĠÙħÙĪØ¶ÙĪØ¹Ø§Øª": 3351,
      "ĠÙĤÙĪØ§ÙĨÛĮÙĨ": 3352,
      "ĠÙģØ²Ø§ÛĮ": 3353,
      "ĠÙħØ³Ø§ÙĦÙĩ": 3354,
      "ÙĪØ²ÛĮØ±": 3355,
      "Ù¾Ø±Ø¯Ø§Ø²": 3356,
      "Ø´ÙĪÛĮÛĮ": 3357,
      "ĠÙĪÚ©": 3358,
      "ĠØ´ÙħØ§Ø±": 3359,
      "ĠØªÙģØ§ÙĩÙħ": 3360,
      "ĠØ²Ø±": 3361,
      "ĠØ§ÙĩÚ©": 3362,
      "ĠÚ©Ø§Ùħ": 3363,
      "ĠØ³Ø¯": 3364,
      "ĠÙ¾Ø´": 3365,
      "ĠØ§Ø±Ø²ÙĩØ§ÛĮ": 3366,
      "ØªØ¬Ø§Ø±ÛĮ": 3367,
      "ĠÙĨØ§ÙĪ": 3368,
      "ĠØ§ØµÙĦ": 3369,
      "ĠØ¨Ø°": 3370,
      "ĠÚ¯ÙĪÛĮ": 3371,
      "ĠÚĨÚ¯ÙĪÙĨÙĩ": 3372,
      "Ø§Ù¾ÛĮ": 3373,
      "ĠÙĨÙĩØ§Ø¯ÙĩØ§ÛĮ": 3374,
      "ĠØµØ±ÙģÙĩ": 3375,
      "ĠÙĩØ§Ø¨": 3376,
      "Ø§ÙĪØ§ÙĨ": 3377,
      "ĠØ¨Ø§ÙĨÚ©Ø¯Ø§Ø±ÛĮ": 3378,
      "ĠÙħØŃÙħØ¯Ø±Ø¶Ø§": 3379,
      "ĠØ§ÙħØ§Ø¯Ú¯ÛĮ": 3380,
      "ĠØ¨Ø®Ø´ÙĨØ§ÙħÙĩ": 3381,
      "Ø¬ÙħØ¹": 3382,
      "ĠØ®ÙĪØ±Ø´": 3383,
      "ØªØ§ÙĨ": 3384,
      "ĠØ´ØªØ§Ø¨": 3385,
      "ĠØ¨Ø±ÛĮ": 3386,
      "ĠØ´Ø§ÙĨÚ¯": 3387,
      "ĠØ±Ø¨Ø¹": 3388,
      "ĠØ§Ø³ØªÙĨØ§Ø¯": 3389,
      "ĠØ§ÙħÛĮÙĨ": 3390,
      "ĠØªØ±Ø§Ú©ÙĨØ´": 3391,
      "Ø¨Ø±Ú¯Ø´Øª": 3392,
      "ÙĨÙĪØ¹": 3393,
      "Ù¾ÛĮÙĨ": 3394,
      "ÙĪØ·ÛĮ": 3395,
      "ØªØ®": 3396,
      "ĠØ±ÙĪÛĮÚ©Ø±Ø¯": 3397,
      "ĠØ¹ÙĦØ§ÙĤÙĩ": 3398,
      "ĠØ§Ø³ØªÙĤØ¨Ø§ÙĦ": 3399,
      "Ø§ÙģÛĮÙĨ": 3400,
      "ĠØŃØ¯ÙĪØ¯ÛĮ": 3401,
      "ĠØ´ÙĩÛĮØ¯": 3402,
      "ĠØ®Ø§Ú©Ø³ØªØ±ÛĮ": 3403,
      "Ø¯ÛĮØ±": 3404,
      "ÙĤØ§Ùħ": 3405,
      "ĠØªØ¶Ø¹ÛĮÙģ": 3406,
      "ĠÚĨØ§Ø±ÚĨÙĪØ¨": 3407,
      "Ø·Ø¨ÛĮØ¹ÛĮ": 3408,
      "ĠØ§ÙħØ±ÛĮÚ©Ø§ÛĮ": 3409,
      "ĠÙħØªØ±ÙħÚ©Ø¹Ø¨": 3410,
      "ĠÚ¯Ø±ÙĪ": 3411,
      "ĠØ³Ùħ": 3412,
      "ĠØ®Ø§ØµÛĮ": 3413,
      "Ø´Ú©ÛĮ": 3414,
      "Ø´Ø±ÙĤ": 3415,
      "ÙģÚ©": 3416,
      "Ø±ÙħØ§": 3417,
      "ĠØ±Ø³Ø§ÙĨØ¯Ùĩ": 3418,
      "ĠÙĤØ±ÙĨ": 3419,
      "ĠÙĤØ¨ÙĦØ§": 3420,
      "ĠÙĪØ§Ú¯Ø°Ø§Ø±": 3421,
      "ĠÙģØ²Ø§ÛĮÙĨØ¯Ùĩ": 3422,
      "Ø§Ø³ÛĮØ¯": 3423,
      "ĠØ³ØªØ§Ø¯": 3424,
      "ĠØ¹ÛĮÙĨ": 3425,
      "Ø°ÛĮØ±ÛĮ": 3426,
      "ĠÙħÙĪÙĨÙĪÙħØ±": 3427,
      "ĠØ®Ø±Ø§Ø³Ø§ÙĨ": 3428,
      "ig": 3429,
      "ĠÙĪØ³ÛĮ": 3430,
      "ĠØ³ÙĨØ¯": 3431,
      "ĠÙħØ³Ø¯ÙĪØ¯": 3432,
      "ĠÙħÙĩÙĨØ¯": 3433,
      "ĠÙ¾Ø°ÛĮØ±ÙģØªÙĩ": 3434,
      "ĠØªÚ©Ø±Ø§Ø±": 3435,
      "ĠÙħØ¸": 3436,
      "ĠÙħÙģØ§Ø¯": 3437,
      "Ú©Ø¯Ø§ÙĦ": 3438,
      "Ø³Ø±": 3439,
      "ĠØŃØ§ÙħÙĦ": 3440,
      "Ø³Ùħ": 3441,
      "Ø²ÙħØ§ÙĨÛĮ": 3442,
      "ĠØ³ÙĨØ§": 3443,
      "ĠÚ©Ø§Ø±Ú©ÙĨØ§ÙĨ": 3444,
      "ÙĨÙĪØ´Øª": 3445,
      "Ø¯Ø±ÛĮ": 3446,
      "ĠØ§ÙĦØ¨Ø±": 3447,
      "ĠÙħØ¬Ø§Ø²ÛĮ": 3448,
      "ĠÙ¾Ø°ÛĮØ±Ùĩ": 3449,
      "ol": 3450,
      "ÚĨÛĮÙĨ": 3451,
      "Ø·Ø±Ùģ": 3452,
      "Ø§ÙĪÙĨØ¯": 3453,
      "ĠÚ©ÙĨÙħ": 3454,
      "ĠÚ©Ø´ÙĪØ±ÙħØ§ÙĨ": 3455,
      "ĠØ®ÙĪØ¯Ø±ÙĪÛĮÛĮ": 3456,
      "Ø³Ø§": 3457,
      "ĠØŃØ³ÛĮÙĨ": 3458,
      "Ø±Ø³ÙħÛĮ": 3459,
      "ĠØ§Ø³ØªØ®Ø±Ø§Ø¬": 3460,
      "ĠØ§ÙħÛĮØ±Ø¹Ø¨": 3461,
      "ÙģÙĪÙĦØ§Ø¯": 3462,
      "ĠÙĨÚ©Ø±Ø¯": 3463,
      "ĠØµÙĪØ±ØªÛĮ": 3464,
      "ĠØ³Ø§ÙĦÙĩØ§ÛĮ": 3465,
      "ĠÙĩÙħÛĮØ´Ùĩ": 3466,
      "ĠÚ©ÙħØªØ±ÛĮ": 3467,
      "ĠØ³Ù¾Ø§Ùĩ": 3468,
      "ĠØªØ®ÙħÛĮÙĨ": 3469,
      "ĠØ³Ø®ÙĨ": 3470,
      "ĠØ¯ÙģØªØ±": 3471,
      "ÙĪÛĮÙĤ": 3472,
      "ĠØªØ®ÙĦÛĮÙĩ": 3473,
      "ap": 3474,
      "ĠÙĤØ±ÙħØ²": 3475,
      "ĠÙħØŃØ§Ø³Ø¨Ø§Øª": 3476,
      "ĠÙĪØ¬ÙĪÙĩ": 3477,
      "ĠØ±ÙĪØ³ÛĮ": 3478,
      "Ø§Ø³Ø·": 3479,
      "ĠØ¯Ø§ÙĨÙĨØ¯": 3480,
      "ĠØªÚ©ÙĦÛĮÙģ": 3481,
      "ĠÙ¾ÛĮÙħØ§ÙĨÚ©": 3482,
      "Ø§ÛĮØªÛĮ": 3483,
      "ĠØ¬ÙħØ¹ÛĮØª": 3484,
      "ĠØ´ÛĮØ±Ø§Ø²": 3485,
      "ĠÙĪØµ": 3486,
      "Ø¨ÙĩÙħÙĨ": 3487,
      "ĠÙħÙĤØ·": 3488,
      "ĠØ®Ø§ÙĨÙĪØ§Ø±": 3489,
      "ĠÙģÙħÙĦÛĮ": 3490,
      "ĠÙģØ³ÛĮÙĦÛĮ": 3491,
      "ĠØ§ÙĪØ§Ø³Ø·": 3492,
      "ĠÙħØ®Ø§Ø²ÙĨ": 3493,
      "ĠØ´Ø§ÙĨÚ¯ÙĩØ§ÛĮ": 3494,
      "Ø¬Ø±ÛĮÙĩ": 3495,
      "ĠÙħØ¯ÙĦ": 3496,
      "ĠÚ©Ø³Ø§ÙĨÛĮ": 3497,
      "Ø±Ø§Ø²": 3498,
      "Ø¶Ø§Ø¹": 3499,
      "ĠÙĦØ¨": 3500,
      "ĠÚ¯Ø²Ø§Ø±Ø´ÛĮ": 3501,
      "ĠØ¨Ø±Ø§Ø¨Ø±ÛĮ": 3502,
      "ĠØºÛĮØ±Ø±Ø³ÙħÛĮ": 3503,
      "ĠØ§Ø«Ø§Ø±": 3504,
      "Ø§ÛĮÙĪ": 3505,
      "Ø§ÙĩØ±": 3506,
      "ÛĮØ±Ø§ÙĨÛĮ": 3507,
      "Ù¾Ø±Ø¯Ø§Ø®Øª": 3508,
      "ĠÙħÙĪØ³Ø³": 3509,
      "ÙħØ±Ú©Ø²": 3510,
      "ĠØ¨ÙĦÙĪÚ©": 3511,
      "ĠØ§ÙĨÚ¯ÛĮ": 3512,
      "ĠØºØ´": 3513,
      "ĠÙħØµÙĨÙĪØ¹": 3514,
      "ĠÙħØ¹Ø§ÙģÛĮØª": 3515,
      "am": 3516,
      "ĠØ®Ø§ÙĦÛĮ": 3517,
      "ĠØ¨Ø±ÙĪØ²": 3518,
      "ĠÙħØ´Ø§ÙĪØ±": 3519,
      "Ø§Ø¶Ùĩ": 3520,
      "ĠØ§Ø®ØªÙĦØ§ÙĦ": 3521,
      "ĠÙħÚ©Ø±": 3522,
      "Ø³Ø±ÙħØ§ÛĮÙĩ": 3523,
      "ØµØ±Ùĩ": 3524,
      "ĠØ±ÛĮÙĦÛĮ": 3525,
      "ĠÙĨÛĮØ¬Ø±ÛĮÙĩ": 3526,
      "ĠÙĨÙħØ§ÛĮÙĨØ¯": 3527,
      "ĠØ¯ÛĮØ±": 3528,
      "ĠÙĨÙģØªØ§ÛĮ": 3529,
      "Ø¹ÙĩØ¯": 3530,
      "ĠØ®Ø¨Ø±ÙĨÚ¯Ø§Ø±": 3531,
      "ĠØŃÚ©Ùħ": 3532,
      "ĠÙħÛĮÙĦÚ¯Ø±Ø¯": 3533,
      "ĠÙħØ¹ÙħÙĪÙĦØ§": 3534,
      "ĠÙĨÙĪÛĮÙĨ": 3535,
      "Ø³Ù¾Ø±Ø¯Ùĩ": 3536,
      "ĠÙħØ§ÙĦØ²ÛĮ": 3537,
      "ĠÚ©Ø±ÙħØ§ÙĨ": 3538,
      "ĠØ¯ÙĦØ§ÙĦØ§ÙĨ": 3539,
      "ĠØ´ÛĮØ±ÛĮÙĨ": 3540,
      "ĠÙĪØ§Ø¨Ø³ØªÙĩ": 3541,
      "ĠØ¨Ø§ÙĪØ±": 3542,
      "ÙģÙĦ": 3543,
      "Ø®ÙĪØ§ÙĨ": 3544,
      "ĠØ§ØŃØªØ±": 3545,
      "Ø§ÚĨØ§ÙĤ": 3546,
      "un": 3547,
      "ĠØ§Ø³ÙĨØ§Ø¯": 3548,
      "ĠØ§ÙĨØŃ": 3549,
      "ĠØ§ÙħÙĪÙĨÛĮÙĪÙħ": 3550,
      "ĠØ´ÙĦ": 3551,
      "ĠØºÙĦ": 3552,
      "ØªØ±Ú©ÛĮØ¨": 3553,
      "Ø¬Ø§ÙĨØ¨Ùĩ": 3554,
      "ĠØ¨Ú¯Ø°": 3555,
      "ĠØ¨ÙħØ§ÙĨØ¯": 3556,
      "ĠØ¬Ø§Ø¯Ùĩ": 3557,
      "ĠØ¬ÙĦØ³": 3558,
      "Ø±Ú©Ùĩ": 3559,
      "Ġwti": 3560,
      "ĠØ¬Ø§ÙĨØ¨ÛĮ": 3561,
      "ÙĪØªÛĮ": 3562,
      "ĠØ¯Ø¹": 3563,
      "Ø§ØŃØ¯Ø§Ø«": 3564,
      "ĠØ§Ø³ÛĮØ§ÛĮ": 3565,
      "Ø¹Ø±Ø¶Ùĩ": 3566,
      "ĠØªÙ¾": 3567,
      "ĠÙĪØŃ": 3568,
      "ĠØ¨Ø§ÙĦØ§Ø¯": 3569,
      "ĠÙ¾ÛĮÙĪØ³Øª": 3570,
      "ĠØªØ¨Ø§Ø¯ÙĦ": 3571,
      "ĠØªØ§Ø¨ÙĦÙĪ": 3572,
      "ĠØ±Ø§ÙĨ": 3573,
      "ĠØªØ±Ø¬ÛĮØŃÛĮ": 3574,
      "Ø§Ú¯": 3575,
      "ØªØºÛĮÛĮØ±": 3576,
      "ĠÚ©Ø§ÙĦØ§ÛĮÛĮ": 3577,
      "ĠÚ©Ø§ÙĪÙĩ": 3578,
      "ĠØ¬Ø°Ø§Ø¨": 3579,
      "ĠÙħÚ©Ø±Ø±": 3580,
      "ĠØ§Ø±ÙĤØ§Ùħ": 3581,
      "ĠØ¨ÙĪØ¹ÙĦÛĮ": 3582,
      "ØºÛĮÛĮØ±ÛĮ": 3583,
      "ĠØªÙĪØ§ÙĨÛĮÙħ": 3584,
      "ĠØ´Ø±Ø·": 3585,
      "ĠÚ©Ø´ØªÛĮØ±Ø§ÙĨÛĮ": 3586,
      "ĠÚ©Ø±Ùħ": 3587,
      "ĠØ±Ø¯": 3588,
      "Ø¹Ø§Ø¨": 3589,
      "ĠÙĪÙĤÙĪØ¹": 3590,
      "ÙĨÙħØ§ÛĮÛĮ": 3591,
      "Ø¨ÛĮÙĩ": 3592,
      "ĠØ³ÙĪØ±ÛĮÙĩ": 3593,
      "ØªØ§ØŃ": 3594,
      "ĠØ¯Ø®": 3595,
      "ĠÙĤØ§ÚĨØ§ÙĤ": 3596,
      "ĠØ§ÙĪØ±Ø¯Ùĩ": 3597,
      "ĠØ²Ø§Ú¯Ø±Ø³": 3598,
      "ĠØ±Ø§ÙĩØ¨Ø±Ø¯ÛĮ": 3599,
      "ĠÚ©Ø§Ø±Ú¯Ø²Ø§Ø±ÛĮ": 3600,
      "Ø§ÛĮØ±Ø§": 3601,
      "ĠØ¯ÛĮÙģØ±": 3602,
      "ĠØ¨Ø±ÙĤØ±": 3603,
      "ĠØ¹Ø¬ÛĮØ¨": 3604,
      "ĠØ·Ø±Ø§ØŃÛĮ": 3605,
      "ĠÙĩÙĨÚ¯": 3606,
      "Ø±Ø®Ø§Ùħ": 3607,
      "ĠÙħÙĪÙĤØª": 3608,
      "ĠØ¶Ø±ÙĪØ±ÛĮ": 3609,
      "ĠØªØºÛĮÛĮØ±ÛĮ": 3610,
      "ÙģÙĦÙĩ": 3611,
      "Ø§Ú©Ø§ÙĨ": 3612,
      "Ú©Ø§Ø¨": 3613,
      "ĠÚĨÙĤØ¯Ø±": 3614,
      "ĠØµØ§ØŃ": 3615,
      "Ø³ÙĪØ®Øª": 3616,
      "Ø®ÙĪØ¯Ø±ÙĪ": 3617,
      "ĠØ¯Ø±Ø¬": 3618,
      "ĠÙ¾ÙĪØªÛĮÙĨ": 3619,
      "ĠÛĮÚ©Ùħ": 3620,
      "Ø²ÙĨÛĮ": 3621,
      "ĠÙģØ±Ø²": 3622,
      "ĠÙģØ±ÙĪØ¯": 3623,
      "ĠØªØ²Ø±ÛĮÙĤ": 3624,
      "ĠÙħÙĪØ³Ø³Ø§Øª": 3625,
      "ÛĮØªØ±ÛĮ": 3626,
      "ĠÙĨÛĮØ§Ø²ÙĩØ§ÛĮ": 3627,
      "ĠÙħØŃØ³ÙĪØ¨": 3628,
      "ØªÛĮÙĨ": 3629,
      "ĠØ¨ÛĮØª": 3630,
      "ĠØ¨Ø±ÙĨØ¬": 3631,
      "ØªÙĪÚ©Ø§": 3632,
      "ĠÙĨØ¨ÙĪØ¯Ùĩ": 3633,
      "Â£": 3634,
      "ĠØ±Ø¨": 3635,
      "ĠØ¨ØµÙĪØ±Øª": 3636,
      "ĠÚ©ÚĨ": 3637,
      "ĠÙĪØ¸": 3638,
      "ĠÚ¯Ø´": 3639,
      "ĠÙĤØ¶Ø§ÛĮÛĮ": 3640,
      "ĠØµÙĩÛĮ": 3641,
      "ÙħØ§ÙĨÙĩ": 3642,
      "ÙĦÙĪØ·": 3643,
      "ĠØªÙĦÙģ": 3644,
      "ĠØ¨ÙĪØªØ§Ø¯ÛĮÙĨ": 3645,
      "ĠÙħØŃÛĮØ·": 3646,
      "ÙĪØ¶": 3647,
      "ĠÙģØ´": 3648,
      "ĠÙĨÛĮØ§Ø²Ùħ": 3649,
      "Ġmtbe": 3650,
      "ÙħØ¯ÛĮØ±": 3651,
      "ĠØ®ÙĦÙĤ": 3652,
      "ĠÙģØ±Ø§Ø±": 3653,
      "ĠÙħØ¬Ø¨ÙĪØ±": 3654,
      "ĠÙ¾Ø±Ø³": 3655,
      "ĠØªÚ©ÙĨÛĮ": 3656,
      "ĠÙħÙĪÙĤØ¹ÛĮØª": 3657,
      "ĠÙĨÚ©ÙĨ": 3658,
      "Ø§Ø¯Ø«": 3659,
      "ÛĮÙħÙĨ": 3660,
      "ÙĪÙĦØª": 3661,
      "Ø³ÙĩÙħ": 3662,
      "Ġch": 3663,
      "ĠÙģØ±ÙĪØ®Øª": 3664,
      "Ø¨ÙĨØ²ÛĮÙĨ": 3665,
      "ĠØ®ÙĪØ±Ø´ÛĮØ¯ÛĮ": 3666,
      "ĠØ¨Ø¯ÛĮ": 3667,
      "ĠØ¨ÙĩØªØ±ÛĮ": 3668,
      "ĠÙ¾ÙħÙ¾": 3669,
      "ØªØ¹Ø¯ÛĮÙĦ": 3670,
      "Ø¯Ø¯ÛĮ": 3671,
      "ØªØ±Ø§ÙĨ": 3672,
      "ĠØ¨Ø³ØªØ±": 3673,
      "ĠØ§ÛĮÛĮÙĨ": 3674,
      "ĠØªÙĦÚ¯Ø±": 3675,
      "ĠØ®Ø¨Ø±Ú¯Ø²Ø§Ø±ÛĮ": 3676,
      "ĠØªØ±Ú©ÛĮØ¨": 3677,
      "Ø§ÙĨØ¹": 3678,
      "ĠÙĨÙĪØ§Ø±": 3679,
      "ĠØ´Ø¨Ùĩ": 3680,
      "ÙĨØ¯ÙĪÙĤ": 3681,
      "ĠÙĩÙħÙĪØ§Ø±Ùĩ": 3682,
      "ĠØªØ¹Ø±ÙģÙĩ": 3683,
      "ĠÙ¾Ø±Ø¯Ø§Ø²": 3684,
      "ĠØ¨Ø¹Ø¶ÛĮ": 3685,
      "ĠØªØ±Ø§Ø²ÙĨØ§ÙħÙĩ": 3686,
      "ĠÙĩÙĪØ´ÙħÙĨØ¯": 3687,
      "ĠØµÙĩÛĮÙĪÙĨÛĮ": 3688,
      "ĠÙĨÙĪØ±ÛĮ": 3689,
      "ÙģØ§Ø±Ø³": 3690,
      "ĠÂ£": 3691,
      "Ø§Ø¨ØªÛĮ": 3692,
      "Ġpettm": 3693,
      "ĠØ²ÛĮØ³Øª": 3694,
      "ĠØ±ÙĪØ¯Ø±ÛĮ": 3695,
      "ĠØ¯Ø§ÙĨØ³Øª": 3696,
      "ĠØ®Ø¯ÙħØª": 3697,
      "ĠØ¯Ø§ÙħÛĮ": 3698,
      "ĠÙ¾ÙĪØ±": 3699,
      "ĠÙĦÙĨÚ¯": 3700,
      "ĠÙĩØ§Ø³": 3701,
      "ĠØ¹Ø´": 3702,
      "ÙĪÙĦÛĮØª": 3703,
      "Ġof": 3704,
      "ĠÚ©ÙħØ§Ú©Ø§ÙĨ": 3705,
      "ĠØ§ÙĨØ¯Ú©": 3706,
      "ĠØ¯ÛĮØ¯Ú¯Ø§Ùĩ": 3707,
      "ĠÙħØ´ØªÙĤÙĩ": 3708,
      "ĠÙĩÙħØ³": 3709,
      "ĠÙ¾Ø§ÛĮÚ¯Ø§Ùĩ": 3710,
      "ØªØ±Ø¯Ø§Ùħ": 3711,
      "ĠØ³Ø§Ø¨ÙĤ": 3712,
      "Ø§ÙĪÙĦ": 3713,
      "ØªØµÙģÛĮÙĩ": 3714,
      "ĠØ³Ù¾Ø³": 3715,
      "Ù¾Ø§Ú©ØªÛĮ": 3716,
      "ĠØ§ÛĮØªØ§ÙĦÛĮØ§": 3717,
      "ĠØ®ÛĮØ§Ø¨Ø§ÙĨ": 3718,
      "ĠÙħÛĮÙĪÙĩ": 3719,
      "Ú©ÙĨØ³Ø±ÙĪ": 3720,
      "ĠØ¨Ø±Ø·Ø±Ùģ": 3721,
      "ĠÚĨØ§Ùĩ": 3722,
      "ĠØªØ¹Ø§ÙħÙĦ": 3723,
      "Ú©ÛĮÙĪÙħ": 3724,
      "dy": 3725,
      "ÙĪØ§Øª": 3726,
      "ĠÙħØ§ÙĩÛĮ": 3727,
      "ĠØ§ÙĦØªÙģØ§ÙĪØª": 3728,
      "Ø±Ú¯Ø°": 3729,
      "ĠØ±ÙĩØ¨Ø±ÛĮ": 3730,
      "ĠÙ¾Ø°ÛĮØ±ÛĮ": 3731,
      "ĠØ²ÛĮØ±ÙħØ¬ÙħÙĪØ¹Ùĩ": 3732,
      "ĠØŃÚ©Ø§ÛĮØª": 3733,
      "ĠÙģØ±Ùĩ": 3734,
      "Ø²Ø³ØªØ§ÙĨ": 3735,
      "ØµÛĮØ±": 3736,
      "ĠØ§Ø¨ÙĩØ§ÙħØ§Øª": 3737,
      "ĠÙĪØ¹": 3738,
      "ĠØ¨Ø±ÙĨØ¯Ùĩ": 3739,
      "ĠØªÙĪÛĮ": 3740,
      "Ú©ÙĪØ«Ø±": 3741,
      "ĠÙħÙĪÙĨØªØ§Úĺ": 3742,
      "Ø§ÙĩÛĮÙħ": 3743,
      "ĠÙĩØ§Ø³Ø±Ø§ÙĨÙĩ": 3744,
      "ĠÙĨØ±ÙĪ": 3745,
      "ĠÚĨØ¯ÙĨ": 3746,
      "ĠÙĩÙħÙģÚ©": 3747,
      "ĠØ«Ø±ÙĪØª": 3748,
      "ĠÙħØ¯Ø¹ÛĮ": 3749,
      "ĠÚ©Ø§ØºØ°": 3750,
      "Ġst": 3751,
      "ĠØ§Ú©ØªØ´": 3752,
      "ĠØªØ¨Ø±ÛĮØ²": 3753,
      "ĠØŃØ³Ø§Ø¨Ø±Ø³ÛĮ": 3754,
      "ĠØ±ÙĩØ¨Ø±": 3755,
      "ĠØµØ¹ÙĪØ¯": 3756,
      "ĠØ§ÙģØªØªØ§ØŃ": 3757,
      "ĠØ³ÙĦØ§Ùħ": 3758,
      "ĠÙĤØ¯": 3759,
      "ĠØ²ÙĨ": 3760,
      "Ø¹ÙĤØ§Ø¯": 3761,
      "ĠÙħØ§ÙĨÛĮ": 3762,
      "Ø®Ø²Ø±": 3763,
      "ĠØ²Ø§Ø¯Ùĩ": 3764,
      "ĠÙĪØ¶Ø¹": 3765,
      "ent": 3766,
      "ĠØ¯ÙģØ§Ø¹": 3767,
      "id": 3768,
      "Ú©ÛĮØ³Ùĩ": 3769,
      "ĠØªØ®ÙĦÙģ": 3770,
      "ĠØ§Ø±ØªØ¨Ø§Ø·Ø§Øª": 3771,
      "ĠÙĨÛĮØ§Ø²ÙħÙĨØ¯": 3772,
      "Ú©Ø§Ø±Ø§ÙĨ": 3773,
      "ÙħØ§ÙĦÛĮ": 3774,
      "ĠÚ¯Ø§Ø²Ø·Ø¨ÛĮØ¹ÛĮ": 3775,
      "ĠÙħØ¯ÛĮØ±Ú©ÙĦ": 3776,
      "ĠØªÛĮØ¨Ø§": 3777,
      "ÙģØ§ÙĪØªÛĮ": 3778,
      "ĠØªÙĦÙģÙĨÛĮ": 3779,
      "Ú©Ø§ØºØ°": 3780,
      "ĠÙħÙĩÙĦØª": 3781,
      "ĠØ²Ø¯ÙĨ": 3782,
      "ĠØ¬ÙħØ¹Ø§": 3783,
      "ĠØ¬ÛĮ": 3784,
      "ĠÙħØ¹ÛĮØ§Ø±": 3785,
      "ĠØªØ¹ÙĦÛĮ": 3786,
      "Ø§ÛĮØ¹Ø§ØªÛĮ": 3787,
      "ĠØ³ÙĪØ²": 3788,
      "ĠÚ¯Ø±ÛĮØ¯": 3789,
      "ĠØ¨Ø§ÙĦØªÛĮÚ©": 3790,
      "ĠÙģÙĨØ±": 3791,
      "Ø²Ø´Ú©ÛĮØ§ÙĨ": 3792,
      "Ø¯Ø§ÙĨÙĩ": 3793,
      "ĠØ¨Ø³Øª": 3794,
      "ÙģÙĪØ±ÛĮ": 3795,
      "ĠØ²ÙĨØ¯Ú¯ÛĮ": 3796,
      "ĠØ®Ø¨Ø±ÙĩØ§ÛĮ": 3797,
      "ĠØ§ÙĦØ¬Ø²": 3798,
      "ĠÙħÙĩÙĨØ¯Ø³ÛĮ": 3799,
      "ĠØ§ÙĦØ¨Ø±Ø²": 3800,
      "Ø²ÛĮØ±": 3801,
      "ĠÙħÙĩØ¯ÛĮ": 3802,
      "ĠÙħØ±Ø¬": 3803,
      "ĠÙ¾ÛĮÙħØ§ÙĨ": 3804,
      "ĠØ±ÙĪØ¨ÙĦ": 3805,
      "ĠÙĨØ´ÛĮÙĨÛĮ": 3806,
      "Ø§Ø±ØªÙħØ§ÙĨ": 3807,
      "ĠØ¨ÛĮÚ©Ø§Ø±ÛĮ": 3808,
      "Ø§Ú©Ø³ÙĦ": 3809,
      "ĠÙĨÙĪÛĮØ³": 3810,
      "ĠÙħØµÙĨÙĪØ¹ÛĮ": 3811,
      "ĠØ¯Ø±Ø¨": 3812,
      "Ø§ÙħØ¹": 3813,
      "Ø®Ùĩ": 3814,
      "Ø§ÛĮÙĦÛĮ": 3815,
      "ĠØ³Ú©": 3816,
      "ĠÙģØ±ÙĪØ´Ø³ÙĪØ¯": 3817,
      "Ġco": 3818,
      "ĠØ§Ø³ØªÙĤØ±": 3819,
      "ĠÙħÙĪÙģÙĤÛĮØª": 3820,
      "ĠÙħØ³ØªÙĤÙĦ": 3821,
      "ĠÙĩÙħÙģÚ©Ø±Ø§ÙĨ": 3822,
      "ĠÙģØ±ÙĪØ´ÙĨØ¯Ùĩ": 3823,
      "ØªÛĮÚ©ÛĮ": 3824,
      "ĠØ¨Ø¯ÛĮÙĨ": 3825,
      "ĠØ³Ø¨Ø¨": 3826,
      "ÙĪÙĦÙĪ": 3827,
      "Ø§ÙģØ¸": 3828,
      "ĠÙĪØ²ÛĮØ±Ø§ÙĨ": 3829,
      "ĠÚ©Ø§Ø¨ÙĦ": 3830,
      "ĠØ§ÙĨØ¹ÙĤØ§Ø¯": 3831,
      "ĠÙħÙĪØ§ÙĨØ¹": 3832,
      "ĠØ§ÙĩØ±Ùħ": 3833,
      "ĠØ§Ø´ØªØ¨": 3834,
      "ĠØ³ÙĪÙĦÙģØ§Øª": 3835,
      "ÙħÙĪØªÙĪØ±": 3836,
      "ĠØ¨Ø±ÙĪØ¯": 3837,
      "ĠÚĨÙĨØ¯Ø§ÙĨÛĮ": 3838,
      "ØªÛĮØ¨Ø§ÙĨÛĮ": 3839,
      "ĠØ¬ÙĦØ³Ø§Øª": 3840,
      "ĠÛĮØ¯": 3841,
      "Ø¨ÙĪØ¨Ú¯": 3842,
      "ØªÙħØ§": 3843,
      "ĠÚ¯Ø±ÙģØªÙĨØ¯": 3844,
      "ĠÙ¾Ø±ØªÙģ": 3845,
      "ĠØªØ®ØµØµÛĮ": 3846,
      "Ø§Ø±Ú¯": 3847,
      "ĠØ®Ø§ÙĨØ¯ÙĪØ²ÛĮ": 3848,
      "ĠØ¬Ø±Ø§ÛĮÙħ": 3849,
      "ĠØ§Ø¨ÛĮ": 3850,
      "ĠØŃÙĦØ§ÙĦ": 3851,
      "ĠØ§ÙħÙĨÛĮØªÛĮ": 3852,
      "ĠÙĨØªÙĪØ§ÙĨ": 3853,
      "ĠØªØ¹ÙĦÛĮÙĤ": 3854,
      "ÙĨÙĦ": 3855,
      "Ø§ÙĦØŃ": 3856,
      "Ø§ØªÚ©": 3857,
      "ĠÙ¾Ø±Ú©": 3858,
      "ĠÙģÙĤ": 3859,
      "Ø¬Ø¯": 3860,
      "ÙģØªÙĪÙĦ": 3861,
      "ĠÙħØ¯Ø§ÙĪÙħ": 3862,
      "ÙĨØ§Ùħ": 3863,
      "ĠØªØŃÙĦÛĮÙĦÛĮ": 3864,
      "ĠØªØ¯Ø±ÛĮØ¬": 3865,
      "ĠØ§ÙĨØ³Ø§ÙĨÛĮ": 3866,
      "Ø§ØªÛĮÙĨ": 3867,
      "ĠØ±Ø§Ú©": 3868,
      "ĠÚ¯Ø°Ø§Ø±Ø¯": 3869,
      "ĠÙħØ²": 3870,
      "ĠØ®ÙĦ": 3871,
      "ĠØ§Ø«Ø±Ú¯Ø°": 3872,
      "ĠØ±Ø§ÙĨØª": 3873,
      "ĠØ³ÛĮÙĦ": 3874,
      "ĠØ¨Ø§Ø²Ø§Ø±ÛĮ": 3875,
      "ĠÙģØ±ÙĪØ´Ú¯Ø§Ùĩ": 3876,
      "ĠØ§Ø¹ØªØ±": 3877,
      "ĠÚ¯ÛĮØ±ÙĨØ¯": 3878,
      "ÙĨÙģØªÛĮ": 3879,
      "ĠØ±Ùħ": 3880,
      "Ø·ÙĦØ¨": 3881,
      "ĠÙ¾ÛĮÚĨ": 3882,
      "pi": 3883,
      "Ø±ÛĮÙĤÛĮ": 3884,
      "ĠØ§Ø¨Ø§Ø¯ÛĮ": 3885,
      "ĠÙħØ±Øª": 3886,
      "ĠØ¨Ø®ÙĪ": 3887,
      "ĠØ³ÙĪØ§ØŃÙĦ": 3888,
      "Ø¯ÛĮÙĨÚ¯": 3889,
      "ĠØ§ÙĤÛĮØ§ÙĨÙĪØ³ÛĮÙĩ": 3890,
      "ĠÙĦØ²ÙĪÙħ": 3891,
      "ĠÙĦÛĮØªØ±ÛĮ": 3892,
      "ĠØ¨Ø¯ÙĩÛĮÙĩØ§ÛĮ": 3893,
      "ĠØ¨Ø±Ø³Ø§ÙĨØ¯": 3894,
      "ĠÙħØªÙĤØ§Ø¶ÛĮ": 3895,
      "ĠØ¨Ø±ÛĮÚ©Ø³": 3896,
      "ÙĩÙĨ": 3897,
      "ĠØ§ÙĦÙģ": 3898,
      "ĠÙĨÙħÙĪÙĨÙĩ": 3899,
      "ĠØ¯Ø±ÛĮØ§": 3900,
      "ĠØµÙĩÛĮÙĪÙĨÛĮØ³ØªÛĮ": 3901,
      "Ø±Ø§Ùģ": 3902,
      "ØªØ³Ùĩ": 3903,
      "Ú©Ø§Øª": 3904,
      "ĠÙĤØ·Ø¹ÙĨØ§ÙħÙĩ": 3905,
      "Ú©Ø§ÙĦØ§ÛĮ": 3906,
      "Ø§ÛĮØ²": 3907,
      "ĠÚ¯Ø²ÛĮÙĨÙĩ": 3908,
      "ĠØ¨Ø§Ø²Ú¯Ø±Ø¯": 3909,
      "Ø¯ÛĮØ³": 3910,
      "ÙħØ§Ø³Ùĩ": 3911,
      "ÙħØ¬ÙħØ¹": 3912,
      "ĠÙ¾ÚĺÙĪÙĩ": 3913,
      "ĠØ§Ø²Ø¯ÙĪ": 3914,
      "ĠØ¨Ø§Ø´Ú¯Ø§Ùĩ": 3915,
      "Ø¯Ø±Ø§ÙħØ¯ØŃØ§ØµÙĦ": 3916,
      "ĠÙħØ®Ø§ÙĦÙģ": 3917,
      "ĠØ´Ø¨ÛĮÙĩ": 3918,
      "ĠØ¨Ø±Ø§ÙĪØ±Ø¯Ùĩ": 3919,
      "ĠÚĨØ±": 3920,
      "ĠÚ©Ø´ÛĮ": 3921,
      "ĠØ³Ø±Ø§Øº": 3922,
      "ĠÙħØ·ÙĦÙĪØ¨": 3923,
      "ĠØ§Ø²Ø¯ÙĪØ§Ø¬": 3924,
      "ÙĪØ§ØŃ": 3925,
      "ĠØŃØ¬": 3926,
      "ĠØ¬Ø§ÙĦØ¨": 3927,
      "ĠÙħØ³ØªÙĤØ±": 3928,
      "ĠØ³Ø±ÙĪ": 3929,
      "ÙģØ±Ùħ": 3930,
      "ĠÙĤØ±Ø§Ø±Ø¯Ø§Ø¯ÛĮ": 3931,
      "ĠÙħØ¬Ø§ÙħØ¹": 3932,
      "ĠØ¬Ø¯ÛĮØ¯ØªØ±ÛĮÙĨ": 3933,
      "ĠÙħØ§Ø¬Ø±Ø§": 3934,
      "ut": 3935,
      "ÚĨÙĨØ¯": 3936,
      "ĠØ§ÙħØ¶Ø§ÛĮ": 3937,
      "ĠÙĩÙħØ§ÛĮØ´": 3938,
      "ĠØºÛĮØ±ÙħÙĨ": 3939,
      "ĠØ±Ø§ÙĩÚ©Ø§Ø±": 3940,
      "ĠØŃÙħØ§ÛĮØªÛĮ": 3941,
      "um": 3942,
      "ÙĤÙĪÙĩ": 3943,
      "ĠØ®ÙĪØ²Ø³ØªØ§ÙĨ": 3944,
      "ĠØ§Ø¹Ø·Ø§ÛĮ": 3945,
      "ĠÙħÛĮØ§ÙĨÙĩ": 3946,
      "ĠÙĦØ¨ÙĨ": 3947,
      "ĠÙĨØ¸ÛĮØ±": 3948,
      "ØµØ§Ø¯Ø±Ø§Øª": 3949,
      "us": 3950,
      "ĠÙħØ¹ÙĨØ§ÛĮ": 3951,
      "ĠÙĨÛĮØ³ØªÙĨØ¯": 3952,
      "Ġen": 3953,
      "ĠÚ©ÙĨÙģ": 3954,
      "ĠØ¯Ø³ØªÙħØ²Ø¯": 3955,
      "ĠØ±ÙĨÚ¯ÛĮ": 3956,
      "ĠØ¯ÙĪØ§Ø²": 3957,
      "ĠØ¨Ø§ÙĦÙĤÙĪÙĩ": 3958,
      "ĠÙ¾ÛĮÚ©Ø§ÙĨ": 3959,
      "ĠÚ©Ø§Ø±Ø´ÙĨØ§Ø³ÛĮ": 3960,
      "ĠÚĨØ±Ø®Ùĩ": 3961,
      "ĠØ¯Ø§ÙĪØ·ÙĦØ¨": 3962,
      "ĠÛĮÙħÙĨ": 3963,
      "ĠØ®ÛĮØ±": 3964,
      "ĠÙħØŃØª": 3965,
      "ĠÙĨÙĪØ¹ÛĮ": 3966,
      "ĠØµØ¯Ø±": 3967,
      "ĠØŃØ³ÙĨ": 3968,
      "ĠØªØ¨ØµØ±Ùĩ": 3969,
      "Ø³Ùģ": 3970,
      "ĠØ´Ø¹": 3971,
      "ØµØ§ÙĦ": 3972,
      "Ø¯Ø³Øª": 3973,
      "ĠÙĪÙĨÙĤÙĦ": 3974,
      "ÙĪÙħØ§ØªÛĮÚ©": 3975,
      "Ġabs": 3976,
      "ĠØ³ÙĨØ§Ø±ÛĮÙĪ": 3977,
      "ĠØ¨Ø§ØªÙĪÙħ": 3978,
      "ĠÙĩÙħØ³Ø§ÛĮÙĩ": 3979,
      "ĠÙħØº": 3980,
      "ÙħØ§Ùħ": 3981,
      "ĠØ´ÛĮÙĦ": 3982,
      "ĠØ§ÙĨÚ¯ÛĮØ²Ùĩ": 3983,
      "Ø®Ø¨Ø±": 3984,
      "Ø³ØªÚ¯Ø§ÙĨ": 3985,
      "Ø§Ø³Ùģ": 3986,
      "ĠÙħØ¬ÛĮØ¯": 3987,
      "ĠÙħØ¨Ø§Ø±Ø²Ùĩ": 3988,
      "ĠÙħØ§ÛĮ": 3989,
      "ĠØ´Ø¹Ø¨": 3990,
      "ĠÙģØ¶Ø§": 3991,
      "ÙħÛĮÙĦÛĮ": 3992,
      "ĠØ³Ø§Ø®ØªØ§Ø±": 3993,
      "ĠÙ¾Ú©ÙĨ": 3994,
      "ĠÚ¯ÚĨ": 3995,
      "ĠØ§ÙĪØ¶Ø§Ø¹": 3996,
      "Ø¸Ùħ": 3997,
      "ĠÙħØªØ¹ÙĩØ¯": 3998,
      "ĠØ³ÙĪØ²ÛĮ": 3999,
      "ĠÙħÛĮØ²Ø¨Ø§ÙĨ": 4000,
      "ĠØ²ÙħÛĮÙĨÛĮ": 4001,
      "ĠÚ©Ù¾Ø³ÙĪÙĦ": 4002,
      "Ø¨Ø§Ùģ": 4003,
      "ĠØ³Ø§Ø¯Ùĩ": 4004,
      "ØŃÙĤ": 4005,
      "ĠØ®ÙĪØ§Ø³ØªÙĩ": 4006,
      "ĠÙ¾Ø±ØªÙģÙĪÛĮ": 4007,
      "ØªØ³ÙĩÛĮÙĦØ§Øª": 4008,
      "ĠØªØŃØ±": 4009,
      "ĠÙħØ±Ø§Ú©": 4010,
      "ĠÙĩÙĦØ¯ÛĮÙĨÚ¯": 4011,
      "ra": 4012,
      "ÙĨÙħØ§Ø¯": 4013,
      "ØªØ¬ÙĩÛĮØ²Ø§Øª": 4014,
      "ĠØ³Ø¯ÛĮÙħ": 4015,
      "ØºÙĩ": 4016,
      "ĠÙĦØ¨ÙĨØ§ÙĨ": 4017,
      "ĠØºÙĨÛĮ": 4018,
      "ĠÙĨØ¸Ø§Ø±ØªÛĮ": 4019,
      "ĠØ§ØµÙĦØ§ØŃØ§Øª": 4020,
      "Ø¨Ø³ØªÙĩ": 4021,
      "ĠÙģØ¬Ø±": 4022,
      "ÙĨÙĪØ´": 4023,
      "ĠÙħØ±Ø¨ÙĪØ·Ùĩ": 4024,
      "oc": 4025,
      "Ø§ÙĨØªÛĮ": 4026,
      "ĠÙ¾ÙĪØ¯Ø±": 4027,
      "ÛĮÙħÛĮØ§": 4028,
      "Ø¹Ø¨Ø§Ø³": 4029,
      "ĠÚĨØºÙĨØ¯": 4030,
      "ĠØ®ÙĪØ§Ø³ØªØ§Ø±": 4031,
      "pg": 4032,
      "ĠØ¯Ø³": 4033,
      "Ú©Ø§ÙĦØ§ÙĩØ§ÛĮ": 4034,
      "ĠØ¯ÙĤØª": 4035,
      "ĠÚ©Ø±ÙĪ": 4036,
      "ĠÙħÙĨØ¹ÙĤ": 4037,
      "ĠÛĮÚ©Ù¾Ø§Ø±ÚĨÙĩ": 4038,
      "ĠÙĪØ§ÙĤØ¹ÛĮØª": 4039,
      "ĠØ³Ø¨Ø¯Ú¯Ø±Ø¯Ø§ÙĨ": 4040,
      "ÙĪÛĮÙħ": 4041,
      "ĠÙģÙĦØ³": 4042,
      "ĠÙĤØ§Ø±Ùĩ": 4043,
      "ÙħÛĮÙĤ": 4044,
      "ĠØ§Ø¨Ø²Ø§Ø±ÙĩØ§ÛĮ": 4045,
      "ÙĤØ±Ø§Ø±Ø¯Ø§Ø¯": 4046,
      "ĠÙĨÙĩØ§Ø¯Ùĩ": 4047,
      "ØªØ³Ø§Ø¨": 4048,
      "ĠØªØ±Ø§ÙĨ": 4049,
      "ĠÙħØµØ§Ø±Ùģ": 4050,
      "ĠØ¶Ø±ÙĪØ±Øª": 4051,
      "ĠÚ©Ø§Ø®": 4052,
      "ĠØ³Ø¹": 4053,
      "Ø¸Ùģ": 4054,
      "Ø§ÙĤØ³ØªØ§ÙĨ": 4055,
      "ĠÙ¾ÙĨØ¬Ùħ": 4056,
      "ĠÙħØªÙĨØ§Ø³Ø¨": 4057,
      "ĠØ³ÙĪÙĦÙģÙĪØ±": 4058,
      "ĠÙĪÛĮØª": 4059,
      "ĠØ§Ø³ØªØ«": 4060,
      "ĠÙħÙĨØŃ": 4061,
      "ĠØ¯Ø§Ø´ØªÙĨ": 4062,
      "ĠØ§ØŃØªØ³Ø§Ø¨": 4063,
      "ĠØºÛĮØ±ÙĤ": 4064,
      "ĠÙħØªØ¹Ø§Ø¯ÙĦ": 4065,
      "ĠÙģØ®ÙĪØ²": 4066,
      "ĠØ§ÙĨÚ©Ùĩ": 4067,
      "Ø·Ø±ÛĮ": 4068,
      "ĠØªÚ©ÙĨÛĮÚ©Ø§ÙĦ": 4069,
      "ĠÙĨØ±ÙĪÚĺ": 4070,
      "ĠØ¨Ø±ØªØ±": 4071,
      "ĠÙ¾Ø±ÙĪØ§ÙĨÙĩ": 4072,
      "ĠÙħØ«Ø¨ØªÛĮ": 4073,
      "ĠØªØ¹Ø¯Ø§Ø¯ÛĮ": 4074,
      "ĠØ¨ÙĨØ¯Ø±Ø¹Ø¨Ø§Ø³": 4075,
      "ĠØ§Ø´ØªØ¨Ø§Ùĩ": 4076,
      "Ø°ØºØ§ÙĦ": 4077,
      "Ø²ÛĮÚ©": 4078,
      "ĠÙĤØ¨ÙĪÙĦ": 4079,
      "ĠØŃÙĪØ«ÛĮ": 4080,
      "ĠÙ¾ØªØ±ÙĪØªØŃÙĦÛĮÙĦ": 4081,
      "ÙĨÙĤØ´Ùĩ": 4082,
      "ĠØºØ°Ø§": 4083,
      "ĠÙĨØ¨Ø§Ø´Ø¯": 4084,
      "ĠÙ¾Ø§ÛĮØ¨": 4085,
      "ĠÙħØ³ØªÙħØ±": 4086,
      "Ú¯ÛĮÙĦ": 4087,
      "Ø·Ø¨": 4088,
      "ÙģØ±Ø§ÙĪØ±Ø¯Ùĩ": 4089,
      "ĠØ§ÙĦÙĪÙħÛĮÙĨ": 4090,
      "ĠØ¯Ø±ØŃØ§ÙĦÛĮ": 4091,
      "ĠØ¨ÙĪØ³": 4092,
      "ĠÙģØ§Ø±": 4093,
      "ĠØŃØ¯ÛĮ": 4094,
      "ÙĪÙĦØ§": 4095,
      "ĠÙĤØ²Ø§ÙĤØ³ØªØ§ÙĨ": 4096,
      "ĠØ¯Ø§ÙĪØ·ÙĦØ¨Ø§ÙĨÙĩ": 4097,
      "ĠØ§ÙĦÛĮØ§": 4098,
      "ÙĪØ±Ú©": 4099,
      "ĠÙħØªØŃØ¯Ø§ÙĨ": 4100,
      "ĠÙ¾ÙĦØ§Ø³ØªÛĮÚ©ÛĮ": 4101,
      "ĠØ¹Ø¨Ø§Ø±Øª": 4102,
      "ĠØ§Ø±ØªØ´": 4103,
      "ĠØ±ÙĪØ³Øª": 4104,
      "Ù¾ÙĪØ´": 4105,
      "ĠÙħÙĪØ¸Ùģ": 4106,
      "ĠØ¨ØªÙĪØ§ÙĨÙĨØ¯": 4107,
      "ĠØ¹Ø²ÛĮ": 4108,
      "ĠÚ©Ø§Ø±Ú¯Ø±Ø§ÙĨ": 4109,
      "ÙĪØ¬Ùĩ": 4110,
      "ÙĦÛĮØ§ÙĨØ³": 4111,
      "ĠÙĤØ±Ø§Ø¶Ùĩ": 4112,
      "ĠØ¶Ø§ÛĮØ¹Ø§ØªÛĮ": 4113,
      "ĠØ±Ø§ÙĩÛĮ": 4114,
      "ĠØ¹ÙĦÙħÛĮ": 4115,
      "ĠÙĪØ§Ø¨Ø³ØªÚ¯ÛĮ": 4116,
      "ĠÙĨØµØ¨": 4117,
      "ĠØ³ÙĪØ¯Ø§": 4118,
      "ĠÙĨÙĤØ±Ùĩ": 4119,
      "Ú¯ÙĩÛĮ": 4120,
      "ĠØ®Ø¨Ø±ÙĨÚ¯Ø§Ø±Ø§ÙĨ": 4121,
      "ĠÚ©ÙĨÙģØ±Ø§ÙĨØ³": 4122,
      "Ø³Ø±Ø¨": 4123,
      "erg": 4124,
      "Ø§Ø¨ÛĮÙĨ": 4125,
      "ĠÙĦÛĮØ³Øª": 4126,
      "ĠØ§ÙĤØªØµØ§Ø¯ÙĩØ§ÛĮ": 4127,
      "ĠØ§ÛĮÙĨØ³Øª": 4128,
      "ĠÙģØ±Ø§ÙĪØ±ÛĮ": 4129,
      "ĠØªØ±Ø§ÙħÙ¾": 4130,
      "ĠÚ©ÙħÚ©ÛĮ": 4131,
      "ĠØ´ÙĨØ§ÙĪØ±": 4132,
      "Ø±ÛĮÙħÙĩ": 4133,
      "ĠÙħÚ©Ø²ÛĮÚ©": 4134,
      "ĠÙ¾Ø§Ø±Ø³Ø§ÙĦ": 4135,
      "ĠØŃØ§Ú©ÙħÛĮØª": 4136,
      "ĠØµÙģØŃÙĩ": 4137,
      "ĠØ¹Ø¶ÙĪÛĮØª": 4138,
      "ĠØ¨Ø±Ø®ÙĪØ±Ø¯Ø§Ø±": 4139,
      "ĠÙĪØ²Ø±Ø§ÛĮ": 4140,
      "Ø±Ø§Úĺ": 4141,
      "ĠØ®Ø§ÙĨÙĪØ§Ø¯Ùĩ": 4142,
      "ĠØ®Ø³Ø§Ù¾Ø§": 4143,
      "ĠÚ©Ø´ÙĪØ±ÛĮ": 4144,
      "ĠØ¨Ø±Ø®ÙĦØ§Ùģ": 4145,
      "ĠØ¯Ø±Ø®ØµÙĪØµ": 4146,
      "ĠÙĩÙĦÙĨØ¯": 4147,
      "ĠÙħØ±Ø¬Ø¹": 4148,
      "Ø´Ø¨": 4149,
      "Ø§ØªÙĪ": 4150,
      "ĠØ¬ÛĮØ¨": 4151,
      "ĠØ±ÙĤØ§Ø¨ØªÛĮ": 4152,
      "ĠÚ©Ø§ÙĨÙĪÙĨ": 4153,
      "ØµÙģÙĩØ§": 4154,
      "ĠÙĪØ§Øª": 4155,
      "ĠØºÛĮØ±ÙĨÙģØªÛĮ": 4156,
      "Ú©Ø§Ø±ÙħØ²Ø¯": 4157,
      "ĠØ´Ø®ØµÛĮ": 4158,
      "Ø¯Ø§": 4159,
      "ØªÙĪØ²": 4160,
      "ĠØ±Ø§Ø³": 4161,
      "Ø¬ÙĨÙĪ": 4162,
      "Ø§Ø¬Ø§Ø±Ùĩ": 4163,
      "ĠØ¶Ø¹Ùģ": 4164,
      "ĠØ¨Ø±Ø¯Ø§Ø´ØªÙĩ": 4165,
      "ĠØ§ÙģØ±Ø§Ø¯ÛĮ": 4166,
      "ĠØ®Ø¯ÙħØ§ØªÛĮ": 4167,
      "ĠÚ¯Ø´Ø§ÛĮØ´": 4168,
      "ĠÙĪØ¹Ø¯Ùĩ": 4169,
      "ion": 4170,
      "ĠØ¯Ø±Ú¯ÛĮØ±": 4171,
      "ĠØŃØ±": 4172,
      "ĠØ§ÙĨÙĤØ¨": 4173,
      "Ġas": 4174,
      "ÙĪØ§Ø±Ø¯": 4175,
      "ĠØ±ØµØ¯": 4176,
      "ĠØ´Ø§Ùĩ": 4177,
      "ĠØ±ÙĪÙĨÙħØ§ÛĮÛĮ": 4178,
      "ĠÙĨØ´Ø§ÙĨÛĮ": 4179,
      "ĠÙĤØ±Øµ": 4180,
      "Ø¨ÛĮØªØ±Ø§Úĺ": 4181,
      "ĠØ¨ÙĪØªØ§ÙĨ": 4182,
      "ĠØªØ²Ø±ÛĮÙĤÛĮ": 4183,
      "ĠÙģØ±Ø²ÙĨØ¯": 4184,
      "ÙĪØ§Ø¯": 4185,
      "ĠÙħÛĮØ¯": 4186,
      "ĠØ¨Ø±Ø´": 4187,
      "Ø§Ø®ÙĦÛĮ": 4188,
      "ĠØ§ÙĦÚ©ØªØ±ÛĮÚ©": 4189,
      "ĠØ¯ÛĮÙ¾ÙĦÙħØ§ØªÛĮÚ©": 4190,
      "ĠÙħÙĨØ¹ÙĤØ¯": 4191,
      "ĠØ¨Ø§Ø±ÙĩØ§": 4192,
      "ĠØ§Ø±Ø¨ÛĮØªØ±Ø§Úĺ": 4193,
      "ĠÙħÙĪØ«": 4194,
      "ĠÚĨØ´ÙħÚ¯ÛĮØ±": 4195,
      "ĠØªÙĦÙģÛĮÙĤ": 4196,
      "Ġy": 4197,
      "Ø±ØªÛĮ": 4198,
      "ĠØ±ÙĪØªØ±Ø¯Ø§Ùħ": 4199,
      "ĠØ§ÙĨØ¬Ø§": 4200,
      "ĠØ¶Ø±Ø±": 4201,
      "ĠÚ©ÚĨØ§Ø¯": 4202,
      "Ø¬Ø§ÙĦÙĩ": 4203,
      "Ø±ÙĪÙħ": 4204,
      "ĠÚ©Ø§ØªØ¯": 4205,
      "ĠØ§Ø¹ØªØ±Ø§Ø¶": 4206,
      "ĠÙģÙĦØ³Ø·": 4207,
      "Ú©ÙĪØ¯": 4208,
      "ĠØ¨Ø±ÙĨØ¯": 4209,
      "ĠØ¹Ø±Ø¶": 4210,
      "ĠÙħØ±Ø¨Ø¹": 4211,
      "ĠÙħÙĨØ§Ø³Ø¨ÛĮ": 4212,
      "ĠØ¨ÙĩØ§ÙĨÙĩ": 4213,
      "ĠÙħÛĮÚ©": 4214,
      "ĠØªÙĤØ·": 4215,
      "ĠÙĤØ§Ø¨": 4216,
      "Ø®ÛĮØµ": 4217,
      "Ø°Ø±Øª": 4218,
      "ĠØªØ®Ùħ": 4219,
      "ĠØ¨Ø§Ø¨": 4220,
      "ĠÚ©Ø§Ø´ÛĮ": 4221,
      "ĠÙĨØ§Ø¸": 4222,
      "Ø¹ÙĦÛĮ": 4223,
      "Ø§ÙĩÚ©": 4224,
      "ĠØ®Ø²Ø±": 4225,
      "Ø·Ø±ØŃ": 4226,
      "ĠØ±ÛĮØ®ØªÙĩ": 4227,
      "ĠØºÙĪÙĦ": 4228,
      "ĠØ§Ú¯ÙĩÛĮ": 4229,
      "Ø±Ú¯ÛĮØ±ÛĮ": 4230,
      "ĠØ³Ø±Ø±Ø³ÛĮØ¯": 4231,
      "Ġgl": 4232,
      "Ġex": 4233,
      "ĠØ´Ù¾ÙĨØ§": 4234,
      "ĠØ¹Ø§ÛĮØ¯ÛĮ": 4235,
      "ÙħØ§ÛĮØ¹": 4236,
      "Ú¯ÙĩØ±": 4237,
      "ĠØ±Ø¯ÛĮ": 4238,
      "ĠÙħØªÙģØ§ÙĪØªÛĮ": 4239,
      "ĠØ®ÙĪØ¯Ø±ÙĪÙĩØ§": 4240,
      "ĠÙĪØ±ÙĪØ¯ÛĮ": 4241,
      "ĠØ±Ø§Ø³ØªØ§": 4242,
      "Ø¯Ø±ÛĮÚĨÙĩ": 4243,
      "ĠØ¹Ø´ÙĤÛĮ": 4244,
      "ĠØ§ÛĮÙĨØ³ØªØ§Ú¯Ø±": 4245,
      "Ø§ØªØ¨": 4246,
      "ÙĪØ±ÛĮØª": 4247,
      "ĠÙħÙĨÚ¯": 4248,
      "ÙĪÛĮÙĪØ±Ú©": 4249,
      "fo": 4250,
      "ÙģÙĪØ±Ùħ": 4251,
      "ĠØ¨Ø§ØªÙĪØ¬Ùĩ": 4252,
      "ĠØ³ÙĨÙĪØ§Øª": 4253,
      "ĠØ¨ÛĮØ³Øª": 4254,
      "Ġpp": 4255,
      "ĠÚĨÙĩØ§Ø±ÙħÛĮÙĨ": 4256,
      "ĠØ§Ø¸ÙĩØ§Ø±Ø§Øª": 4257,
      "ĠÚ©Ø±ÛĮØ¯": 4258,
      "Ø®ÙĪ": 4259,
      "ĠØ¬ÙĪÛĮÛĮ": 4260,
      "ĠØ¬ÙĩØ§Ø¯": 4261,
      "ĠØ¯ÙĪØ¬Ø§ÙĨØ¨Ùĩ": 4262,
      "Ú©Ø§Ø´ÛĮ": 4263,
      "ĠØ§ÙĨØªÙĩØ§ÛĮ": 4264,
      "Ø¯Ø§ÙħÛĮ": 4265,
      "Ù¾Ø§ÙĦ": 4266,
      "ĠÙħØ·ÙħÛĮÙĨ": 4267,
      "ĠØ¨Ø¯ÙĩØ¯": 4268,
      "ĠÙħØ§ÙĦÚ©ÛĮØª": 4269,
      "ÙģØ¬Ø±": 4270,
      "ĠØ§ÙģØ²Ø§Ø±": 4271,
      "ĠØ§ÙĦØ§ÙĨ": 4272,
      "ĠØ³Ø§ÙħØ§ÙĨØ¯ÙĩÛĮ": 4273,
      "ĠÙħÙĨÚ¯ÙĨØ²": 4274,
      "ĠÙĪØ±ÛĮ": 4275,
      "ĠØ§ÛĮØ´Ø§ÙĨ": 4276,
      "Ø§ÙĦÛĮØ¨Ø§Ùģ": 4277,
      "ĠØ±Ø§ÛĮØ²ÙĨÛĮ": 4278,
      "Ú¯ÙĪÛĮØ§": 4279,
      "ah": 4280,
      "ĠØªÙħØ§Ø³": 4281,
      "Ġeia": 4282,
      "ĠØ§ØŃØ³Ø§Ø³Ø§Øª": 4283,
      "ĠÙħØªØ§Ø³Ùģ": 4284,
      "ĠØ§ÙĨØ¨Ø§Ø±ÙĩØ§ÛĮ": 4285,
      "ĠØ³Ø§ÙĦÛĮØ§ÙĨÙĩ": 4286,
      "Ø¯Ø³": 4287,
      "ĠÛĮÙĪÙĨ": 4288,
      "ÙĪÙĦÛĮØ³": 4289,
      "Ġfor": 4290,
      "ĠØ§ØŃÛĮØ§": 4291,
      "ĠÙ¾Ø´ØªÛĮØ¨Ø§ÙĨÛĮ": 4292,
      "Ø§ÙĨÚ¯": 4293,
      "ĠØ¯Ø±Ø´Øª": 4294,
      "Ø§ÙħØ±ÛĮÚ©": 4295,
      "ĠØ®Ø±Ø¯Ùĩ": 4296,
      "ĠØ³Ø±Ù¾Ø±": 4297,
      "Ú©Ø±ÙħØ§ÙĨ": 4298,
      "ĠÚ©Ø±ÛĮØ¯ÙĪØ±": 4299,
      "ĠÙħØªØµ": 4300,
      "ĠÙĪØ¯Ø±": 4301,
      "ĠØ§Ø±ØªØ¨Ø§Ø·ÛĮ": 4302,
      "ĠÚ©Ø±Ø§Ú©": 4303,
      "ĠØ§ÙĦÚ©ØªØ±ÛĮÚ©ÛĮ": 4304,
      "os": 4305,
      "ow": 4306,
      "ĠØ¹Ø±ØµÙĩ": 4307,
      "ĠÚ©ÛĮØ´": 4308,
      "ĠÙĨÛĮÙħÛĮ": 4309,
      "ĠØ³ÙģØªÙĩ": 4310,
      "ĠØŃØªÙħØ§": 4311,
      "ĠØ¯Ø§Ø±Ø§": 4312,
      "ĠØ¹ÙħÙĪÙħ": 4313,
      "ĠØ§ÙģØªØ§Ø¯": 4314,
      "ĠÚ¯ÙħØ±Ú©ÛĮ": 4315,
      "ĠØ¨Ø§Ø²ÙĨØ´Ø³ØªÚ¯ÛĮ": 4316,
      "ĠØ¸Ø§ÙĩØ±": 4317,
      "ĠØ¨Ø°Ø±ÛĮ": 4318,
      "ĠØ³Ø±ÙĪÛĮØ³": 4319,
      "ĠØ¨Ø§Øº": 4320,
      "ĠÛĮÚ©Ø³Ø§ÙĦ": 4321,
      "ĠÚ©Ø§Ø±Ú¯": 4322,
      "ĠÙĨÛĮÙħØ§ÛĮÛĮ": 4323,
      "ĠØŃØ³Ø§Ø³": 4324,
      "Ø§Ø³ÛĮÙĪÙĨ": 4325,
      "ĠÙĪØ¨ÙħÙĦØª": 4326,
      "Ø¯Ø§Ø®ÙĦÛĮ": 4327,
      "ĠÙħÛĮÙĦÛĮÙĪÙĨÛĮ": 4328,
      "ĠØ¯Ø§Ø¯ÛĮÙħ": 4329,
      "ĠØ¨ÙĨØ§": 4330,
      "ĠÙħØ¨ÛĮÙĨ": 4331,
      "Ø®Ø¨": 4332,
      "ĠØªÚ©ÙĨ": 4333,
      "ĠØ¶ÙħØ§ÙĨ": 4334,
      "ĠØªÙĩØ§Ø¬": 4335,
      "Ġpr": 4336,
      "ĠØ´Ú©Ø±Ø®Ø§Ùħ": 4337,
      "ÙĤØ±Øµ": 4338,
      "ĠØ²ÙĨØ¯Ø§ÙĨÛĮ": 4339,
      "ĠØ§Ú©ØªØ´Ø§Ùģ": 4340,
      "ĠØ´Ø¹Ø¨Ùĩ": 4341,
      "ØµÙĨØ¯ÙĪÙĤ": 4342,
      "ĠÙĨÛĮÙĪÛĮÙĪØ±Ú©": 4343,
      "ĠÙĩØ±ÚĨÙĨØ¯": 4344,
      "me": 4345,
      "ĠØ¨Ø±ÙħÛĮ": 4346,
      "ĠÙģØ±Ø¶": 4347,
      "ĠÙħØ±Ø¯ÙħÛĮ": 4348,
      "ĠÚ¯Ø§ÙĦÙĨ": 4349,
      "ĠØªØ®Øª": 4350,
      "ÚĨØº": 4351,
      "ĠØ¨Ø§Ø²Ø¯Ùĩ": 4352,
      "ĠØ§ÙģØºØ§ÙĨ": 4353,
      "ĠØ§Ø¹ÙĦØ§ÙħÛĮ": 4354,
      "ĠØ¨ÙĪØ±ÙĦ": 4355,
      "ĠÙħØ¸Ø±ÙĪÙģ": 4356,
      "ĠØ¨ÙĩÛĮÙĨÙĩ": 4357,
      "ĠØ¬Ø§ÙħØ¹": 4358,
      "ĠÚ©Ø§Ø±ØªØ®ÙĪØ§ÙĨ": 4359,
      "ĠÙħÙĤØ·Ø¹": 4360,
      "ØªÙĪØ²Ø§ÛĮÙĦÛĮÙĨ": 4361,
      "ĠÙĤØ§Ø¨ÙĦÛĮØª": 4362,
      "ĠØ§ÛĮØ²": 4363,
      "ĠØ¨Ø±ØªØ±ÛĮ": 4364,
      "ÙĪÙĨØ²": 4365,
      "ÙħÛĮÙĪÙĩ": 4366,
      "Ø¨Ø±ÙĤ": 4367,
      "ĠØ¨ÙĦÙĪÚ©Ùĩ": 4368,
      "ĠØ¨Ú©": 4369,
      "ĠØ¯Ø±ÙĩÙħ": 4370,
      "ĠÙħØ§ÙĩÙĨÚ¯": 4371,
      "ĠØ´ÙĩØ±Ø¯": 4372,
      "ĠØ¨Ø±Ú¯Ø´ØªÛĮ": 4373,
      "Ġoil": 4374,
      "ĠÙ¾ÚĺÙĪÙĩØ´": 4375,
      "ĠÙĪØ¯ÛĮ": 4376,
      "Ú¯ÙĨØ¯": 4377,
      "ĠÙħÛĮØ§Ø¯ÛĮÙĨ": 4378,
      "Ø§ÙĨØ¯ÙĨ": 4379,
      "ĠÚ©ÙĦØ²Ø§": 4380,
      "Ø§Ø·ÛĮ": 4381,
      "ĠÙħØŃØ¯ÙĪØ¯ÛĮ": 4382,
      "ĠØ§Ø¨ÙĦØ§ØºÛĮÙĩ": 4383,
      "ĠØ§ÙģØ´Ø§": 4384,
      "Ø¨Ø§Ø²ÛĮ": 4385,
      "ØªÛĮÛĮÙĨ": 4386,
      "Ø§ÙĤØªØµ": 4387,
      "ĠØ§ØªÙħØ§Ùħ": 4388,
      "Ġcr": 4389,
      "pc": 4390,
      "ĠØ§ÙĪØ±Ø§ÙĨÛĮ": 4391,
      "ĠÚ©Ø´ÙĪØ±ÙĩØ§ÛĮÛĮ": 4392,
      "ĠÙħØ±Ø§ØªØ¨": 4393,
      "ĠÚ©Ø§ÙĨØªÛĮÙĨ": 4394,
      "ĠÙĨØ§ÙĪÚ¯Ø§ÙĨ": 4395,
      "ĠÙħØªØ§Ø³ÙģØ§ÙĨÙĩ": 4396,
      "ĠÙ¾Ø§ÙĨ": 4397,
      "Ø¬Ø²ÛĮÛĮØ§Øª": 4398,
      "ĠØªØ±Ø´": 4399,
      "ĠØªØ±ÙģØª": 4400,
      "Ø§Ù¾ÛĮÙħ": 4401,
      "ĠÚ¯ÙĪØ¬Ùĩ": 4402,
      "ĠØªÙĦÙģÙĨ": 4403,
      "ĠÙħØ®ÙĦÙĪØ·": 4404,
      "ÙħÙ¾ÙĨØ§": 4405,
      "ĠØ±Ø¶": 4406,
      "ĠØ²ÙĨÚ¯": 4407,
      "Ø¯ÛĮÚ¯Ø±": 4408,
      "ĠØ§ÙģØªØ§Ø¯Ùĩ": 4409,
      "ĠÙĪØ²Ø§Ø±ØªØ®Ø§ÙĨÙĩ": 4410,
      "ĠØ¹ÙħÙĦØ§": 4411,
      "ĠÙĤÙĦÙħ": 4412,
      "ØµÛĮÙĩ": 4413,
      "Ø·Ùģ": 4414,
      "Ø§ØŃÛĮÙĩ": 4415,
      "ØªØ¬Ø§Ø±Øª": 4416,
      "ØªØ®Øª": 4417,
      "ØºÙĨÛĮ": 4418,
      "ĠØ±Ø³ÛĮØ¯Ú¯ÛĮ": 4419,
      "ĠÙĩÛĮØ¬Ø§ÙĨ": 4420,
      "ĠØ³Ù¾ÛĮØ¯": 4421,
      "ĠØ¯ÙĪØ±Ø§ÙĨ": 4422,
      "ĠÚ©Ø³Ø±": 4423,
      "ØªÙĤØ§Ø¯": 4424,
      "ĠÙģØ±Ø¯Ø§ÛĮ": 4425,
      "ĠØªØ±Ø¯ÛĮØ¯": 4426,
      "tf": 4427,
      "ĠÙĨØ§Ø±": 4428,
      "ĠØ¬Ø§": 4429,
      "ĠÙħØªÙħØ±Ú©Ø²": 4430,
      "ÙĤÛĮÙĩ": 4431,
      "ĠÙħØ³ÙĦØŃ": 4432,
      "ĠØ³ÙĪÛĮØ²": 4433,
      "ĠÙ¾Ø±Ø³Ù¾": 4434,
      "ĠØªØ§ÛĮÙħØ²": 4435,
      "ĠØ¬Ø§ÙħØ¨ÙĪØ¨Ú¯": 4436,
      "ĠØªØ´Ø®ÛĮØµ": 4437,
      "ĠØ¨Ø¯ÛĮÙĩÛĮ": 4438,
      "ĠØªÙĤØ·ÛĮØ±": 4439,
      "ĠØ§ÙĪØ±Ø§ÙĨÛĮÙĪÙħ": 4440,
      "Ø¯Ø´Øª": 4441,
      "ÙĪØ³ÛĮ": 4442,
      "ĠØ§ÙĨÙĦØ§ÛĮÙĨ": 4443,
      "ØªÙĩØ±Ø§ÙĨ": 4444,
      "ĠÚ©Ø±Ø¯Ø³ØªØ§ÙĨ": 4445,
      "ĠØ§Ø¹Ø¯Ø§Ø¯": 4446,
      "Ø¯ÙħÙĨ": 4447,
      "ĠÙĨØ¯Ø§Ø¯Ùĩ": 4448,
      "ĠØ§Ú©Ø³ÛĮØ¯": 4449,
      "Ø§ØºÙĦ": 4450,
      "Ġice": 4451,
      "ØªÙĪØ±Ùħ": 4452,
      "ĠØ´Ú©Ø³ØªÙĩ": 4453,
      "ĠØ§Ø®ØªÙĦØ§ÙĦØ§Øª": 4454,
      "ÙģØ¬": 4455,
      "ĠØ²ÙĨÛĮ": 4456,
      "ÙħØªØ§ÙĨÙĪÙĦ": 4457,
      "Ù¾Ø±ÙĪÙħ": 4458,
      "ĠØ®ÙĨØ«ÛĮ": 4459,
      "ĠØªØŃÙĤÛĮÙĤØ§Øª": 4460,
      "ĠÚ¯Ø±ÙĪØ³ÛĮ": 4461,
      "ab": 4462,
      "ÙĨØ§ÛĮÛĮ": 4463,
      "ĠØªØ§ÛĮÙĦ": 4464,
      "ĠÙĪØ§Ø±": 4465,
      "Ø¨ÙĪØª": 4466,
      "ĠØ§Ø±Ø§ÛĮ": 4467,
      "ĠØµØ§ÙĦØŃ": 4468,
      "ĠÚ©ÙĨÚ¯": 4469,
      "ĠØ§ÙĪØ±Ø§ÙĦ": 4470,
      "ĠÙĪØ§ÙĤØ¹Ø§": 4471,
      "ĠÙĨÚ¯Ø§ÙĩÛĮ": 4472,
      "ĠØ¨Ú¯Ø°Ø§Ø±Ø¯": 4473,
      "ĠÙ¾Ø±Ø³Ù¾ÙĪÙĦÛĮØ³": 4474,
      "Ø§ÛĮÙĤ": 4475,
      "Ø³Ø§ÙĦÛĮ": 4476,
      "ĠÙĪØ«": 4477,
      "Ø²Ø¨": 4478,
      "Ø§Ø¯ÛĮØ±": 4479,
      "ÚĨØ±Ø®": 4480,
      "ĠØ±ÙĪØ§ÙĨÛĮ": 4481,
      "ĠØ¯ÙĩÛĮ": 4482,
      "ĠÙĨÚ©ÙĨØ¯": 4483,
      "ĠØ³Ø§ÛĮÙĩ": 4484,
      "ÙģÛĮÙĦ": 4485,
      "ĠØ³ØªØ§Ø±Ùĩ": 4486,
      "Ø³ÙĪÙĨ": 4487,
      "ĠØµÙĦØŃ": 4488,
      "ØªÙĩØ§Ø¨": 4489,
      "Ú©ÙĨÙĨØ¯Ùĩ": 4490,
      "Ø§Ø«Ø±": 4491,
      "ĠÙĩÛĮØ¯Ø±ÙĪÚ©Ø±Ø¨": 4492,
      "ĠÙĨÙģ": 4493,
      "ĠØ³ÙĦØ§ØŃ": 4494,
      "Ø³ÛĮØ³": 4495,
      "ĠØ±ÛĮØ²": 4496,
      "Ø§ÙģØ±ÛĮÙĨ": 4497,
      "ĠØ²Ø¨Ø§ÙĨ": 4498,
      "ĠØªØ¹Ø±ÛĮÙģ": 4499,
      "ĠÙħÙĤØ§Ø·Ø¹": 4500,
      "Ú©ÛĮÚ©": 4501,
      "ĠÙħØ«Ø§ÙĦ": 4502,
      "ĠØ®ÙĪØ´Ø¨": 4503,
      "ĠØ¯Ø´ÙĪØ§Ø±": 4504,
      "ĠÙĪØ§ÙĨØª": 4505,
      "ĠÚ¯ÙĩØ±": 4506,
      "ĠÚ¯Ø§Ø²Ù¾Ø±ÙĪÙħ": 4507,
      "ĠØ§Ø¨Ø±Ø§Ùĩ": 4508,
      "Ġfdy": 4509,
      "ĠÚ©ÛĮÙĦÙĪÙħ": 4510,
      "ĠØ§Ø³ØªØ§ÙĨØ¯Ø§Ø±": 4511,
      "ĠØ´Øº": 4512,
      "Ø°Ø®": 4513,
      "ĠØ³ÙĪÛĮÛĮØ³": 4514,
      "ĠØ®Ø³Ø§Ø±Øª": 4515,
      "ĠØ¨ØªÙĪØ§ÙĨÛĮÙħ": 4516,
      "ĠØ¯Ø¹ÙĪØª": 4517,
      "ĠÚ©Ø§Ø±Ú¯Ø²Ø§Ø±": 4518,
      "ĠÙĪÚ©Ø§Ø±": 4519,
      "ÙĪØ¯Ú¯ÛĮ": 4520,
      "ĠØ§Ø³ØªØ±ÛĮØª": 4521,
      "ĠØ¬ÙĪØ§ÙĨ": 4522,
      "Ù¾ÙĪÙĦ": 4523,
      "ĠÙħØ±Ø§ØŃÙĦ": 4524,
      "ØªÙħÙĨØ¯": 4525,
      "Ø§Ø·ÙĦØ§Ø¹": 4526,
      "ĠØ¯ÙĤÛĮÙĤØ§": 4527,
      "Ø³Ø®": 4528,
      "Ø²Ø§ÛĮÛĮ": 4529,
      "Ø§ÙħÛĮØ±": 4530,
      "ĠØ§Ø²Ø®Ø¯ÙħØ§Øª": 4531,
      "ĠØºÛĮØ±Ùħ": 4532,
      "ĠØ¨Ø²ÙĨØ¯": 4533,
      "ĠØªØµØ±ÛĮØŃ": 4534,
      "ÙĪØ´ÙĩØ±": 4535,
      "ĠØ´ÙĪÛĮÙħ": 4536,
      "Ø±Ø³Ø§ÙĨÛĮ": 4537,
      "ĠØªØ¯ÙĪÛĮÙĨ": 4538,
      "Ø²Ø´Ú©ÛĮ": 4539,
      "Ø³Ø§ÛĮØ±Ùħ": 4540,
      "ĠØ¯Ø®Ø§ÙĦØª": 4541,
      "ĠØ´ÙĩØ±Ø¯Ø§Ø±ÛĮ": 4542,
      "ĠÙĪØ§Ú©Ø³": 4543,
      "Ú¯Ø§Ø±": 4544,
      "ĠØ±ØŃ": 4545,
      "ÙĪØ¯Ùĩ": 4546,
      "Ø¹ÙĦ": 4547,
      "ĠØ®ÙħÛĮÙĨÛĮ": 4548,
      "Ġsp": 4549,
      "ĠØ¨Ø§ÙĤØ±ÛĮ": 4550,
      "ĠØ®ÙĪØ±Ø§Ú©ÛĮ": 4551,
      "ĠÙħØ³ÛĮÙĪÙĦØ§ÙĨ": 4552,
      "Ø¹Ùħ": 4553,
      "ÙĤÙĨØ¯": 4554,
      "ĠØ§Ø³ÙĤ": 4555,
      "ĠØªÙĪÙĨÙĦ": 4556,
      "ĠØªÙĪØµÛĮÙĩ": 4557,
      "ĠØ¹ØµØ±": 4558,
      "Ø§ØµÙĩ": 4559,
      "ĠØ´ÛĮÙĪÙĩ": 4560,
      "ĠØ¨Ø¨ÛĮÙĨÛĮØ¯": 4561,
      "ĠØ§ÙģØºØ§ÙĨØ³ØªØ§ÙĨ": 4562,
      "Ø´Ø§Ùĩ": 4563,
      "ĠØ±Ø§Ø¯ÛĮ": 4564,
      "Ø¨Ø²": 4565,
      "ĠØ¨ÙĩØ¯Ø§Ø´ØªÛĮ": 4566,
      "ĠÙħÛĮÙĨÛĮ": 4567,
      "ĠØ§ÙģØ±ÛĮÙĨ": 4568,
      "ÛĮØ¯ÙĨ": 4569,
      "ØºØ±Ø¨": 4570,
      "ĠØ¯ÙĩÙħ": 4571,
      "ĠØ³Ø±Ø¨Ø§Ø±Ùĩ": 4572,
      "ĠÙĨØ²Ø¯ÛĮÚ©ÛĮ": 4573,
      "ÙĨØ§ÙĦ": 4574,
      "ĠÙħÙĦØ§ØŃ": 4575,
      "ĠÙĨØ±": 4576,
      "ĠØ±ÙĪØŃ": 4577,
      "ĠÙħÙĨÛĮØ²": 4578,
      "ĠØ¯Ø±Ø§ÙħØ¯ÛĮ": 4579,
      "ĠÙĨÙħÙĪØ¯ÙĨØ¯": 4580,
      "ĠÙĩÙĨØ¯ÛĮ": 4581,
      "ĠÚ©ÙĪÛĮÙĨ": 4582,
      "ĠØ¯Ø§ÛĮ": 4583,
      "ĠØ³ÛĮÙĨØ§": 4584,
      "ĠÚ¯Ø§ÙĨÙĩ": 4585,
      "ĠØ§Ø±ÛĮØ§": 4586,
      "ĠØ§ÛĮØ±Ø§ÙĨÛĮØ§ÙĨ": 4587,
      "ĠØ§ÙĦØªÙĩØ§Ø¨": 4588,
      "ĠÙĨÙħØ§ÛĮØ´Ú¯Ø§Ùĩ": 4589,
      "ĠØ±Ø§ÛĮÚ¯Ø§ÙĨ": 4590,
      "ĠÙħØ®ØªÙĦÙģÛĮ": 4591,
      "ac": 4592,
      "ĠØ¨ÙģØ±ÙĪØ´": 4593,
      "Ø§Ø¯Øª": 4594,
      "Ġat": 4595,
      "ĠÙģØ³Ø§Ø¯": 4596,
      "ĠØ¬Ø§ÙĨØ¨Ùĩ": 4597,
      "Ġand": 4598,
      "ĠØ±Ø§Ú©Ø¯": 4599,
      "Ø§ÙĦÙĪÙħ": 4600,
      "ĠØ§ÙģÙĤ": 4601,
      "ĠØ§ÙĤØ¯Ø§ÙħØ§ØªÛĮ": 4602,
      "ĠØ¯Ø§ÙĨÛĮÙħ": 4603,
      "ĠØ·Ø±ÙģÛĮÙĨ": 4604,
      "ĠØªØ±Ø§ÙĨØ²ÛĮØª": 4605,
      "ĠØ¹Ùĩ": 4606,
      "ĠØ§Ú©Ø³ÛĮ": 4607,
      "ĠØ¨Ø¹ÛĮØ¯": 4608,
      "ĠØ¹ÙĦÙĨÛĮ": 4609,
      "ĠÙĩØ±ÙħØ²Ú¯Ø§ÙĨ": 4610,
      "Ġz": 4611,
      "ÙĩÛĮØ¯Ø±ÙĪ": 4612,
      "Ø´Ø¯Ùĩ": 4613,
      "ĠØªØ§ÛĮØ±": 4614,
      "ĠØµØ¨Ø§": 4615,
      "ĠÙģØ±ÙĨÚ¯ÛĮ": 4616,
      "ĠØªØ³Ø±ÛĮØ¹": 4617,
      "ĠØ§ÛĮÙħÙĨÛĮ": 4618,
      "ĠØ´Ø¹Ø§Ø±": 4619,
      "pl": 4620,
      "se": 4621,
      "ØªÚ©": 4622,
      "Ø¨ÙĪØ±Ø¯": 4623,
      "Ø±ÙĪÚĺÙĨ": 4624,
      "ÙĦÙĪØ§Ø²Ùħ": 4625,
      "Ġargu": 4626,
      "ĠØ§ÙħÙĪØ²Ø´": 4627,
      "ot": 4628,
      "ĠØ¯ÛĮÙĨ": 4629,
      "ĠÙĤØ§Ø¯Ø±": 4630,
      "ÙģØ±Ø§": 4631,
      "ĠØªØµÙĪØ±": 4632,
      "ĠØ±ÙĤÙħÛĮ": 4633,
      "ĠØ¨Ø¹ÙĨÙĪØ§ÙĨ": 4634,
      "ĠØ®Ø·ÛĮ": 4635,
      "Ú©ÙħÚ©": 4636,
      "Ġargus": 4637,
      "ÙħØ§Ø¯": 4638,
      "ĠÙĨØµÙģ": 4639,
      "ĠØ§ÙĨÙģØ¬": 4640,
      "ĠØ§Ø±Ø¨Ø¹": 4641,
      "ĠØ¯ÙĩÚ©": 4642,
      "ĠÙģØ´Ø±Ø¯Ùĩ": 4643,
      "ĠØ§Ø±Ø¨Ø¹ÛĮÙĨ": 4644,
      "ĠØ¨Ø§Ø±ÛĮ": 4645,
      "ĠÙĨÙĪØ±Ø¯": 4646,
      "Ø§Ø¨Ø§Ø¯": 4647,
      "ĠØ§ÙĪØ§ÛĮ": 4648,
      "ĠØµÙĨÙģÛĮ": 4649,
      "Ø§Ø¨Ø¯Ø§Ø±": 4650,
      "ĠÙĪØ®": 4651,
      "ĠÙ¾Ø²Ø´Ú©ÛĮ": 4652,
      "ÙĨÛĮÚ©": 4653,
      "ĠÙħØ±Ø§Ø³Ùħ": 4654,
      "Ú©ÙĪÛĮØª": 4655,
      "ĠÙħØªØ¹Ø¯Ø¯": 4656,
      "Ú¯ÙĦØ³ØªØ§ÙĨ": 4657,
      "ĠØ§ÛĮØ³ØªØ§Ø¯": 4658,
      "ĠØ¨Ø·ÙĪØ±": 4659,
      "ĠÙĦÛĮØ¨ÛĮ": 4660,
      "Ø¬ÙĩØ§ÙĨ": 4661,
      "ĠÚ¯Ø§ÙĦÙĪØ§ÙĨÛĮ": 4662,
      "ĠÚ¯Ø§ÙĦÙĪØ§ÙĨÛĮØ²Ùĩ": 4663,
      "Ù¾Ø§Ø³": 4664,
      "Ø§ÙĤÛĮ": 4665,
      "ÙĨÚ¯Ø±ÛĮ": 4666,
      "ĠØ¶Ø±Ø¨Ùĩ": 4667,
      "Ø³Ù¾Ø§": 4668,
      "obal": 4669,
      "ĠØ¬Ø§ÛĮÚ¯Ø²ÛĮÙĨÛĮ": 4670,
      "ĠØ¹ÙĩØ¯Ùĩ": 4671,
      "ĠØ¨ÙĤÛĮÙĩ": 4672,
      "ĠÙĤÙĪØ·ÛĮ": 4673,
      "ĠØªÙĪÙĤÛĮ": 4674,
      "ĠØ§Ø±ØªÙģ": 4675,
      "ĠØ§ÙĪÙĨØ³": 4676,
      "ĠØ´Ø±Ú©ØªÛĮ": 4677,
      "ĠÙħØ¯Ø§Ø®": 4678,
      "ĠØ§Ø¹ØªÙĤØ§Ø¯": 4679,
      "ĠØ®ÙĪØ¯Ø±ÙĪØ³Ø§Ø²ÛĮ": 4680,
      "ĠØªØ¬Ø§Ø±": 4681,
      "ĠØ®ÙĪØ±Ø¯Ùĩ": 4682,
      "Ù¾Ø±Ø¯ÛĮØ³": 4683,
      "ĠÛĮØ¯Ú©ÛĮ": 4684,
      "ĠØ´Ø§ÛĮ": 4685,
      "ÙĦÛĮÙĪÙħ": 4686,
      "ĠØ§ÙĨÚ¯ÙĦØ³ØªØ§ÙĨ": 4687,
      "ĠØ±ÛĮØ§Ø¶": 4688,
      "ĠÙħØ¹ÛĮØ´": 4689,
      "Ø§Ø¬ÛĮ": 4690,
      "ĠÙ¾ØªØ§ÙĨ": 4691,
      "ĠÙ¾ÙĦÛĮÙħØ±": 4692,
      "Ø±Ø³Ø§Ø²ÛĮ": 4693,
      "Ø³Ú©ÙĪÙĨÛĮ": 4694,
      "ĠØ³ÙĦØ§ÙħØª": 4695,
      "ĠØ§Ø±ØªÙģØ§Ø¹": 4696,
      "ÙĪØ¨ÛĮ": 4697,
      "Ø¬ÙĦ": 4698,
      "ĠØ·ÙĪÙģ": 4699,
      "ĠØ®ÙĪØ¯Ø±ÙĪØ³Ø§Ø²": 4700,
      "ĠÙħÙĪØ¶Ø¹": 4701,
      "ĠØªØ±Ú©ÙħÙĨØ³ØªØ§ÙĨ": 4702,
      "ĠØµØ±Ø§Ùģ": 4703,
      "ĠØ§Ø¯Ø¹Ø§": 4704,
      "ÙĪØ³ØªÙĩ": 4705,
      "ĠØ´Ø³ØªØ§": 4706,
      "ØµØ±Ùģ": 4707,
      "ĠÙħØ´Ú©ÙĦÛĮ": 4708,
      "ĠØ°ÛĮÙĦ": 4709,
      "ĠØ§ÙģØªØ§Ø¨": 4710,
      "ÙĨØ´Ø§ÙĨ": 4711,
      "ĠØµØ§ØŃØ¨Ø§ÙĨ": 4712,
      "Ø§ÙħØ±ÛĮÚ©Ø§": 4713,
      "ĠØ¨Ø§Ø¯ÛĮ": 4714,
      "ĠØ®ÙĦØ§Ùģ": 4715,
      "ĠØ¹ÛĮØ¯": 4716,
      "Ġon": 4717,
      "ĠØ³Ø§Ø®ØªÙħØ§ÙĨÛĮ": 4718,
      "ĠÙģØ±ÙħÙĩØ§ÛĮ": 4719,
      "ÛĮÙģÙĩ": 4720,
      "ÙħØ³Ú©ÙĪÙĨÛĮ": 4721,
      "Ø´ÙĪ": 4722,
      "ĠÙĪÙħØ¹": 4723,
      "Ø¨Ø§ÙĨÛĮ": 4724,
      "ĠØ³Ø±Ùħ": 4725,
      "Ø¬Ø§ÛĮ": 4726,
      "ĠØ¬Ø§ÙħØ¯": 4727,
      "ÙĪÛĮØ§": 4728,
      "ĠÙ¾Ø±ÙĪØ§Ø²": 4729,
      "Ø¨Ø§Ø±ÙĩØ§": 4730,
      "ĠØ§ØªÙģØ§ÙĤÛĮ": 4731,
      "Ú©Ø§Ø¨ÙĦÙĩØ§ÛĮ": 4732,
      "ĠØ³Ø±Ù¾Ø±Ø³Øª": 4733,
      "Ú©ÛĮØ´": 4734,
      "ĠØ§ÛĮØ³ÛĮØ³": 4735,
      "ĠÙģØ¨": 4736,
      "ĠØ¨Ø§Ø²Ø±Ø³ÛĮ": 4737,
      "ĠÙħØŃÚ©": 4738,
      "Ø¸Ø±Ùĩ": 4739,
      "ĠÙĩÙĪØ§Ù¾ÛĮÙħ": 4740,
      "ĠÚ¯Ø±ÛĮØ¯ÙĩØ§ÛĮ": 4741,
      "ĠØ§ÙĦØ²Ø§ÙħØ§Øª": 4742,
      "Ġglobal": 4743,
      "mc": 4744,
      "ĠÚ©Ú¯ÙĦ": 4745,
      "ĠÙĨØ±Ø³ÛĮ": 4746,
      "ĠÙģØ±ÛĮ": 4747,
      "ĠØ¬Ø±ÛĮÙħÙĩ": 4748,
      "ĠÙĩØ±ÚĨÙĩ": 4749,
      "ĠÛĮØ§ÙģØªÙĨØ¯": 4750,
      "ĠØ¬ÙĦÙĪÛĮ": 4751,
      "ĠØ¨Ú¯ÛĮØ±ÙĨØ¯": 4752,
      "ÙĪØ¬": 4753,
      "ĠØ¨Ùħ": 4754,
      "ĠÙħØ²ÛĮØª": 4755,
      "Ø§Ø´Ø§": 4756,
      "ĠØ§ØªÚ©": 4757,
      "Ġpg": 4758,
      "ĠØ¯ÙħØ§ÙĪÙĨØ¯": 4759,
      "ĠØ§Ø±ØªÙĤØ§ÛĮ": 4760,
      "ĠÙ¾ØªØ§ÙĨØ³ÛĮÙĦ": 4761,
      "ĠØ¯Ø±Ø³ØªÛĮ": 4762,
      "ÙĪØ¯Ø±ÛĮ": 4763,
      "ÚĨØ´Ùħ": 4764,
      "ĠØ§ÙĪÛĮÙĦ": 4765,
      "ĠØ³Ø§Ø²Ø§ÙĨ": 4766,
      "Ø§Ø¯Ø«Ùĩ": 4767,
      "ĠØŃØ±Ø§Ø±ØªÛĮ": 4768,
      "ÙĦÛĮÙħ": 4769,
      "ĠØ§ÛĮØ¯Ùĩ": 4770,
      "Ø±ÙĪÙĨØ¯": 4771,
      "ĠÙĤØ±Ø¶Ùĩ": 4772,
      "Ġad": 4773,
      "Ø±Ø¶": 4774,
      "Ø¬Ø§ÛĮÛĮ": 4775,
      "ĠØ§ÙħØªÛĮ": 4776,
      "Ø§ÙĦÛĮÚ©": 4777,
      "ĠØ¨Ø®ÙĪØ§ÙĨ": 4778,
      "ĠÚ¯ÙĪØ´": 4779,
      "ĠÙħØ³ÛĮÙĪÙĦÛĮØª": 4780,
      "ĠÙĨØ§Ø´Ø±Ø§ÙĨ": 4781,
      "igh": 4782,
      "ÙĪØ¶Ø¹ÛĮØª": 4783,
      "ĠØªØ§Ø¬Ø±": 4784,
      "Ú¯ÙģØª": 4785,
      "ĠØ¬Ø²ÛĮÛĮ": 4786,
      "ĠÛĮÚ©Ø¯ÛĮÚ¯Ø±": 4787,
      "Ø§ÙħÛĮÚ©": 4788,
      "ĠÙħØ«ÙĦØ§": 4789,
      "ĠØªÙĨÙĪØ¹": 4790,
      "ĠØ§ÙĤØ¯Ø§ÙħÛĮ": 4791,
      "ĠÙħØªØ¹Ø§ÙĤ": 4792,
      "ĠÙĨØ±ÙħØ§ÙĦ": 4793,
      "ĠÙĪØ¸ÛĮÙģÙĩ": 4794,
      "ĠØ¨Ø§Ø·": 4795,
      "ÙħÙĩØ±": 4796,
      "ĠØ§ÛĮØ²ÙĪÙħ": 4797,
      "Ø®ÙĪØ±": 4798,
      "ĠØ±ÙĪÛĮÙĩ": 4799,
      "ĠØ§ÙħÛĮØ²": 4800,
      "ØºÙĦØ§Øª": 4801,
      "ĠÙħÙĪØ´Ú©": 4802,
      "ĠØ´ÙĩØ±Ø³ØªØ§ÙĨ": 4803,
      "ĠØ§Ø±ØªÙĤØ§": 4804,
      "ĠØ§Ø³Ø±Ø§ÛĮÛĮ": 4805,
      "Ø§ØŃÙĦÛĮ": 4806,
      "ank": 4807,
      "Ġhdpe": 4808,
      "ĠØ³Ø§ÛĮØ²": 4809,
      "ĠØ§Ø³ØªÙĤØ±Ø§Ø¶": 4810,
      "ĠØ¶ÙħØ§ÙĨØª": 4811,
      "ĠØ§Ø³Ø±Ø§ÛĮÛĮÙĦÛĮ": 4812,
      "ØªØ§ÙħÛĮÙĨ": 4813,
      "ÙħÙģØªÙĪÙĦ": 4814,
      "ĠØ´ØªØ±Ø§ÙĨ": 4815,
      "ĠØ®Ø´Ú©ÛĮ": 4816,
      "ÙĪØ±ÙĩØ§ÛĮ": 4817,
      "ÚĨØ§Ù¾": 4818,
      "ĠØ§Ø±ÙħÙĨØ³ØªØ§ÙĨ": 4819,
      "ĠÙĦØ¨ÙĨÛĮ": 4820,
      "ĠØºÙĦØ·": 4821,
      "ĠÙħØ±Ø§Ú©Ø²": 4822,
      "ĠØªÙĪÙĤÛĮÙģ": 4823,
      "op": 4824,
      "Ø§ÙħÙĪÙĨÛĮ": 4825,
      "ĠØ®ÙħØŃ": 4826,
      "ĠÙħÙĤØ§ÙĦÙĩ": 4827,
      "ĠØ§ØºÙĦØ¨": 4828,
      "ĠÙħØ³ØªØºÙĦØ§Øª": 4829,
      "ĠØ§ÙĨØ¨Ø§Ø±ÙĩØ§": 4830,
      "Ø·ÛĮÙĨÙĩ": 4831,
      "ĠÙĦÙĨØ¯": 4832,
      "ĠØ§ÙĦÚ©": 4833,
      "Ø¯ÛĮØ²ÙĦ": 4834,
      "ĠØ¨Ø¯ÙĨÙĩ": 4835,
      "ĠØ³Ø§Ø¹Ø§Øª": 4836,
      "ĠØ§Ø¯Ø¹Ø§ÛĮ": 4837,
      "ĠØ¨Ø±ÙĤØ±Ø§Ø±": 4838,
      "ÙħØ§ÙĦÛĮØ§Øª": 4839,
      "ergy": 4840,
      "ĠØªØ§ÛĮÙĦÙĨØ¯": 4841,
      "Ø¨Ø§Ø±ÛĮ": 4842,
      "ĠØ§ÛĮØªÙĦ": 4843,
      "ĠØ±ÙĪØºÙĨÛĮ": 4844,
      "ĠÚ©ÙĨØ³Ø±ÙĪ": 4845,
      "ĠÙ¾Ø§ÛĮØªØ®Øª": 4846,
      "Ú©ÙĨØ¬Ø§ÙĦÙĩ": 4847,
      "ĠØ«Ø¨": 4848,
      "ĠØªØŃØ±ÛĮÙħÛĮ": 4849,
      "Ø³Ø³": 4850,
      "ĠØ±ÙħØ²": 4851,
      "ĠØ³ÛĮØ±": 4852,
      "ĠØ§Ø³ÙħÛĮ": 4853,
      "ĠØŃØ§Ø¯Ø«Ùĩ": 4854,
      "Ø§Ø¨Ø±Ú¯": 4855,
      "Ø¨Ø±Ø´": 4856,
      "ĠØªÙĪØ§ÙĨØ§ÛĮÛĮ": 4857,
      "ĠØ²ÛĮØ³ØªÛĮ": 4858,
      "ĠØ·Ø±ÙģÛĮ": 4859,
      "ĠØ³ÙĨØªÛĮ": 4860,
      "ØµÙģØ§ÙĨÙĩ": 4861,
      "ĠØ¹Ø¨Ø¯Ø§ÙĦ": 4862,
      "ĠÙĤØ±ÙĨØ·ÛĮÙĨÙĩ": 4863,
      "ĠØ·ÙĪÙģØ§ÙĨ": 4864,
      "ta": 4865,
      "Ø´Ø§Ø®Øµ": 4866,
      "ĠØªØ§ÙĨÚ©": 4867,
      "ĠÙĤÙĪÙĩ": 4868,
      "ĠÙĦÙĩ": 4869,
      "Ø§ØŃØªÛĮ": 4870,
      "Ø®ØªØ§ÙĨÙĩ": 4871,
      "ĠØ§Ø¶Ø·Ø±": 4872,
      "ÙĨØ§Ø³": 4873,
      "ĠØªØ§Ø¬": 4874,
      "ĠÙ¾Ø²Ø´Ú©ÛĮØ§ÙĨ": 4875,
      "ĠØ¨Ø±ÙĦÛĮØ§ÙĨØ³": 4876,
      "ĠÙĤØ±Ø¹Ùĩ": 4877,
      "ÙĪØ³Ø§Ø²ÛĮ": 4878,
      "Ø§ÙħÛĮØ§": 4879,
      "ĠØ´Ú©Ø§Ùģ": 4880,
      "ØªØ³Ø¹ÛĮØ±": 4881,
      "ĠÙ¾Ø§Ø±Ú©": 4882,
      "ĠÚ¯ÙĦØ¯ÙħÙĨ": 4883,
      "ĠÙħÙĪØ§Ø±Ø¯ÛĮ": 4884,
      "ĠØ§Ø³Ù¾Ø§ÙĨÛĮØ§": 4885,
      "ĠØ²ÙĪØ¯ØªØ±": 4886,
      "ĠÙħÚ©Ø§ÙĨÛĮØ²Ùħ": 4887,
      "ØªØ®ÙģÛĮ": 4888,
      "ĠØ§ÛĮÙĨØ¬Ø§": 4889,
      "ĠØªÙĨÚ¯Ùĩ": 4890,
      "ĠÙĦØ¹": 4891,
      "ĠÙ¾ÛĮØ´ÛĮ": 4892,
      "ĠØªØ¹Ø§ÙĪÙĨ": 4893,
      "ĠÚ¯ÙģØªÙĨÛĮ": 4894,
      "ĠØ´ÙĩØ±Ø³Ø§Ø²ÛĮ": 4895,
      "ĠØ§Ø·ÙĦØ§Ø¹Ø§ØªÛĮ": 4896,
      "ĠØ§Ø®ØªÛĮØ§Ø±Ø§Øª": 4897,
      "ĠØµØ±Ø§ÙģØ§ÙĨ": 4898,
      "ĠÙħÙĨØ¯": 4899,
      "ÙħÙĪÙĨ": 4900,
      "Ø§ÙĨØ¬Ø§Ùħ": 4901,
      "ÙĦÛĮØªÛĮ": 4902,
      "Ø§Ø¯Ø±ÛĮ": 4903,
      "Ø¨ÙĩØ§Ø±": 4904,
      "ĠÚ©ÙħÙ¾": 4905,
      "Ú©ÙĦÙģ": 4906,
      "ĠØ±ÙĪÙĨØ¯ÛĮ": 4907,
      "ĠÚ©ÙĦÛĮÚ©": 4908,
      "ĠÙħØªÙĨÙĪØ¹": 4909,
      "ĠØ¹ÙĨØ§ÛĮØª": 4910,
      "ĠÙĪÛĮØªÙĨØ§Ùħ": 4911,
      "Ø§ÙĦÚ©": 4912,
      "ĠØ®Ú¯Ø³ØªØ±": 4913,
      "ØªØµØ§Ø¨": 4914,
      "ĠÙĨØ±Ø®ÛĮ": 4915,
      "ĠÚ¯Ø²Ø§Ø±Ø´Ø§Øª": 4916,
      "ĠØ¨ÛĮØ±ÙĪÙĨ": 4917,
      "Ġni": 4918,
      "ĠÙ¾ØªØ±ÙĪÙĦÛĮÙĪÙħ": 4919,
      "Ø¨Ø§Ø²ÛĮØ§ÙģØª": 4920,
      "Ø¯ÙĨÛĮ": 4921,
      "ĠØ§Ø±ÙģØ¹": 4922,
      "ĠÙħÙĨØµÙģØ§ÙĨÙĩ": 4923,
      "ĠÚ©Ø§ÙĦØ§Ø¨Ø±Ú¯": 4924,
      "ĠÙħØ±ÙĪØ±": 4925,
      "ÙĪØªÙĪØ³": 4926,
      "Ġldpe": 4927,
      "ĠØ§Ú©ØªØ§ÙĨ": 4928,
      "ĠÙģØ±ÙĪØ´Ú¯Ø§ÙĩÛĮ": 4929,
      "pv": 4930,
      "ĠÙħÚ©ÙĦÙģ": 4931,
      "Ø¨Ø·Ø±": 4932,
      "ĠØ´Ø±Ú©": 4933,
      "ĠØŃÚ©Ø§Ùħ": 4934,
      "ĠÛĮØ§Ø²": 4935,
      "Ø§Ø¹Øª": 4936,
      "ĠØºÙĦØ§Øª": 4937,
      "ĠØ³Ø§Ø²ÙĨØ¯Ùĩ": 4938,
      "Ø¨ØŃØ§ÙĨ": 4939,
      "ĠØ¨Ø§ÙĦØ§Ø¯Ø³ØªÛĮ": 4940,
      "ĠÙħØ§ÛĮÙĪÙĨØ²": 4941,
      "ĠØ³Ø¬Ø§Ùħ": 4942,
      "ĠØŃØ²Ø¨": 4943,
      "ĠØ§ÙħÛĮØ¯ÙĪØ§Ø±ÛĮ": 4944,
      "Ø§ÙĩÙĨØ±": 4945,
      "ĠÙħØµÙĪØ¨Ø§Øª": 4946,
      "ÙĨØ§Ú©": 4947,
      "ÙĨØªÛĮ": 4948,
      "Ú©Ø§ÙĨÛĮ": 4949,
      "Ø³ÛĮÙĨ": 4950,
      "ÙĪØ¯ÛĮØ§ÙĨ": 4951,
      "ĠØ§Ø³Ú©": 4952,
      "ĠØ¹ÙħÛĮÙĤ": 4953,
      "Ø§Ø³Ù¾ÛĮÙĨ": 4954,
      "ĠÙħØ¹Ø¸Ùħ": 4955,
      "ĠÙĦÛĮØªÛĮ": 4956,
      "ĠØªØ±ÙħØ²": 4957,
      "ĠÙĦÙĨØ¯ÙĨ": 4958,
      "if": 4959,
      "le": 4960,
      "ĠØ±Ø´ØªÙĩ": 4961,
      "Ø¹ÙħÙĦÛĮØ§Øª": 4962,
      "ĠÙģÙĤØ±Ùĩ": 4963,
      "Ø¬ÙĦØ³Ùĩ": 4964,
      "ĠÙ¾ÙĪØ¯Ø±ÛĮ": 4965,
      "Ø§ØŃØ¨Ùĩ": 4966,
      "ĠØŃØ³ÛĮÙĨÛĮ": 4967,
      "ĠØ®Ø±ÙĪØ¬ÛĮ": 4968,
      "ĠÛĮØ§Ø¯Ø¯Ø§Ø´ØªÛĮ": 4969,
      "ĠØ¨Ø±ÙĪÛĮÙħ": 4970,
      "Ø®Ø§Ø³": 4971,
      "ĠØ±ÛĮÙĪ": 4972,
      "ÙĪÛĮØ²ÛĮ": 4973,
      "ĠÚ©Ø§Ø±ÙģØ±Ùħ": 4974,
      "ĠØ¯Ø§Ø¯ÙĪØ³Øª": 4975,
      "and": 4976,
      "ĠØ¨Ø¯ØªØ±": 4977,
      "ĠÙħØªØ¹Ø¯Ø¯ÛĮ": 4978,
      "Ú©Ø§ÙĪÙĩ": 4979,
      "ĠØ§ÙĦØŃ": 4980,
      "ĠØ«Ø§ÙĨ": 4981,
      "ĠÙħØ¨Ø§ÙĦ": 4982,
      "Ú©ÙĪÙĩ": 4983,
      "ĠØ·Ø¨ÙĤÙĩ": 4984,
      "ĠØ±ÙĪÛĮØ¯Ø§Ø¯ÙĩØ§ÛĮ": 4985,
      "ĠØ¯Ø±ØŃØ§ÙĦ": 4986,
      "ĠÙĨØ§Ø¸Ø±": 4987,
      "ĠØ§ÛĮØªÙĦØ§Ùģ": 4988,
      "ÙĨØ§ÙĨ": 4989,
      "ÙĨØ¸": 4990,
      "ĠÙĨØ§Ù¾": 4991,
      "Ø§Ø³ÙĦØ¨": 4992,
      "Ø§Ú©Øª": 4993,
      "ĠÙ¾ÛĮØ´ÛĮÙĨ": 4994,
      "ĠØ§ÙĦÛĮØ§ÚĺÛĮ": 4995,
      "sfo": 4996,
      "ĠØ³Ø§Ú©Ø³": 4997,
      "ĠÙħØ¹Ø§ÙĪ": 4998,
      "ĠØ²ÙĨØ¯Ùĩ": 4999,
      "ĠØ®ÙĪØ¯Ø´Ø§ÙĨ": 5000,
      "Ġsu": 5001,
      "ĠØ´ÙĨØ§Ø®ØªÙĩ": 5002,
      "Ø´ÙħØ§ÙĦ": 5003,
      "ĠØªØ§Ø«ÛĮØ±Ú¯Ø°Ø§Ø±": 5004,
      "ĠØŃØ§Ú©Ùħ": 5005,
      "ĠØ§Ø«Ø±Ú¯Ø°Ø§Ø±": 5006,
      "ĠØ¨Ø§Ø«": 5007,
      "ĠÙĨØ¯Ùĩ": 5008,
      "ĠØ¨ÙĩØ¯Ø§Ø´Øª": 5009,
      "Ø§ÙĩÙĪ": 5010,
      "ĠØ¨Ø±Ø±ÙĪÛĮ": 5011,
      "Ø®Ø§ÙĨ": 5012,
      "ĠØ¨Ø¯ØªØ±ÛĮÙĨ": 5013,
      "ĠØ¨Ø§ÙĦØ§ØªØ±ÛĮ": 5014,
      "ĠØŃÙĪØ§ÙĦÛĮ": 5015,
      "ĠØ®Ø§Ø·Ø±ÙĨØ´Ø§ÙĨ": 5016,
      "ĠØ´Ø§Ø±Úĺ": 5017,
      "ĠÙħØ®Ø§ÙĦÙģØª": 5018,
      "ÙĦØ§Ø³": 5019,
      "ĠÚ©Ø±ÛĮ": 5020,
      "Ġfh": 5021,
      "ĠØªÚ©ÙĦÛĮÙģÛĮ": 5022,
      "ÙĪÙĦÙĪÚĺÛĮ": 5023,
      "Ú©Ø±ÛĮ": 5024,
      "Ø§ÛĮØ¨": 5025,
      "Ø§Ø±Ø²": 5026,
      "Ø¨Ø¯ÙĨ": 5027,
      "ĠØ³ÙĪÙ¾": 5028,
      "ĠØ³Ú©ÙĪ": 5029,
      "Ø¬ÙĪÛĮ": 5030,
      "ĠØ¬Ø§Ø¨": 5031,
      "Ø§Ø³ÙħÛĮÙĨ": 5032,
      "Ø§Ø®Ø±ÛĮÙĨ": 5033,
      "ĠØªÙĦÚ¯Ø±Ø§Ùħ": 5034,
      "Ø¯Ø§Ø±Ø§ÙĨ": 5035,
      "ĠØ®ÙĪØ¯Ø´": 5036,
      "ĠÙģØ±Ø§ÙĪØ§ÙĨ": 5037,
      "ĠØ·ÙĦØ¨": 5038,
      "ĠÙĨÙĪØ´ØªÙĩ": 5039,
      "ĠØ³ÙĨØ§Ø±ÛĮÙĪÛĮ": 5040,
      "ĠØ§ÙħØªÛĮØ§Ø²": 5041,
      "ÙĪÚ©Ø§Ø±": 5042,
      "ĠÙĩÙĨ": 5043,
      "Ø¨Ø®Ø´": 5044,
      "ĠØ§ÛĮØ§ÙĦØª": 5045,
      "ÙĪÙĨÚ¯": 5046,
      "ÙĨÛĮØ±ÙĪ": 5047,
      "Ġfm": 5048,
      "Ġbl": 5049,
      "ĠÚ©Ø´Ø§ÙĪØ±Ø²Ø§ÙĨ": 5050,
      "th": 5051,
      "ĠÙĨØ§Ú©": 5052,
      "ØªØ±Ø§Ú©": 5053,
      "ĠÙħØ³Ø¹ÙĪØ¯": 5054,
      "Ġsh": 5055,
      "ĠÙĨÛĮØ±ÙĪÚ¯Ø§ÙĩÛĮ": 5056,
      "ĠØ¯Ø´ÙħÙĨ": 5057,
      "ĠÙħÙĪØ±Ø§": 5058,
      "ĠÙħØ²Ø¨ÙĪØ±": 5059,
      "ÙĪØ§ÛĮ": 5060,
      "ÙĦØ§ÙĨ": 5061,
      "Ø´Ø§Øª": 5062,
      "ĠØªÙĨØ¯": 5063,
      "ĠØ¨Ø±Ø¬": 5064,
      "ĠØ§ÙĨÙĤØ¯Ø±": 5065,
      "ĠØ¨Ø§Ø²ÙĨÚ¯Ø±ÛĮ": 5066,
      "ÙĤÛĮÙĤÙĩ": 5067,
      "ĠØªØ¹ÙĪÛĮÙĤ": 5068,
      "ĠØŃØ¯ÙĪØ¯Ø§": 5069,
      "Ġpe": 5070,
      "tu": 5071,
      "ØªØ¸Ø±Ùĩ": 5072,
      "ĠØ¯ÙĤÛĮÙĤÙĩ": 5073,
      "ĠÙģÙĪØ±": 5074,
      "ĠØ§ÙĨØ¹": 5075,
      "Ù¾ÙĨØ§": 5076,
      "Ø°ÛĮØ¨": 5077,
      "Ø§Ú©Ùĩ": 5078,
      "ÙĨÚ¯ÙĨØ²": 5079,
      "ĠØ¶Ø±ÛĮØ¨": 5080,
      "ĠØªØ´ÙĪÛĮÙĤ": 5081,
      "ĠØ¯ÙħØ§ÛĮ": 5082,
      "ĠØ±Ø§ØŃØªÛĮ": 5083,
      "ĠØ¨Ø±Ø³Ø§ÙĨ": 5084,
      "Ø§ÙĤÙĦØ§Ùħ": 5085,
      "ÙĨÙĪÛĮÙĨ": 5086,
      "Ġpm": 5087,
      "ĠØ§ÙĨØªÙĤØ§Ø¯": 5088,
      "ØºØ¯Ø§Ø¯": 5089,
      "ĠØºÛĮØ±ÙħÙĨØªØ¸Ø±Ùĩ": 5090,
      "ĠÙĦÛĮØªÛĮÙĪÙħ": 5091,
      "Ø±Ø¶Ø§": 5092,
      "Ø¯ÙĩÙħÛĮÙĨ": 5093,
      "ĠØŃØµÙĪÙĦ": 5094,
      "Ø³ÛĮØ³ØªÙħ": 5095,
      "ĠØ®ÙĪØ¯Ø¯Ø§Ø±ÛĮ": 5096,
      "ĠØ¸Ø±ÙĪÙģ": 5097,
      "ĠÙħÙĨØªØ®Ø¨": 5098,
      "ĠØªÙĦØ®": 5099,
      "ĠØ§ÙħÙĪØ²Ø´ÛĮ": 5100,
      "od": 5101,
      "ĠÙħÙĪØ¯ÛĮØ§ÙĨ": 5102,
      "Ø²Ø§Ùħ": 5103,
      "ĠÙ¾Ø³Øª": 5104,
      "ĠØ§Ø¨Ø¹": 5105,
      "ĠÙħØµØ§ØŃØ¨Ùĩ": 5106,
      "ĠØ´ÙĩØ±Ú©": 5107,
      "ĠÚĨÙĨØ§ÙĨ": 5108,
      "ĠØ®Ø±ÛĮØ¯ÙĩØ§": 5109,
      "ĠØ§Ø¨Ø§Ø¯Ø§ÙĨ": 5110,
      "Ø±ÙĨ": 5111,
      "ÙĩÙĪØ±": 5112,
      "ØªØ±Ø§ÙĨØ³": 5113,
      "ÙĪØ§Ø¨Ø·": 5114,
      "ĠØ¯Ø§ÙĨØ¯": 5115,
      "Ø¬Ø§ÙĨÛĮ": 5116,
      "ĠØ§ÛĮÙĨØª": 5117,
      "ĠÛĮÙĪ": 5118,
      "Ġlpg": 5119,
      "Ø®Ø§Ø±Ú©": 5120,
      "Ġenergy": 5121,
      "ÙħØ§Ø¨Ùĩ": 5122,
      "ĠØ³Ø±Ú©": 5123,
      "Ø§Ø²ÙĨØ¯": 5124,
      "Ø±ÛĮÛĮØ³ÛĮ": 5125,
      "ÙĪÛĮÙĦÛĮ": 5126,
      "Ø¨ÛĮØ³": 5127,
      "ĠÚ©Ø§Ø±Ú¯Ø±ÙĪÙĩ": 5128,
      "ÙĨÙĪØ§Ø±": 5129,
      "Ġmc": 5130,
      "ĠØ¬Ø²ÙĪ": 5131,
      "ĠØ¹Ø§ÙħÙĦÛĮ": 5132,
      "ĠØªÙĩØ§Ø¬Ùħ": 5133,
      "Ø³Ø®ÙĨÚ¯ÙĪÛĮ": 5134,
      "ĠÛĮØ²Ø¯": 5135,
      "ĠØ¨Ø§Ø²Ø¯ÛĮØ¯": 5136,
      "ĠÙħØ¹Øª": 5137,
      "ĠØ§ÛĮÙĨØªØ±ÙĨØª": 5138,
      "ĠØ§Ø²ÙħØ§ÛĮØ´Ú¯Ø§Ùĩ": 5139,
      "ĠÙĦØ¹Ø§Ø¨Ø¯Ø§Ø±": 5140,
      "ĠÛĮÙĨ": 5141,
      "ÙĨÚ©": 5142,
      "ÙħØ§Ø´ÛĮÙĨ": 5143,
      "Ø§ÛĮÙĨØ¯Ùĩ": 5144,
      "Ú¯Ø§ÙĨÙĩ": 5145,
      "ĠÚ¯Ø±Ùĩ": 5146,
      "ĠÚ¯Ø°Ø±": 5147,
      "ĠÙħØ³Ø§ØŃØª": 5148,
      "ÙħÙĨØ¯ÛĮ": 5149,
      "ĠØŃÛĮØ§ØªÛĮ": 5150,
      "ĠØ¨Ø®ÙĪØ§ÙĨÛĮØ¯": 5151,
      "ĠØ§Ø¨Ø¹Ø§Ø¯": 5152,
      "ØªÚ©Ø§Ø±": 5153,
      "ĠÙ¾ÛĮØ±": 5154,
      "ÙĪØ±ÛĮØ³": 5155,
      "ĠÙĤÙĪÙĦ": 5156,
      "ĠØ¨Ø§Ø²Ù¾Ø±Ø¯Ø§Ø®Øª": 5157,
      "ĠØ§ÙħØ¯ÙĨ": 5158,
      "ĠÚ©Ø§Ø±ØªÙĨ": 5159,
      "ĠØ¯Ø§Ø¯Ú¯Ø§Ùĩ": 5160,
      "ÙĦÙĪØ¨ÛĮ": 5161,
      "ĠÙĪØ±Ø²Ø´": 5162,
      "ĠÚ¯ÙĦØ§ÛĮ": 5163,
      "Ø§ÙĤØªØµØ§Ø¯": 5164,
      "ĠØ¯Ø§Ø¯ÙĪØ³ØªØ¯": 5165,
      "ĠØ¨Ø§Ø«Ø¨Ø§Øª": 5166,
      "ma": 5167,
      "ĠØ¯Ø¨ÛĮ": 5168,
      "ĠØ¯Ø±ÙĪ": 5169,
      "ĠØ¯Ø±Ú©": 5170,
      "ĠØ³Ø±ÛĮ": 5171,
      "ÙģØ§Ø²": 5172,
      "ĠØ¨Ø§Ø²Ø±": 5173,
      "ĠÙĨÛĮÙĪØ²": 5174,
      "Ø¨ÙĩØ§": 5175,
      "Ø±Ø¯ÙĩØ§ÛĮ": 5176,
      "Ú©Ø±Ø¨ÙĨ": 5177,
      "Ġme": 5178,
      "ĠØ®ÙĪØ´Ø¨Ø®ØªØ§ÙĨÙĩ": 5179,
      "ĠØ§ÛĮØ²ÙĪÙħØ±": 5180,
      "ve": 5181,
      "ÙĦÙĪÙĦ": 5182,
      "Ø§ÙĦÙħ": 5183,
      "ĠÙĤØ§ÙĦÛĮØ¨Ø§Ùģ": 5184,
      "Ø¶Øª": 5185,
      "ĠÙħØŃØ¶": 5186,
      "ĠØªØŃÙĪÛĮÙĦÛĮ": 5187,
      "ĠØ§ÙĪÚ©Ø±Ø§ÛĮ": 5188,
      "ÙĪÚ©Ø³ÛĮ": 5189,
      "ĠÚ¯ÙĦØ§ÛĮÚ©ÙĪÙĦ": 5190,
      "Ø¨Ø´": 5191,
      "ØªÙĩØ§": 5192,
      "Ø§ÙĪØ±Ø§ÙĨ": 5193,
      "ÙĤØ·Ø¹Ùĩ": 5194,
      "Ø²ÙĪÙħØ§Øª": 5195,
      "ĠÙħØ·ÙĦØ¹": 5196,
      "ĠØªØ¯Ø±ÛĮØ¬ÛĮ": 5197,
      "ĠÙħØ¯Ø§Ø®ÙĦÙĩ": 5198,
      "ĠØ¨ØºØ¯Ø§Ø¯": 5199,
      "ĠÙĩÚ©Øª": 5200,
      "ÙĤÙĪÙĦ": 5201,
      "ĠÙĤØ¨Ø§ÙĦ": 5202,
      "Ø§Ø±Ø¯Ø§Ø±ÛĮ": 5203,
      "Ù¾Ø§ÙĨ": 5204,
      "ÙĪÙħÛĮØª": 5205,
      "ĠÚ©Ø§Ø±Ø¨Ø±Ø¯": 5206,
      "ĠØ§ØŃØªÛĮ": 5207,
      "ĠÙĨÙĩØ¶Øª": 5208,
      "Ø§ØºØ§Ø²": 5209,
      "ĠØªÙģÚ©ÛĮÚ©": 5210,
      "ĠØ²ÙĨØ¯Ø§ÙĨÛĮØ§ÙĨ": 5211,
      "ĠØ§ÛĮÙĨØªÙĦÛĮØ¬": 5212,
      "ĠÙģÛĮÙĦ": 5213,
      "ĠÙĨÛĮÚ©ÙĦ": 5214,
      "ĠÙħØ´ÙĩØ¯": 5215,
      "ĠØªØ±ÙĪØ±ÛĮ": 5216,
      "ĠÚ¯ÙĪØ´Øª": 5217,
      "ĠØ³ÛĮØ§Ø³ØªÚ¯Ø°Ø§Ø±": 5218,
      "ØªÙĪØ²ÛĮØ¹": 5219,
      "ĠÚĺÙĪØ±": 5220,
      "ĠÙĨØŃÙĪÛĮ": 5221,
      "ĠÙħØ¨Ø§ÙĦØº": 5222,
      "ĠØ§ÛĮÙĨØªÙĦÛĮØ¬ÙĨØ³": 5223,
      "ĠÙħØ§Ùħ": 5224,
      "ĠØ±Ø¶Ø§": 5225,
      "Ø¨Ø§Ø·": 5226,
      "ĠÙģØ¬ÙĩØ§ÙĨ": 5227,
      "ĠØ®Ø§ÙħÙĪØ´": 5228,
      "Ø§Ø¨Ø±Ø§ØªÛĮ": 5229,
      "ĠØŃØ±ÙģÙĩ": 5230,
      "ĠÙĨÚ¯Ø±ÙģØªÙĩ": 5231,
      "Ø®Ø§ÙĨØ¬Ø§Øª": 5232,
      "ĠØ¨Ø§Ø±Ùĩ": 5233,
      "ĠØ¨Ú¯ÙĪÛĮ": 5234,
      "ÛĮÙĨØ¯Ùĩ": 5235,
      "ĠØ§Ø±Úĺ": 5236,
      "ĠÙħØ´Ø§ØºÙĦ": 5237,
      "ĠÙĨÙĤØ´Ùĩ": 5238,
      "ĠØ§Ø¬ÙĦØ§Ø³": 5239,
      "ĠÙĪØ±Ø´Ú©": 5240,
      "ĠØ§ÙĦÙĪÙħÛĮÙĨØ§": 5241,
      "ĠØªØ§Ø¨ÙĦÙĪÛĮ": 5242,
      "ĠØ§ØŃØªØ±Ø§ÙħØ§": 5243,
      "Ø§ÙħÛĮØ±Ø¹Ø¨": 5244,
      "ĠÙħØ¹ØªØ¨Ø±": 5245,
      "ĠØ¨Ø§Ø±Ø§ÙĨ": 5246,
      "ĠØ¯Ø§ÙĨÛĮ": 5247,
      "ĠØ¹Ø¸ÛĮÙħ": 5248,
      "ĠØ±ÙĪØ³": 5249,
      "Ø§ÙĦÛĮØ³Øª": 5250,
      "ĠÙħØªØ®": 5251,
      "ĠÙħØ®Ø§Ø¨Ø±Ø§ØªÛĮ": 5252,
      "ĠÙĨÙĩØ§ÛĮØªØ§": 5253,
      "ĠÙ¾ÛĮÚĨÛĮØ¯Ùĩ": 5254,
      "ter": 5255,
      "ĠÙħØ§Ø¨": 5256,
      "ĠÙħØ§Ø³Øª": 5257,
      "Ú¯ÙĪÛĮÛĮ": 5258,
      "ĠØ¶ÙĪØ§Ø¨Ø·": 5259,
      "ĠÙĨÛĮØªØ±ÙĪÚĺÙĨ": 5260,
      "ĠÚ©Ø§Ø±Ú¯Ø²Ø§Ø±Ø§ÙĨ": 5261,
      "ĠÚĺÙĪØ±ÙĨØ§ÙĦ": 5262,
      "de": 5263,
      "ms": 5264,
      "ÛĮØ§Ø³": 5265,
      "ĠÙħØ§ÛĮÙĦ": 5266,
      "Ø³Ø§Ùħ": 5267,
      "ĠÚ©Ø§Ù¾": 5268,
      "ĠÙĤÙĪØ§": 5269,
      "ĠÚ©Ø§Ø±ÙĩØ§ÛĮ": 5270,
      "Ø±ÛĮÙĨÚ¯": 5271,
      "ĠÛĮØ§ÙģØªÙĨ": 5272,
      "ĠØ´ÙĪÛĮÙĨØ¯Ùĩ": 5273,
      "ĠØ²Ø¯Ø§ÛĮÛĮ": 5274,
      "ĠÙħØ²Ø§ÛĮØ§ÛĮ": 5275,
      "ĠØ§ÛĮÙĨØªØ±ÙĨØªÛĮ": 5276,
      "ĠØ¹Ø§ÛĮÙĤ": 5277,
      "ĠÙģØ±ÙĩÙĨÚ¯ÛĮ": 5278,
      "ĠÚĨØ±Ø§Ú©Ùĩ": 5279,
      "ĠÙģÙĦØ³Ø·ÛĮÙĨ": 5280,
      "ÛĮØŃ": 5281,
      "Ø·ÙģÛĮ": 5282,
      "Ø§Ø³ÛĮÙħ": 5283,
      "ĠØ¨Ø§Ø²ÙĩÙħ": 5284,
      "ĠØºÚ¯ÙĦ": 5285,
      "ĠÚ©Ø§Ø±ÙħÙĨØ¯": 5286,
      "Ġpl": 5287,
      "ĠØ³Ø§ÛĮÙĨØ§": 5288,
      "ĠØ¬Ø¯Ø§Ú¯": 5289,
      "ĠÙĨØ§Ú¯Ùĩ": 5290,
      "ĠÙħØªØµÙĦ": 5291,
      "ĠØ¬Ø¯Ø§Ú¯Ø§ÙĨÙĩ": 5292,
      "ĠØ¨Ø·Ø±ÛĮ": 5293,
      "ĠÚ©ÛĮÙħÛĮØ§": 5294,
      "ĠÙĨØ§Ø¯Ø±": 5295,
      "ĠØ±ÙĪØ§ÙĦ": 5296,
      "Ø§ÙĪÙĦÛĮÙĩ": 5297,
      "ĠØ¹ÙħÙĤ": 5298,
      "ÙħØ¬ØªÙħØ¹": 5299,
      "ØªÙĨØ§Ø¨": 5300,
      "ĠÙĨØ®ÙĪØ§ÙĩÛĮÙħ": 5301,
      "ĠÙĪÛĮÙĨÛĮÙĦ": 5302,
      "ĠÙħÙĪÙĤØ¹": 5303,
      "ĠÙħØŃØªØ§Ø·": 5304,
      "ØªØ§ÛĮØ±": 5305,
      "ĠØ±Ø§Ø¨Ø±": 5306,
      "Ø§Ø³Ø§": 5307,
      "ĠÙħØªØ§Ø«Ø±": 5308,
      "ĠÚ©Ø§Ø±Ø®Ø§ÙĨØ¬Ø§Øª": 5309,
      "ĠØ³Ø®ØªÛĮ": 5310,
      "Ø±ÙĪØ³ÛĮÙĩ": 5311,
      "ØµØ§": 5312,
      "ĠÙĨØ³ÙĪØ²": 5313,
      "ĠØºØ¯ÛĮØ±": 5314,
      "ĠØ§Ø¬ØªÙĨØ§Ø¨": 5315,
      "ĠØ§ÙĨÙģØ¬Ø§Ø±": 5316,
      "ĠÙħØ§Ø¨ÙĤÛĮ": 5317,
      "ew": 5318,
      "Ø±Ø²": 5319,
      "ÙĪÚ©ÛĮÙĪÙħ": 5320,
      "ĠÙĪØ§Ùģ": 5321,
      "ĠÙĪÚ¯ÙĪÛĮ": 5322,
      "ĠÚ¯ÛĮ": 5323,
      "ĠÙħÙĨØ´Ø§": 5324,
      "ĠØ§ÙĦÙĪØ¯Ú¯ÛĮ": 5325,
      "ĠÙģØ±Ø¯Ø§ÛĮÛĮ": 5326,
      "ĠØ¹Ø¨Ø§Ø³": 5327,
      "ĠØ¯Ø¨ÛĮØ±Ú©ÙĦ": 5328,
      "ĠÙĪØªØ¬Ø§Ø±Øª": 5329,
      "ĠØ¯Ø±Ùĩ": 5330,
      "ĠÙģØª": 5331,
      "ĠØ³ÙĪØ§ÙĦØ§Øª": 5332,
      "ĠØ³ÙģØ±ÙĩØ§ÛĮ": 5333,
      "ĠÚĨÙĨØ¯Ø§ÙĨ": 5334,
      "ĠØªØ§Ø«ÛĮØ±ÛĮ": 5335,
      "Ú©Ø§ÙħÛĮÙĪÙĨØª": 5336,
      "ÛĮÚ©ÙĪ": 5337,
      "ĠÙħØ§ÛĮØ¹Ø§Øª": 5338,
      "ĠØ³ÙĦÛĮ": 5339,
      "ĠØ±ÙĪØ²ÛĮ": 5340,
      "ĠÚ©Ø§Ø±Ú©Ø±Ø¯": 5341,
      "ĠØ¨ÛĮÙĪ": 5342,
      "Ġis": 5343,
      "Ø¬Ø±Øª": 5344,
      "ĠØ§Ù¾Ø§Ø±ØªÙħØ§ÙĨ": 5345,
      "ØºØ¯ØºÙĩ": 5346,
      "ĠÙģØ±ÙĪØ¯Ú¯Ø§Ùĩ": 5347,
      "ĠØ¨ÛĮÙħ": 5348,
      "ĠÙĨØ§ÙĨ": 5349,
      "Ø®Ø³": 5350,
      "ĠØ¹Ø¯Ùĩ": 5351,
      "Ø§ÙĦÛĮØ§Ùģ": 5352,
      "ÚĺØ§Ø¯": 5353,
      "ĠÙħØªØŃØ¯": 5354,
      "ĠØ¨Ø§Ø±Ø¬": 5355,
      "ĠÙħÛĮÚ©Ø±ÙĪÙĨ": 5356,
      "dp": 5357,
      "ĠØ¯ØºØ¯ØºÙĩ": 5358,
      "ĠÙĨÙĪØ´": 5359,
      "ĠØ³ÛĮÙĨ": 5360,
      "ĠØ³Ø§ØŃÙĦ": 5361,
      "ĠØµÙĦØ§ØŃ": 5362,
      "Ø¶Ø±": 5363,
      "ĠÚ¯Ø§Ø²ÙħØ§ÛĮØ¹": 5364,
      "ĠØ§Ø¨Ø±Ø§Ø²": 5365,
      "ĠØ¨Ø®Ø§Ø±": 5366,
      "ĠØ¬ÙħØ¹ÛĮ": 5367,
      "Ġso": 5368,
      "ĠØ®ÙĪØ§ÙĩØ§ÙĨ": 5369,
      "Ø§ÛĮÙĨÙģÙĪ": 5370,
      "ĠÙħØ´Ø®ØµÛĮ": 5371,
      "ĠÙĪØ¨Ø¯ÙĩÛĮ": 5372,
      "ĠÙ¾ÙĨØ¨Ùĩ": 5373,
      "Ù¾Ø§Ú©Øª": 5374,
      "ØªÙĪØ³Ø¹Ùĩ": 5375,
      "Ø§Ù¾ÛĮÚ©ÙĪ": 5376,
      "ĠØ´Ø±Ú©Ø§ÛĮ": 5377,
      "Ø¨ÛĮØ³Ú©ÙĪÛĮØª": 5378,
      "Ø§ÙĩÙĨØ¯": 5379,
      "Ø§ÙĩØ§ÛĮÛĮ": 5380,
      "Ø¬ÛĮÙĩ": 5381,
      "ĠÙģØ±Ø§": 5382,
      "ØµÙĪÙģÛĮ": 5383,
      "ĠØ³ÙģÛĮØ±": 5384,
      "ĠâĢ": 5385,
      "ĠØµØŃØ§ÙģÛĮ": 5386,
      "ĠÙĩÙħØªØ§ÛĮ": 5387,
      "ĠØ²ÙĨØ¬Ø§ÙĨ": 5388,
      "ÙģÙĪØ°": 5389,
      "ĠÙħØ§Ø±ÙĪÙĨ": 5390,
      "ĠØªØ±ÙģØªØ§ÙĦØ§Øª": 5391,
      "ĠÙĨØ±Ø³ÛĮØ¯Ùĩ": 5392,
      "Ø´Ø§ØªÙĪÙĨ": 5393,
      "ĠÙħØªØ®ÙĦÙģ": 5394,
      "ll": 5395,
      "ĠØ¨Ø§Ø³": 5396,
      "ĠØ¨Ú¯ÙĪ": 5397,
      "ĠÙħØ¹ÙĪÙĤ": 5398,
      "ĠØ¯Ø§Ø±ÙĨØ¯Ú¯Ø§ÙĨ": 5399,
      "ĠØ³Ø±Ø§ÙħÛĮÚ©": 5400,
      "ĠÚ¯Ø±Ø§ÙĨØ¨ÙĩØ§": 5401,
      "ĠÚ©Ø±Ø§Ú©Ø±": 5402,
      "Ú¯Ø§ÙĨÛĮ": 5403,
      "ĠØ´Ø®Ø§Ø±Ú©": 5404,
      "ĠØ¨Ø±Ú¯Ø±Ø¯": 5405,
      "ĠØ±Ø´Ø¯ÛĮ": 5406,
      "Ø«Ø±ÛĮ": 5407,
      "Ø¯Ø±Ø§Ùħ": 5408,
      "ÛĮÙħØ§ÙĨØ¯Ùĩ": 5409,
      "ĠØ¨Ø±ÙĨØ¬ÛĮ": 5410,
      "ĠØªÙĪØ§ÙĨÛĮØ¯": 5411,
      "ĠÙ¾ÛĮÚ©": 5412,
      "ĠØ¨Ø§ÙĤÛĮÙħØ§ÙĨØ¯Ùĩ": 5413,
      "ĠØ¨Ø§ÛĮØ³ØªÛĮ": 5414,
      "ĠÙħÙĦØ§Ùħ": 5415,
      "ĠØ´Ø§ÛĮØ§ÙĨ": 5416,
      "Ù¾ÛĮÙĩ": 5417,
      "ĠÙħÙĪØ´Ú©ÛĮ": 5418,
      "ĠÙĦØ§ØªÛĮÙĨ": 5419,
      "Ú¯Ø±Ø§ÙģÛĮ": 5420,
      "ĠØ«Ø§ÙĦ": 5421,
      "ĠØ¨Ø²ÙĨ": 5422,
      "Ø¯Ø§ÙĨØ§": 5423,
      "Ġpric": 5424,
      "ĠØ¯ÙĨØ¯Ùĩ": 5425,
      "ĠÙģØ®Ø§Ø³": 5426,
      "ÙĪÙĦØ§ÙĨ": 5427,
      "Ø°Ø±": 5428,
      "ĠØ¯ÙĪØŃÙĩ": 5429,
      "ĠØ§Ø¯Ø§Ø±Ø§Øª": 5430,
      "ĠÙ¾ÙĦØ§Ø³Øª": 5431,
      "ation": 5432,
      "ĠØ§ÙĨØ¬Ø§ÛĮÛĮ": 5433,
      "ĠØŃØ¯Ø§Ú©Ø«Ø±ÛĮ": 5434,
      "ĠØ®Ø²Ø§ÙħÛĮØ§": 5435,
      "Ø¹ÙģØ±Ø§ÙĨ": 5436,
      "ĠØ§ÙĦØ¬Ø²ÛĮØ±Ùĩ": 5437,
      "ĠÙħÙĦØ§ØŃØ¸Ùĩ": 5438,
      "ĠÙħØ¹Ø§ÙĪÙĨØª": 5439,
      "sp": 5440,
      "ĠÚ©Ø§Ø³ØªÙĩ": 5441,
      "Ú¯Ø§Ùħ": 5442,
      "ĠØ³Ø±Ú¯ÛĮØ±ÛĮ": 5443,
      "ĠÙģØ§ÙĤ": 5444,
      "ĠÙħØ´Ú©ÙĪÚ©": 5445,
      "ĠÙĨØ§ÙħØ´": 5446,
      "Ù¾Ø±ÙĪØ±": 5447,
      "ĠØ´Ø§Ø±Ø§Ú©": 5448,
      "Ù¾ØªØ±ÙĪ": 5449,
      "Ø¯Ø±Ø§ÙħØ¯ÙĩØ§ÛĮ": 5450,
      "ĠÙģØ§ÙĤØ¯": 5451,
      "ri": 5452,
      "Ú©ÙħØª": 5453,
      "ĠØ´Ø±ÛĮÚ©": 5454,
      "Ø¹Ø¯": 5455,
      "Ø§Ø¯ÛĮØªÛĮ": 5456,
      "ĠØ§Ø³Ø§ÙĨ": 5457,
      "ĠØ¨Ø±Ø§ÙĨÚ¯ÛĮ": 5458,
      "ĠØ±ÙĪÙ¾ÛĮÙĩ": 5459,
      "Ø§ØµØ±": 5460,
      "ĠØ§ÙĦÙĪ": 5461,
      "ĠØ§ØµÙĦØ§": 5462,
      "ĠÙģÙĪÙĦØ§Úĺ": 5463,
      "ĠØ³ÙĦØ·": 5464,
      "ĠÚ©ÛĮÙĦÙĪÚ¯Ø±ÙħÛĮ": 5465,
      "Ø§ÙħÙĪÙĨÛĮØ§Ú©": 5466,
      "Ø²ÙĪÛĮ": 5467,
      "ĠÙĨØ§Ø¨": 5468,
      "ÙĪÙĦØ§Øª": 5469,
      "Ø·Ø§Ùģ": 5470,
      "ĠÙĩØ±ØªÙĨ": 5471,
      "ĠÙħØ¯ØªÛĮ": 5472,
      "ĠØªØŃØ±Ú©": 5473,
      "ÙĪÙĦÛĮÙĨ": 5474,
      "ĠÙĪÙĤÙģÙĩ": 5475,
      "ĠØ³ÙĪØ¯Ø§Ú¯Ø±ÛĮ": 5476,
      "ĠØªÚ©ÙĨÙĪÙĦÙĪÚĺÛĮ": 5477,
      "ĠÙĪÚ©ÛĮÙĪÙħ": 5478,
      "ĠØ³Ø§ÙĪÙĩ": 5479,
      "ÙĦÛĮØ³Ùĩ": 5480,
      "ĠÙĤØ´": 5481,
      "ĠÙħØ´Ø§ÙĪØ±Ùĩ": 5482,
      "ĠÚ¯Ø§Ø²ÙĩØ§ÛĮ": 5483,
      "Ø³ÙĩØ§Ùħ": 5484,
      "ĠØ¯ÙĪØ³Øª": 5485,
      "ĠÙĨØ¸Ø±Ø§Øª": 5486,
      "Ġsn": 5487,
      "ĠÙĩÙħØ±Ø§ÙĩÛĮ": 5488,
      "ĠÙģØ´Ø§Ø±ÙĩØ§ÛĮ": 5489,
      "ĠÙ¾Ø§Ø³Ø§Ø±Ú¯": 5490,
      "ell": 5491,
      "ÙĪØ§ØŃØ¯ÙĩØ§ÛĮ": 5492,
      "ĠÚ©ÛĮÙĦÙĪÙħØªØ±": 5493,
      "ĠÙĨÙģÙĪØ°": 5494,
      "ĠØ±ÙĪØ³Ø§ÛĮ": 5495,
      "ĠØ§ÙħØ§Ø±ÛĮ": 5496,
      "ÙĨÚ¯ÛĮÙĨ": 5497,
      "ĠØ¨ÛĮÙĨÛĮÙħ": 5498,
      "Ø±Ø¨ÙĨØ¯": 5499,
      "ĠØ³ÙĪÛĮÛĮ": 5500,
      "ĠØ´Ø¨ØµÛĮØ±": 5501,
      "ĠØ¹ÙĦÛĮØ±Ø¶Ø§": 5502,
      "ĠØ§ÙĨØ¨Ø§Ø´ØªÙĩ": 5503,
      "ĠÙĦÙĩØ³ØªØ§ÙĨ": 5504,
      "ĠØ§Ø±ÚĺØ§ÙĨØª": 5505,
      "ĠÚ©Ø¨": 5506,
      "ĠÙ¾ÙĦÙĩ": 5507,
      "Ø¬Ø§Ø³Øª": 5508,
      "ĠØ±ÛĮØ´Ùĩ": 5509,
      "ĠÙĪØ²ÙĨÛĮ": 5510,
      "ĠØ§ÙĤØ³Ø§Ø·ÛĮ": 5511,
      "ĠØ±ÙħØ²Ø§Ø±": 5512,
      "ĠÙ¾Ø§Ø³Ø§Ø±Ú¯Ø§Ø¯": 5513,
      "Ú©ÙĪØ³": 5514,
      "ĠÚ©ÙĪØ±": 5515,
      "ĠØ´Ø§Ù¾": 5516,
      "ĠØ´ØºØ¯ÛĮØ±": 5517,
      "ĠØ´Ø§Ø²ÙĨØ¯": 5518,
      "ĠÙģØºØ¯ÛĮØ±": 5519,
      "Ø®ÙĦ": 5520,
      "ĠØªÙĪØ¬ÛĮÙĩ": 5521,
      "ÙģØ¹Ø§ÙĦ": 5522,
      "Ġgas": 5523,
      "ĠØ§ÙĨÙĤØ¨Ø§Ø¶ÛĮ": 5524,
      "ĠØ§ÙĨØ¹Ø·Ø§Ùģ": 5525,
      "ÙĨØ±Ùħ": 5526,
      "ĠØªØ§Ù¾ÛĮÚ©ÙĪ": 5527,
      "ĠØ®Ø§ÙĨ": 5528,
      "ĠÙģØ¬": 5529,
      "ØµØ§Ø±ÛĮ": 5530,
      "ĠØ§ÙħØ§Ø±ÙĩØ§": 5531,
      "ĠØ®ÙĪØ¯Ù¾Ø±Ø¯Ø§Ø²": 5532,
      "ĠØ§Ø¨ØªÚ©Ø§Ø±": 5533,
      "ĠÚ©ÙĨØ¯ÛĮ": 5534,
      "ĠØ§ØªØµØ§ÙĦ": 5535,
      "ĠÙ¾ÛĮÙĪØ³ØªÙĩ": 5536,
      "Ú¯Ø±Ø¯Ø´": 5537,
      "ÙĪÙĨÛĮÚ©": 5538,
      "Ø±ÙĤÙĨØ¯": 5539,
      "ĠØ¸Ø±ÙģØ´ÙĪÛĮÛĮ": 5540,
      "Ú¯ÛĮÙĦØ§": 5541,
      "ĠÙĤØ³": 5542,
      "ĠØ¹ÙĤÙĦ": 5543,
      "ĠÚĨÚ¯": 5544,
      "ĠØªØŃÙħÛĮÙĦ": 5545,
      "ĠÙĤØ·Ø¨": 5546,
      "ĠÙħÙĪØ¶ÙĪØ¹ÛĮ": 5547,
      "Ø§Ø¨ÛĮÚ©": 5548,
      "ĠÙĨÙħØ§ÛĮÙĨØ¯Ú¯ÛĮ": 5549,
      "ĠÚ©ÙĪØ«Ø±": 5550,
      "ĠØ¨Ú¯ÛĮØ±ÛĮÙħ": 5551,
      "ĠØ³ÙĪÙĦÙģ": 5552,
      "ĠÙ¾ÛĮØ´Ø±ÙģØªÙĩ": 5553,
      "ĠÙ¾ÙĩÙ¾Ø§Ø¯ÛĮ": 5554,
      "ĠØ¨Ø§ÙĪØ±ÙĨØ¯": 5555,
      "ĠØ§Ø¨Ø±Ø§ÙĩÛĮÙħ": 5556,
      "ĠØºÛĮØ±ÙħØ³Øª": 5557,
      "ĠØ¯Ø§ÛĮÙħÛĮ": 5558,
      "ĠØ¨Ú¯ÙĪÛĮÛĮÙħ": 5559,
      "ĠØ¨Ù¾Ø±Ø¯Ø§Ø²": 5560,
      "ĠØ®ÙģÙĨ": 5561,
      "ĠØ§ÙĨØ¶": 5562,
      "ĠØ§Ø±Ø§Ø¶ÛĮ": 5563,
      "Ø§Ø´Ùĩ": 5564,
      "ØªØ±ÙĪØ¯": 5565,
      "ĠÙ¾ÛĮØ´Ø±ÙĪ": 5566,
      "ÙĤÛĮØ¨": 5567,
      "ÙĪØ¨ÙĪØ³": 5568,
      "ĠØ´Ø¨ÙĨØ¯Ø±": 5569,
      "ĠÙħÙĨØ§Ø³Ø¨Ø§Øª": 5570,
      "ĠÚ©Ø§ÙħÛĮÙĪÙĨØª": 5571,
      "ĠÙ¾ÛĮÙħØ§ÙĨÚ©Ø§Ø±": 5572,
      "ĠÙĪØ§ØªØ³": 5573,
      "Ø²ØºØ§ÙĦ": 5574,
      "ĠØ±Ø²ÛĮÙĨ": 5575,
      "ĠÙĨØ§ØŃÛĮÙĩ": 5576,
      "Ø¨Ø§ÛĮÙĨ": 5577,
      "ĠÛĮØ®": 5578,
      "ĠØ¯Ø§Ø´Ø¨ÙĪØ±Ø¯": 5579,
      "ĠÙĨØ³Ø®Ùĩ": 5580,
      "ĠØªÚ©Ø°ÛĮØ¨": 5581,
      "ĠØ¯Ø§ÙħÙĨ": 5582,
      "ĠØ§Ø¹ØªØ¨Ø§Ø±Ø§Øª": 5583,
      "ĠØ§ÙģØ±ÛĮÙĤØ§ÛĮ": 5584,
      "ĠØ¯ÛĮÙ¾ÙĦÙħØ§Øª": 5585,
      "ĠØ®Ø±ÛĮØ¯ÙĩØ§ÛĮ": 5586,
      "ĠØ³Ø®ÙĨØ±Ø§ÙĨÛĮ": 5587,
      "ĠØ§ÙĦØ¬Ø²Ø§ÛĮØ±": 5588,
      "ĠØ¨ÛĮØ¯": 5589,
      "ĠØ§Ø³ØªÛĮÚ©": 5590,
      "Ø§ÙĤÛĮØ§ÙĨÙĪØ³ÛĮÙĩ": 5591,
      "ĠØ¨Ø§ÙĦØ§Ø³Øª": 5592,
      "ĠÙĨÙĤØ¶": 5593,
      "ÛĮØ§ÙĨÙĪØ³": 5594,
      "ĠØªÙĦÙĤÛĮ": 5595,
      "ĠÙ¾ÙĦÛĮØ³": 5596,
      "ĠÙĪØ³Ù¾": 5597,
      "ĠÚ©ÙĪÛĮØ±": 5598,
      "ĠØ´Ù¾Ø¯ÛĮØ³": 5599,
      "Ú¯ÙĨØ¯ÙĦÙĩ": 5600,
      "Ø®ÙĪØ±Ø§Ú©": 5601,
      "ĠØ³Ø±Ú©ÙĪØ¨": 5602,
      "Ø§ÙĨØ§": 5603,
      "ĠØ§ÛĮÙģ": 5604,
      "ĠÙ¾ÛĮÙĦÙĨ": 5605,
      "ĠØ¨Ø±ÙĪÛĮ": 5606,
      "ĠØ±ÙĪØ¨Ùĩ": 5607,
      "ĠÙĦØ¬": 5608,
      "ĠØ§ØªÙĪÙħ": 5609,
      "ĠÙĨÙĤÙĦÛĮÙĩ": 5610,
      "ĠÙħØ±Ø²ÛĮ": 5611,
      "ill": 5612,
      "Ú©Ø³Ø±": 5613,
      "ĠÙĨÛĮØªØ±Ø§Øª": 5614,
      "ĠÙĤØ²ÙĪÛĮÙĨ": 5615,
      "ĠÚ©Ø±ÙħØ§Ø´Ø§": 5616,
      "ĠÙ¾Ø§ÛĮØ¨ÙĨØ¯": 5617,
      "ÙĪØ§Ø±Ø¯Ø§Øª": 5618,
      "ĠØ§Ø±ÚĺØ§ÙĨØªÛĮÙĨ": 5619,
      "ĠØ´Ø§Ù¾Ø±Ú©": 5620,
      "ĠØ¨ÙĪ": 5621,
      "ĠÚ©Ø¬Ø§": 5622,
      "ÙĨØªØ§ÙĨ": 5623,
      "ĠÙħØ§ÙĨØ¯ÙĨ": 5624,
      "ĠÙĩÛĮØ¯Ø±ÙĪÚĺÙĨ": 5625,
      "ĠÙħØ³Ø§ÙģØ±ØªÛĮ": 5626,
      "ĠØ§ÙĦÙĪÙħÛĮÙĨÛĮÙħ": 5627,
      "Ø¯ÙĦ": 5628,
      "ÙĪØ®Ùĩ": 5629,
      "ĠÙĨØ¬Ø§Øª": 5630,
      "ĠØ§Ø³ØªÛĮ": 5631,
      "ĠØ§Ø³ØªØ§Øª": 5632,
      "ØŃÙĤÛĮÙĤÛĮ": 5633,
      "ĠÙħØ¹Ú©ÙĪØ³": 5634,
      "Ø¨ÙĩØ§ÙĨ": 5635,
      "ĠØ§Ø¹ØªØµØ§Ø¨": 5636,
      "ĠÚ¯ÙģØªÚ¯ÙĪÛĮ": 5637,
      "ĠÙĩÛĮØ¬Ø§ÙĨÛĮ": 5638,
      "ĠØ®Ø·Ø±Ø§Øª": 5639,
      "ĠÙ¾ÙĦØ§Ø³ØªÛĮÚ©": 5640,
      "Ġhsfo": 5641,
      "ØµÙģØ§": 5642,
      "ĠØ±ÙħØ²Ø§Ø±Ø²": 5643,
      "Ø¯Ø³ØªÙĩ": 5644,
      "ĠÚ©ÛĮØ³": 5645,
      "ÙĤÙĪØ·ÛĮ": 5646,
      "ĠØ§ÛĮØ§Ùħ": 5647,
      "ĠØ§Ø²ÙģØ±ÙĪØ´": 5648,
      "ĠÙ¾Ø¯": 5649,
      "ĠÙģØ³Ø§Ø²Ø§ÙĨ": 5650,
      "ĠØ³Ø§ÙĦÙħ": 5651,
      "ÛĮØªØ§": 5652,
      "ĠØ§ÙĪØ¬ÛĮ": 5653,
      "Ø¨ÙĩØ§ÛĮ": 5654,
      "ĠØ¯ÙĩÛĮØ¯": 5655,
      "ĠØ§Ø±ÙĪÙ¾Ø§ÛĮ": 5656,
      "Ø§Ø±Ø³ÙĨØ¬ÛĮ": 5657,
      "ĠØ³Ù¾Ø±": 5658,
      "ĠÙ¾Ø±Ø¯ÛĮØ³": 5659,
      "ÙħØŃÙĦÙĪÙĦ": 5660,
      "ĠÚĨØ´ÙħÚ¯ÛĮØ±ÛĮ": 5661,
      "ĠÙĤØ¯ÛĮÙħÛĮ": 5662,
      "ps": 5663,
      "Ø¹ØªÛĮ": 5664,
      "ĠØ§Ø¨Ø·": 5665,
      "Ø±Ø§ÛĮØ³": 5666,
      "Ġtu": 5667,
      "ĠØ´ÙģÙĨ": 5668,
      "Ø³Ù¾Ø±": 5669,
      "ĠÙ¾ÙĪØ²ÙĪÙĦØ§ÙĨ": 5670,
      "ĠÙĩÛĮØ¯Ø±ÙĪÚ©Ø±Ø¨ÙĨ": 5671,
      "Ø§ÙĨØªÛĮØ§": 5672,
      "ef": 5673,
      "ĠØ³ÙĪÙĤ": 5674,
      "Ø®ÙħÛĮØ±": 5675,
      "ĠØ§ÙħÙĨ": 5676,
      "ĠØ²Ø§ÙĨØªÛĮØ§": 5677,
      "Ø§ÙĪÛĮÙĨ": 5678,
      "ĠØ¯ÛĮÙĪØ§ÙĨ": 5679,
      "ang": 5680,
      "Ù¾ÙĪØ³ØªÙĩ": 5681,
      "Ø³Ø±Ø¨Ø§Ø±Ùĩ": 5682,
      "ØªØ±ÙĪ": 5683,
      "ĠÚ©ÙĪÙĦ": 5684,
      "ĠØ´Ø§ÙĪØ§ÙĨ": 5685,
      "ĠØ§Ø±Ø§Ø¯Ùĩ": 5686,
      "ĠØ³ÙģØ§ÙĨÙĪ": 5687,
      "ĠØ§ØªÙģØ§ÙĤØ§": 5688,
      "ÙħØ¯Ø§": 5689,
      "ĠØªØ±ÙĪØ±ÛĮØ³ØªÛĮ": 5690,
      "ĠØ¨ÛĮÙĪØªÛĮÚ©": 5691,
      "ĠØºÛĮØ±ÙħØ³ØªÙĤÛĮÙħ": 5692,
      "kd": 5693,
      "ldpe": 5694,
      "Ø´Ú©ÙĨ": 5695,
      "ĠÙĪÙħ": 5696,
      "Ø§Ø¯ÛĮÙħ": 5697,
      "ĠÙ¾Ø±Ùħ": 5698,
      "ĠÙĤØ±ÛĮØ¨": 5699,
      "ĠØ²Ø´": 5700,
      "Ø§ØµØ¯": 5701,
      "ĠØ´Ø¨Ø±ÛĮØ²": 5702,
      "Ú©Ø´ØªÛĮ": 5703,
      "ĠØ§ÛĮØ±Ø§Ø¯": 5704,
      "ĠØ´Ø§Ø±ÙĪÙħ": 5705,
      "Ø±Ø§ÙħØª": 5706,
      "ĠØ§Ø¶Ø·Ø±Ø§Ø±ÛĮ": 5707,
      "ĠØ¨Ø³ØªÚ¯ÛĮ": 5708,
      "ĠØªØ±Ø®": 5709,
      "ĠÚ©ÙĪÙĩ": 5710,
      "ĠÙĪØª": 5711,
      "Ø¨ÛĮØ´": 5712,
      "ĠØ§Ø³Ùħ": 5713,
      "ØºÙĪÙĦ": 5714,
      "ĠÚ©Ø´ÛĮØ¯Ùĩ": 5715,
      "ĠÙħØ´Ø±ÙĪ": 5716,
      "ĠÙĦØ§Ø³ØªÛĮÚ©": 5717,
      "ĠØªØ±Ø§ÙģÛĮ": 5718,
      "Ø¯ÛĮØ¯Ùĩ": 5719,
      "ĠØ§ØŃÙħØ¯": 5720,
      "ĠÙ¾Ø±ÙĪÙģÛĮÙĦ": 5721,
      "ĠÙĤØ±Ø§Ø±Ø¯Ø§Ø¯ÙĩØ§": 5722,
      "ĠÙĨÙĪØ¨Øª": 5723,
      "ĠÙĨÙĪØ³Ø§Ø²ÛĮ": 5724,
      "Ø§ÙģØ²Ø§": 5725,
      "ĠÙģØ¨Ø§ÙĩÙĨØ±": 5726,
      "Ú©ØªÛĮ": 5727,
      "ÙĤØª": 5728,
      "ĠØ®Ø§Øª": 5729,
      "ĠÙģØ§Ø³ÙħÛĮÙĨ": 5730,
      "Ø®Ø±": 5731,
      "ĠØ¨Ø§Ø²Ø®Ø±ÛĮØ¯": 5732,
      "ĠØ§Ø±Ø²Ø´ÛĮ": 5733,
      "ers": 5734,
      "Ø§Ù¾Ø³": 5735,
      "ĠØªÙĪØ§ÙģÙĤØ§Øª": 5736,
      "Ø§Ø³ÛĮØ§": 5737,
      "ĠÙħØ®Ø§Ø¨": 5738,
      "ĠØŃØ¶ÙĪØ±ÛĮ": 5739,
      "ĠØªØ¶ÙħÛĮÙĨÛĮ": 5740,
      "ĠÙħØ·Ø§ÙĦØ¹Ùĩ": 5741,
      "ĠÚ©ÛĮÙĦÙĪÙĪØ§Øª": 5742,
      "ĠÚ©Ø§ÙħØ§Ø¯ÛĮØªÛĮ": 5743,
      "ĠÙħØªØŃØ¯Ø§ÙĨØ´": 5744,
      "ÙģÙĪØ±ÙħØ§ØªÙĪØ±": 5745,
      "ĠØ¬Ø§Ø¨Ø¬Ø§ÛĮÛĮ": 5746,
      "ĠØ¨Ú¯": 5747,
      "Ø§ÙħÙĪÙĨ": 5748,
      "ÛĮÙĨØ§ÙĦ": 5749,
      "Ø§ÙģÙĦ": 5750,
      "ĠÚ©Ø´ÙĨØ¯Ùĩ": 5751,
      "ĠØ§ÙĤÛĮØ§ÙĨÙĪØ³": 5752,
      "Ø§Ø¹Ø¯": 5753,
      "ĠØ§ØªÛĮÙĦ": 5754,
      "ĠÙ¾Ø±ÙĪØªÛĮÛĮÙĨ": 5755,
      "ĠØªØ¨Ø¹Ø§Øª": 5756,
      "ĠØµØŃÙĨ": 5757,
      "ÙģØµÙĦ": 5758,
      "ĠØ¹ÙĨØ§ÙĪÛĮÙĨ": 5759,
      "ĠØŃÚ©ÙħØ±Ø§ÙĨÛĮ": 5760,
      "ĠÚ©Ø§Ø°": 5761,
      "ĠØ±ÙĨØ¬": 5762,
      "ĠÙĨØ§ÛĮØ¨": 5763,
      "Ø§ÙħÙĨ": 5764,
      "ĠÙħÙĪÙĦÛĮ": 5765,
      "ĠÙħØªÛĮÙĦ": 5766,
      "ĠØªÙĤØ¯ÛĮÙħ": 5767,
      "ĠØ³Ø§Ø²Ø¯": 5768,
      "ĠÙ¾Ø°ÛĮØ±Ø¯": 5769,
      "ĠØ¨Ø§ØªØ±ÛĮ": 5770,
      "ĠØ¨Ø±ÙĤØ±Ø§Ø±ÛĮ": 5771,
      "ĠØ´ØºÙĦ": 5772,
      "Ġ[": 5773,
      "ĠØ¯Ø²": 5774,
      "ĠØ´Ú¯ÙĪÛĮØ§": 5775,
      "ĠØ§Ø³ØªØ§Ú©": 5776,
      "Ù¾Ø§ÛĮ": 5777,
      "Ø²ÛĮÙĩ": 5778,
      "ĠÙħØ´ØªÙĤ": 5779,
      "ĠØºÙ¾": 5780,
      "ĠØ§ØŃØ³Ø§ÙĨ": 5781,
      "ĠÙĨÙĪØ§ÙĪØ±ÛĮ": 5782,
      "ĠØŃÙĦÙĤÙĩ": 5783,
      "ĠÙħØªÙĪØ¬Ùĩ": 5784,
      "ØªÙĪØ³Ø§": 5785,
      "ĠØºØ´ÙĩØ¯": 5786,
      "ĠÙĨÚ©ÙĨÙĨØ¯": 5787,
      "ĠØ¯ÙĪØ§Ø²Ø¯Ùĩ": 5788,
      "ĠÙħØªØ¹Ø§ÙĤØ¨Ø§": 5789,
      "ĠÙħÙĪÙĦÛĮØ¨Ø¯ÙĨ": 5790,
      "ĠØ¨Ø¨Ø±": 5791,
      "ÙħØ®": 5792,
      "Ø§Ø±Ø³ØªØ§ÙĨ": 5793,
      "ÙĦÛĮØ³ÛĮ": 5794,
      "ÙĤØ²ÙĪÛĮ": 5795,
      "ØµÙĨ": 5796,
      "ĠØ¨Ø§Ø²Ø³Ø§Ø²ÛĮ": 5797,
      "ĠØªÙĨÚ¯": 5798,
      "ĠØ§Ø¨Ø±": 5799,
      "ĠØ¨ÛĮÚ©Ø±": 5800,
      "ĠØµØŃÛĮØŃ": 5801,
      "ĠÙħÙĪØ³ÙĪÙħ": 5802,
      "ÙĪØªÛĮÙĦÛĮØªÛĮ": 5803,
      "ĠØ¨Ø§ÙĦØ§Ø¯Ø³Øª": 5804,
      "ĠØ§Ø³ØªØ«ÙĨØ§ÛĮÛĮ": 5805,
      "ĠØªØ±Ø®ÛĮØµ": 5806,
      "ĠÙħØªÙĩ": 5807,
      "Ø´Ø±Ùĩ": 5808,
      "ĠÙģØ§ÛĮØ±Ø§": 5809,
      "ĠØ¹ÙĤÛĮ": 5810,
      "ĠØºÛĮ": 5811,
      "ĠÙģØ±Ø§Ø³": 5812,
      "ĠØªÙĩØ§ØªØ±": 5813,
      "ĠØªØ¨Ø¹": 5814,
      "ĠØ¬ÙĪØ§Ø¯": 5815,
      "ĠØ±Ø¯ÛĮØ§Ø¨ÛĮ": 5816,
      "ĠÙĩÚ©ØªØ§Ø±": 5817,
      "ĠØ¹ÙĤÛĮØ¯Ùĩ": 5818,
      "ĠØ¨ÛĮØ³": 5819,
      "Ú©Ø±Ùĩ": 5820,
      "ÙĦÙĪØ¨": 5821,
      "ÙħØªØ±": 5822,
      "ĠØªØ±Ø§ÙĨØ³": 5823,
      "ĠØ¯Ø±Ø§Ø²": 5824,
      "ĠØ¨Ø±Ø¯Ùĩ": 5825,
      "ĠØ¹Ø¯Ø¯ÛĮ": 5826,
      "Ø°Ú©Ø±": 5827,
      "ĠØ§ÙħØ§ÙĨÛĮ": 5828,
      "Ġag": 5829,
      "ĠÙĩÛĮÙĪØ²": 5830,
      "Ġsa": 5831,
      "ĠØ¸ÙĩØ±": 5832,
      "ĠØªØ´Ø±ÛĮØŃ": 5833,
      "ĠØ§ØŃØªØ±Ø§Ùħ": 5834,
      "Ø·Ø¨Ø³": 5835,
      "est": 5836,
      "Ġq": 5837,
      "Ú©Ø´Øª": 5838,
      "Ø§ÛĮÙģ": 5839,
      "ĠÙĨØ·": 5840,
      "ĠØªÙĪØª": 5841,
      "ĠØ§Ø±Ø´": 5842,
      "ØºØ±": 5843,
      "ĠØ±Ø³ÛĮØ¯ÙĨØ¯": 5844,
      "ĠØ³Ø§Ø²ÙĪÚ©Ø§Ø±": 5845,
      "ĠØ³ÙĪØ§Ù¾": 5846,
      "ĠØ³Ù¾Ùĩ": 5847,
      "ĠØ§Ú©Ø³ÙĪÙĨ": 5848,
      "ĠÙħØ´Ú©ÙĦØ§ØªÛĮ": 5849,
      "ĠÙħØªÙĤØ§Ø¨ÙĦ": 5850,
      "ĠØªÙģØ§ÙĦÙĩ": 5851,
      "ĠØ¨Ø§Ø²ÛĮÚ¯Ø±Ø§ÙĨ": 5852,
      "und": 5853,
      "Ø³Ø§Ø±": 5854,
      "ĠØªØ§Ø²": 5855,
      "Ú¯Ø§": 5856,
      "Ø§ÙĦÚ©Øª": 5857,
      "ĠÙ¾Ø§ÙĪÙĦ": 5858,
      "ĠÙģØ§ÛĮÙĨ": 5859,
      "Ø³ÛĮÙĦÛĮØ³": 5860,
      "Ù¾Ø§Ø´ÛĮ": 5861,
      "ĠÙħÙĨØµ": 5862,
      "ØªÛĮÙĪ": 5863,
      "ĠÙģØ±Ø³Øª": 5864,
      "ĠØ·ÙĦØ§ÛĮÛĮ": 5865,
      "ĠØ¨Ø¯ÙĦÛĮÙĦ": 5866,
      "ĠØ´ÙĩØ±ÙĩØ§ÛĮ": 5867,
      "ĠÙħÙĨØªØ´Ø±Ùĩ": 5868,
      "ĠØªÙĦÙĪÛĮØ²ÛĮ": 5869,
      "Ú©ØªÙĪØ±": 5870,
      "ØªÙĪÙħØ§ÙĨ": 5871,
      "ĠØ³Ø®Ø§Ø´": 5872,
      "ĠÙ¾Ø§Ø±Ø§ÙģÛĮÙĨ": 5873,
      "ÙħØ±Ø§Ø±": 5874,
      "ĠÚ©Ø±Ø¬": 5875,
      "ĠÙĨØ¯Ø§Ø´ØªÙĨØ¯": 5876,
      "ĠÙħØŃØ³ÙĨ": 5877,
      "ĠØ¨Ø¨Ø±Ø¯": 5878,
      "ĠÙħØ§Ø¯Ø±": 5879,
      "ĠÙħÚ¯Ø±": 5880,
      "Ø§ÙĨÙĪÙĨÛĮ": 5881,
      "ĠØ³ÙħÙĨØ¯": 5882,
      "ĠÙ¾Ø±Ø§ÛĮØ³": 5883,
      "Ø±ÙĪÙĦ": 5884,
      "ĠØ§ÛĮÙĨÙĩØ§": 5885,
      "ĠØ¨Ø§Ø²Ø§Ø±Ø³Ø§Ø²": 5886,
      "ĠÙħØ¹Ø·": 5887,
      "ÙħØ¹Ø§ÙħÙĦ": 5888,
      "ĠØ²ÙħØ³ØªØ§ÙĨÛĮ": 5889,
      "ort": 5890,
      "ĠØ³ÙĦÙħØ§ÙĨ": 5891,
      "ĠØªÙĦÚ¯Ø±Ø§ÙħÛĮ": 5892,
      "ĠØ¹Ø²ÛĮØ²Ø§ÙĨ": 5893,
      "ĠÙħÙĪØ«Ø±Ùĩ": 5894,
      "ĠÚ©Ø§Ø°Ø¨": 5895,
      "ÙĪØ§ÙĨÙĩ": 5896,
      "ĠÙĨÚĺØ§Ø¯": 5897,
      "Ø§ÙħÙĦÛĮ": 5898,
      "ĠÙ¾Ø®ØªÙĩ": 5899,
      "ĠÙĩØ²Ø§Ø±ØªÙĪÙħØ§ÙĨ": 5900,
      "ĠØ§Ø¨ÙĪ": 5901,
      "ĠØ³ÛĮØ¨": 5902,
      "ĠÙħÙĤØ¯Ùħ": 5903,
      "ĠÙĨØ´Ø§ÙĨÚ¯Ø±": 5904,
      "Ú©ÙĪÛĮØ±": 5905,
      "ĠÙģØ±ÙĪÙĨØ¯": 5906,
      "ĠØ§Ù¾Ø§ÙĦ": 5907,
      "ØŃØ³Ø§Ø¨": 5908,
      "ĠØºÛĮØ±ÙĤØ§Ø¨ÙĦ": 5909,
      "ĠÙĦØ¬Ø³ØªÛĮ": 5910,
      "ØªÛĮØ±": 5911,
      "Ú©ÙĨØ¯": 5912,
      "ĠØ¯ÙĨØ§": 5913,
      "ĠØ§Ø²Ø³": 5914,
      "ĠÙĤÙĩ": 5915,
      "ĠØ³ÛĮÙĦÛĮØ³": 5916,
      "Ø§Ø·Ùħ": 5917,
      "ĠØªÙħØ§ÛĮÙĦÛĮ": 5918,
      "ĠØ®ÙĨÚ©": 5919,
      "Ġpmi": 5920,
      "Ø¯ÙĪÙĦØª": 5921,
      "ĠØªÙĦÛĮØ³Ùĩ": 5922,
      "ĠØ³ÛĮØ§Ø³ØªÛĮ": 5923,
      "ĠÙħÙĤØ§ØµØ¯": 5924,
      "Ø®ØµØµ": 5925,
      "Ġgdp": 5926,
      "ĠÙĨØ§Ø§ÙħÛĮØ¯": 5927,
      "Ù¾ØªØ±ÙĪØ´ÛĮÙħÛĮ": 5928,
      "ĠØªØ®ÙĦÙģØ§Øª": 5929,
      "ĠØ®ÙĦØ§ØµÙĩ": 5930,
      "Ø§ÙĨØ±ÚĺÛĮ": 5931,
      "ĠÙĪÛĮØ³": 5932,
      "Ú¯Ø³ØªØ±ÛĮ": 5933,
      "ĠÙħÛĮØ§ÙĨÛĮ": 5934,
      "ĠÙĩÙħØ³Ø§ÛĮ": 5935,
      "ĠØ²Ø§": 5936,
      "ĠØ§ÙĦÚ¯ÙĪÛĮ": 5937,
      "ĠÙĩØ²Ø§Ø±ØªÙĨ": 5938,
      "Ú¯Ø±Ø§Ùģ": 5939,
      "ÙģØ±Ø§ÙĪØ±": 5940,
      "ĠØŃØ³Ø¨": 5941,
      "ĠØªØ±ÙħÛĮÙĨØ§ÙĦ": 5942,
      "ĠÙ¾Ø§Ø³Ø¯Ø§Ø±Ø§ÙĨ": 5943,
      "ĠÙĤÙĦØ¹": 5944,
      "ĠÙħØ¯Ø§Ø±Ú©": 5945,
      "ĠÙĨØªÙĪØ§ÙĨØ³Øª": 5946,
      "ĠØ±ÙĪØ³ØªØ§ÛĮÛĮ": 5947,
      "ÙĨÛĮØ±": 5948,
      "ĠÙħÙĨØ¯Ø±": 5949,
      "Ø¨Ø°Ø±": 5950,
      "ĠØ³ØµÙĪÙģÛĮ": 5951,
      "ĠØ®Ø¯ÛĮØ²ÙĦ": 5952,
      "ÚĨØ±Ø§": 5953,
      "ĠØ®ÙĪØ¯Ú©": 5954,
      "ĠÙ¾Ø§ÙĦØª": 5955,
      "ÙĦÙĪØª": 5956,
      "ĠØªØ§Ø¨Ø¹Ùĩ": 5957,
      "ĠØ¨Ø±Ø³ÛĮÙħ": 5958,
      "ĠÚ¯Ø±ÙħØ§ÛĮØ´": 5959,
      "ina": 5960,
      "Ġus": 5961,
      "Ø®ÙĪØ§Ùĩ": 5962,
      "ĠØ§Ø¨Ø·Ø§ÙĦ": 5963,
      "ĠÙĩØ¬Ø±Øª": 5964,
      "Ø¨Ø¯": 5965,
      "ÙģØªØ¯": 5966,
      "ĠØ¹Ø§Ø¯ÙĦ": 5967,
      "ĠØ¯Ø§Ø¯Ú¯Ø³ØªØ±ÛĮ": 5968,
      "ĠÙ¾Ø³Ø§Ø¨": 5969,
      "ĠØªÙĦÙģØ§Øª": 5970,
      "ĠØªÚ©ÙħÛĮÙĦÛĮ": 5971,
      "ĠÙĩÙħØ§ÙĨÙĨØ¯": 5972,
      "ĠØ´Ø±Ø§Ø²": 5973,
      "ĠÙħØ±Ø§Ø¬Ø¹": 5974,
      "ĠÙħØªØºÛĮØ±ÙĩØ§ÛĮ": 5975,
      "ĠÙĩÙĨÚ¯Ø§Ùħ": 5976,
      "ad": 5977,
      "Ø³ÙĪØ±": 5978,
      "ĠØ§ÛĮÙģØ§": 5979,
      "ĠÙģØ²": 5980,
      "Ø§ÙĪÙ¾Ú©": 5981,
      "ĠÙħØªØ®ØµØµ": 5982,
      "ĠØ§Ø®Ø§Ø¨Ø±": 5983,
      "ĠÚ¯ÙĪØ´ØªÛĮ": 5984,
      "ĠÙ¾ÙĪÙĦØ´ÙĪÛĮÛĮ": 5985,
      "ÙħÛĮÙĦÚ¯Ø±Ø¯": 5986,
      "ĠÙ¾Ø§ÛĮÛĮØ²Ùĩ": 5987,
      "ĠØªÙĪÛĮÛĮØªØ±": 5988,
      "Ø²ÛĮØ±Ú¯Ø±ÙĪÙĩ": 5989,
      "ear": 5990,
      "Ġ=": 5991,
      "ÙĦÙħ": 5992,
      "ĠÙĤÙģÙĦ": 5993,
      "ĠØ§Ø±ÙĪÙħØ§ØªÛĮÚ©": 5994,
      "Ø§Ø³Ø§ÙĨØ³": 5995,
      "ĠÙħØªØ§ÙĦ": 5996,
      "ĠØ§ØªÙĪÙħØ§ØªÛĮÚ©": 5997,
      "ĠØ¨ÛĮØ§ÛĮØ¯": 5998,
      "ĠØ§ØµÙĦØ§ØŃÛĮ": 5999,
      "ĠØ³ÙģØ§Ø±Ø´Ø§Øª": 6000,
      "ÙħØ³Ú©ÙĨ": 6001,
      "ĠÙ¾ÙĩÙ¾Ø§Ø¯": 6002,
      "Ø®ÙĪØ¯Ø±ÙĪÙĩØ§ÛĮ": 6003,
      "Ø³ÙģÛĮØ¯": 6004,
      "Ø¹ÙħØ±Ø§": 6005,
      "ĠÚĨÙĨØ§ÙĨÚĨÙĩ": 6006,
      "om": 6007,
      "re": 6008,
      "si": 6009,
      "ÙħÙĨÛĮ": 6010,
      "ÙħØ§ÛĮØ¹Ø§Øª": 6011,
      "ĠÚ©Ø§Ø³Ù¾ÛĮÙĨ": 6012,
      "Ø¨Ú¯": 6013,
      "ÛĮÙĨÙĪ": 6014,
      "ĠÚ¯ÙħØ§ÙĨÙĩ": 6015,
      "Ø¬Ø±Ùħ": 6016,
      "Ù¾Ø±Ø³": 6017,
      "ØºØ±Ø§ÙħØª": 6018,
      "ĠÚ©Ø§Ø±Ø¨Ø±ÛĮ": 6019,
      "Ø§ÛĮØ±Ø¨Ú¯": 6020,
      "Ø§Ù¾Ø§Ø±ØªÙħØ§ÙĨ": 6021,
      "Ø±ÙħÛĮÙĪÙħ": 6022,
      "ĠØ´ÙĪØ±Ø§": 6023,
      "ÙĤØ·Ø±Ùĩ": 6024,
      "ĠÚ©ÛĮÙģÛĮ": 6025,
      "Ø³Ø§ÛĮØ±Ø¯": 6026,
      "Ġvg": 6027,
      "ĠØºÛĮØ±ÙĤØ§ÙĨÙĪÙĨÛĮ": 6028,
      "ÚĨØºÙĨØ¯Ø±": 6029,
      "ĠØ±ÙĤÛĮØ¨": 6030,
      "ÙĤØ¯": 6031,
      "ĠØ®Ø¯": 6032,
      "ĠØ®Ù¾Ø§Ø±Ø³": 6033,
      "ĠØ§Ø³ØªÙħØ±Ø§Ø±": 6034,
      "Ø¬Ø§Ø¹": 6035,
      "ĠÛĮÙĪØªÛĮÙĦÛĮØªÛĮ": 6036,
      "Ø§Ø³ØªØ§ÙĨ": 6037,
      "ĠÙħÙĦÛĮÙĪÙĨ": 6038,
      "ĠÙĨØ§ØªØ±Ø§Ø²": 6039,
      "ĠÙĤØ¶Ø§ÛĮÛĮÙĩ": 6040,
      "ĠØ¨Ø±Ø§ÙĪØ±Ø¯ÙĩØ§ÛĮ": 6041,
      "ĠØ«Ø¨Ø§ØªÛĮ": 6042,
      "ĠÙħÙĨØ¯Ø±Ø¬": 6043,
      "ĠØ¨ÙĪØ´ÙĩØ±": 6044,
      "ÙĦØ¹Ø§Ø¨": 6045,
      "ĠØ³Ø§Ø¨ÛĮÚ©": 6046,
      "ĠÙħØ¹ÛĮÙĨ": 6047,
      "ĠÙħØªØ±ÛĮÚ©": 6048,
      "ĠØªØ¬ÙħÛĮ": 6049,
      "Ġcon": 6050,
      "ĠØ§ÙĩØ±ÙħÛĮ": 6051,
      "ĠØ§Ú©Ø«": 6052,
      "ĠÙħØ³ÛĮØ±ÙĩØ§ÛĮ": 6053,
      "orts": 6054,
      "ĠØ§Ø²ÙħØ§ÛĮØ´ÛĮ": 6055,
      "ĠØ³Ø¹ÛĮØ¯": 6056,
      "ĠÙĪØ±Ø´Ú©Ø³ØªÚ¯ÛĮ": 6057,
      "ĠÙħØ´ØªÙĤØ§Øª": 6058,
      "Ø¨ÙĪØ¹": 6059,
      "ĠØ§Ø²Ø¨": 6060,
      "ĠÙħÛĮÙĦÛĮÙħØªØ±": 6061,
      "ĠØ¬ÙĪØ´": 6062,
      "Ø§Ú©Ø³ÛĮ": 6063,
      "ĠØ´Ø¯ÛĮÙħ": 6064,
      "ÙħÙĦÚ©": 6065,
      "ĠØ¯ÙĪÚ¯Ø§ÙĨÙĩ": 6066,
      "ĠÙħÙĤØ§Ø¯ÛĮØ±": 6067,
      "ĠØ§ÙĨÚ¯Ø§Ø±": 6068,
      "Ù¾ÛĮÙĪÙĨØ¯": 6069,
      "ĠØ²ÙĨÙĨØ¯": 6070,
      "ĠØ¨Ø®ÙĪØ§ÙĩØ¯": 6071,
      "ĠÙĪØ¯ÛĮØ¹Ùĩ": 6072,
      "ÚĨØ´ÙħÙĩ": 6073,
      "ĠØ´Ø´Ùħ": 6074,
      "Ø§Ø¶Ø¹": 6075,
      "ĠÙĨÙħÙĪØ¯ÙĨ": 6076,
      "ĠÙĪØ³Ø§ÛĮÙĦ": 6077,
      "ĠÚ©Ø±ÙħØ§ÙĨØ´Ø§Ùĩ": 6078,
      "ĠÙĪØ¸Ø§ÛĮÙģ": 6079,
      "ĠÙħØ¹ÛĮØ´Øª": 6080,
      "ĠØ³ÙĪÙ¾Ø±": 6081,
      "ĠØ¨ÙĪÙĦ": 6082,
      "ÙĦÙĨØ¯": 6083,
      "ĠÙģØ±ÙĪØ´Ø¯": 6084,
      "ĠÚ©Ø±Ø¯Ùħ": 6085,
      "ĠÙħØ´ØºÙĪÙĦ": 6086,
      "ĠØ¹ÙĦÙħ": 6087,
      "ĠÙħØ¯ÛĮØ±ÛĮØªÛĮ": 6088,
      "ĠØ´Ø¯ÛĮØ¯ÛĮ": 6089,
      "tion": 6090,
      "Ø°Ø®ÛĮØ±Ùĩ": 6091,
      "ÛĮÙĪÙĨ": 6092,
      "ĠÙ¾Ø§Øª": 6093,
      "ĠÙ¾Ø±ÙħÛĮÙĪÙħ": 6094,
      "ĠÙħÛĮÙĦÛĮØ§Ø±": 6095,
      "Ø§Ø³Ø§Ø±": 6096,
      "ĠØ²ÙĦ": 6097,
      "ĠÙħØŃØ±": 6098,
      "ĠØ§ÙĦØ´": 6099,
      "ĠÙħØ±Ú©Ø¨": 6100,
      "ØªØ¨Ø¯ÛĮÙĦ": 6101,
      "Ġttm": 6102,
      "ĠØ³Ø®ÙĪØ²": 6103,
      "ĠÙħØ´Ø®ØµØ§Øª": 6104,
      "Ġvi": 6105,
      "ÙĪØ§ØŃØ¯": 6106,
      "ĠÚ©ÙĨÚ¯Ø±Ùĩ": 6107,
      "ÙħØ§Ø³": 6108,
      "Ø³ÙĤ": 6109,
      "ĠØ§Ø³ØªØ§ÙĨÛĮ": 6110,
      "ØŃÙĦØ§ÙĦ": 6111,
      "Ø§Ø´Ø§Øª": 6112,
      "ĠÛĮÚ©Ø¨Ø§Ø±": 6113,
      "ĠÙĨÙħØ§ÛĮØ´": 6114,
      "ĠØ¹ÙħØ±": 6115,
      "ĠÙĪØ§ØŃØ¯ÙĩØ§": 6116,
      "ØªÙĤØ§Ø¶": 6117,
      "ke": 6118,
      "Ú©Ø±Ùħ": 6119,
      "ĠÚ©Ø§Ø¨ÛĮÙĨ": 6120,
      "ĠÙĪÙĨÙĪÛĮÙĨ": 6121,
      "ĠÙħÛĮØ±": 6122,
      "Ø·ÙĦØ§": 6123,
      "Ù¾Ø³": 6124,
      "ĠØ¶Ø±Ø¨": 6125,
      "Ġlldpe": 6126,
      "ÙħÙĪÙĦØ¯": 6127,
      "ĠØ¬ÙĨØ§Ø¨": 6128,
      "ĠØ³Ø±Ø§ÙĨØ¬Ø§Ùħ": 6129,
      "ĠØ²Ø±Ø§Ø¹ÛĮ": 6130,
      "ĠÙĨØ¯ÙĩØ¯": 6131,
      "ÙĪÚĺ": 6132,
      "ĠÙħÙħØª": 6133,
      "ĠØªØ§ÙĨ": 6134,
      "ĠØ±Ø§ØŃØª": 6135,
      "Ø¨Ø§Ø±Ø§ÙĨ": 6136,
      "ĠÙĤØ§Ø¹": 6137,
      "ĠØ§ÙĨØ¯ÙĪØ¯": 6138,
      "ĠØ¹Ø·Ùģ": 6139,
      "ĠÚ©ÙĨÙĪØ±": 6140,
      "ĠÙĨØ³Ø§Ø¬ÛĮ": 6141,
      "Ø¯ÙĪØ¯Ùĩ": 6142,
      "ĠØµÙĪØ±ØªØ¬ÙĦØ³Ùĩ": 6143,
      "Ø±Ø¨Ø¹": 6144,
      "Ġpro": 6145,
      "ĠÙģØ±ÙĪÚ©Ø´": 6146,
      "ĠÙĨÚ¯ÙĩØ¨Ø§ÙĨ": 6147,
      "ĠÙħØ§ÙĩÛĮØ§ÙĨÙĩ": 6148,
      "ĠÙħÙĨØŃÙĨÛĮ": 6149,
      "ket": 6150,
      "Ġep": 6151,
      "ÙĪÚĨ": 6152,
      "ĠØ¯Ø§Øº": 6153,
      "ĠÙĪØ¨Ùĩ": 6154,
      "ĠÙĪØ§Ø¶": 6155,
      "ĠÙĪØªÙĪØ³": 6156,
      "ĠØ±Ø¯Ùĩ": 6157,
      "ĠØ®Ú©Ø§ÙĪÙĩ": 6158,
      "ĠÙĤÙħ": 6159,
      "ĠÙħØ¹ÙĨ": 6160,
      "ĠÙ¾Ø§ÛĮØ¯Ø§Ø±ÛĮ": 6161,
      "ĠÚ©Ø§ÙĦØ§ÙĩØ§ÛĮÛĮ": 6162,
      "ĠØ°ÙĩÙĨ": 6163,
      "ĠØ§Ø·Ø±Ø§Ùģ": 6164,
      "ĠØ³Ø®Ø²Ø±": 6165,
      "ĠÙ¾ÙĨØ¬ÙħÛĮÙĨ": 6166,
      "ĠÙ¾ÛĮØ±Ø§ÙħÙĪÙĨ": 6167,
      "ĠØ§ÙĪÚ©Ø±Ø§ÛĮÙĨÛĮ": 6168,
      "ĠâĢĵ": 6169,
      "ÙħØ¯ÛĮ": 6170,
      "ĠÚ¯ÙĪØ³": 6171,
      "Ø±ÙĪØ²Ùĩ": 6172,
      "Ø§Ø¨ÙĪØ±": 6173,
      "Ù¾ÙĪØ±": 6174,
      "ĠÙħÙĪØ§Ø¶Ø¹": 6175,
      "ØµÙĪÙĦØ§Øª": 6176,
      "ĠØ§ÙģØªØ¯": 6177,
      "ĠØºÛĮØ±ÙħØ±": 6178,
      "Ġfc": 6179,
      "ĠÙĨÚ©Ø§Øª": 6180,
      "ĠÙħØ´Ø§Ø±Ú©ØªÛĮ": 6181,
      "ĠØ¬Ø¯Ø§": 6182,
      "ĠØ¨Ø¯Ø§ÙĨÛĮÙħ": 6183,
      "ĠØ¨Ø¯ÙĩÙĨØ¯": 6184,
      "ĠÙħÙĪØ±Ú¯Ø§ÙĨ": 6185,
      "ĠØŃØ¬Øª": 6186,
      "ĠÙħØŃÚ©ÙĪÙħ": 6187,
      "ĠÙĩÙĨØ±ÛĮ": 6188,
      "ĠØºÛĮØ±ÙħØ±ØªØ¨Ø·": 6189,
      "ĠØ§Ø¯Ø±": 6190,
      "Ú©Ú©": 6191,
      "Ø¨Ø·": 6192,
      "ÙĪØ±Ø§ÙĨ": 6193,
      "ĠÙħÙĨÙĪØ·": 6194,
      "ĠØ´Ø¯ÙĪ": 6195,
      "ĠÚ©Ø§Ø±Ø§ÛĮÛĮ": 6196,
      "ĠØ¯ÛĮÚ¯": 6197,
      "ĠØ¯Ø§Ø±ÙĪØ³Ø§Ø²ÛĮ": 6198,
      "ĠØ³ÛĮÙĦÛĮÚ©": 6199,
      "ĠØ¨Ø´ÙĪØ¯": 6200,
      "ÙĪÙ¾Ú©": 6201,
      "ĠØ§ØµÙĪÙĦ": 6202,
      "ĠØ§Ø±Ø¯ÙĨ": 6203,
      "Ġbet": 6204,
      "ĠÚ¯Ø±Ø¯Ø´Ú¯Ø±ÛĮ": 6205,
      "ĠØ®Ø§ÙĨÙĪØ§Ø±ÙĩØ§ÛĮ": 6206,
      "ĠØ¯ÙĪØ§Ø²Ø¯ÙĩÙħ": 6207,
      "ahm": 6208,
      "ĠÙĨÙĪØ´Ø§Ø¨Ùĩ": 6209,
      "ÙĨØ§Ø´ÛĮ": 6210,
      "ĠÙħÙ¾ÙĨØ§": 6211,
      "ĠÚ©Ø§ÙħØ§": 6212,
      "ĠÚ©Ø²ØºØ§ÙĦ": 6213,
      "Ø§ÙħØ§Ø¯Ú¯ÛĮ": 6214,
      "Ø¶Ø§ÙĨ": 6215,
      "ĠØ¨Ø±Ø§ÛĮØª": 6216,
      "ĠÙħØ¹Ø±Ø¶": 6217,
      "ĠØ¯Ø§Ø±Ø§ÙĨ": 6218,
      "ĠÙħØµØ·ÙģÛĮ": 6219,
      "ĠØ³Ø±ÙĪØ¯": 6220,
      "ĠØŃØ§ÙĦÛĮÚ©Ùĩ": 6221,
      "ĠÙħØ·Ø§ÙĦØ¨": 6222,
      "ĠØªØµÙħÛĮÙħÛĮ": 6223,
      "Ø¹Ø¨ÛĮØ¯": 6224,
      "ĠÙħØ®ØµÙĪØµ": 6225,
      "ØµØ¯Ùģ": 6226,
      "ĠØ§ÙĨØªÙĤØ§ÙĦÛĮ": 6227,
      "ĠØ¬Ø¯ÛĮØª": 6228,
      "ĠØ¬Ø°Ø§Ø¨ÛĮØª": 6229,
      "ĠØªØ§Ø¬Ø±Ø§ÙĨ": 6230,
      "ĠÚ©Ø§Ø±ÙħÙĨØ¯Ø§ÙĨ": 6231,
      "ĠÙĩØ±Ú©": 6232,
      "ĠØ³ØµÙģÙĩØ§": 6233,
      "ĠØ¨ÙĩØ§Ø±Ùĩ": 6234,
      "ĠØ§Ø³ØªØ§Ø¯": 6235,
      "Ø¬Ø±Ø§ÛĮÙħ": 6236,
      "ĠÚĨØ§Ø¯": 6237,
      "ĠÙĩÙħØªÛĮ": 6238,
      "ĠÙħØŃÚ©Ùħ": 6239,
      "ĠØ·Ø¨ÛĮ": 6240,
      "ĠØ®ÙĪØ§ÙĨØ¯": 6241,
      "Ø§ÙĤØ±": 6242,
      "ĠØ¬ÙĩØ±ÙħÛĮ": 6243,
      "Ø²ÛĮÙĨÚ¯": 6244,
      "Ġcn": 6245,
      "ĠØ´ÙĩØ±ÙĪ": 6246,
      "ĠØ¨Ø¹Ø¶Ø§": 6247,
      "ĠÙĨÛĮØ³ØªÛĮÙħ": 6248,
      "ĠÙ¾Ø§Ú©Øª": 6249,
      "ĠØ§Ø°Ø¹Ø§ÙĨ": 6250,
      "ĠØªØ¯Ø§Ø¨": 6251,
      "Ġrep": 6252,
      "ĠÙĨØ§ÚĨ": 6253,
      "ĠØ´Ø§ÙĩÛĮÙĨ": 6254,
      "ĠØ¬Ø§ÙħØ¯Ø§Øª": 6255,
      "ex": 6256,
      "uc": 6257,
      "ĠØ¨Ù¾ÛĮÙĪÙĨØ¯": 6258,
      "ØµÙĦ": 6259,
      "ÚĨÙĨ": 6260,
      "ĠØ§Ø±ÛĮØ³": 6261,
      "Ù¾ÙĪØ²": 6262,
      "ĠÙħÛĮÙĦÛĮØ§Ø±Ø¯ÛĮ": 6263,
      "ÚĺÚ¯ÛĮ": 6264,
      "ĠÚ©Ø´ÛĮØ¯": 6265,
      "Ø§ÙĤØ¨": 6266,
      "Ø¨ÙĦÙĪÚ©": 6267,
      "ĠÙĦÛĮØ±": 6268,
      "ĠÙĦÙĪØ¨": 6269,
      "ĠØ§ÙĨØ¯Ø§Ø®Øª": 6270,
      "ĠØ±Ø³Ø§ÙĨ": 6271,
      "ĠÙħØ¨Ø¯Ø§": 6272,
      "ĠÙ¾Ø±Ø¯Ø§Ø®ØªÙĩ": 6273,
      "ĠÙģÙĪÙĦØ§ÛĮ": 6274,
      "ĠØªÙĪØ§ÙģÙĤÙĨØ§ÙħÙĩ": 6275,
      "ĠÚ¯Ø±Ø§ÙĨÛĮ": 6276,
      "ĠÚ©ÙĪØªØ§ÙĩÛĮ": 6277,
      "ĠØ±ÙĩØ¨Ø±Ø§ÙĨ": 6278,
      "ĠÙ¾ÙĨÛĮØ±": 6279,
      "ĠØ³Ø§Ø±ÙĪÙħ": 6280,
      "ĠØ¨Ø§ÛĮØ³Øª": 6281,
      "ĠØªÙ¾Ø³ÛĮ": 6282,
      "ĠÚ©Ø§ØºØ°ÛĮ": 6283,
      "ĠÛĮÙĪÙĨØ§ÙĨ": 6284,
      "ĠØ«Ø§ÙĨÙĪÛĮÙĩ": 6285,
      "ĠØ¨Ø§Ø²Ø±Ú¯Ø§ÙĨ": 6286,
      "pp": 6287,
      "Ġec": 6288,
      "Ø§ÚĺÙĩ": 6289,
      "Ø²Ø§Ø¯Ùĩ": 6290,
      "Ø§ÙĦØ¨Ø±": 6291,
      "ĠØ¬ÙĪØ±": 6292,
      "ĠÙħÙĪØ¨": 6293,
      "ĠÚ©ÙĦØ±": 6294,
      "Ú¯ÛĮØ±Ø§ÙĨÙĩ": 6295,
      "Ø§Ø¸ÙħÛĮ": 6296,
      "ØªØ³ÙħÙĩ": 6297,
      "ĠÙĨØ¨Ø§ØªÛĮ": 6298,
      "ĠÙħØ¬ÙĪØ²ÙĩØ§ÛĮ": 6299,
      "ĠÙ¾ØªØ±ÙĪÙ¾Ø§ÙĦ": 6300,
      "ĠØ³ØªØ±Ø§ÙĨ": 6301,
      "ĠÚ©Ø§ÙĨØªÛĮÙĨØ±ÛĮ": 6302,
      "di": 6303,
      "ek": 6304,
      "Ú©Ø³ÛĮ": 6305,
      "ĠÙħÚ©Ø§ÙĨ": 6306,
      "ĠØ´Ø§ÛĮØ¹Ø§Øª": 6307,
      "ÛĮØ±Ø§": 6308,
      "ĠÚ¯Ø°Ø±Ø¯": 6309,
      "ÙĨÙĪØ¬": 6310,
      "ĠØ§ÙĨØªØ³": 6311,
      "ĠØªÙħØ§Ø´": 6312,
      "Ġpd": 6313,
      "ĠØ¨ØŃØ±ÛĮÙĨ": 6314,
      "ĠØ§ØªÙģØ§ÙĤØ§ØªÛĮ": 6315,
      "Ø§ÚĨÛĮ": 6316,
      "ĠÙĨØ§ÙħØ´Ø®Øµ": 6317,
      "ĠØªÙĪØªØ§ÙĦ": 6318,
      "ĠØ±ÙħÙ¾ÙĨØ§": 6319,
      "Ø¨ÙĤ": 6320,
      "Ø¨Ø§Ø¹": 6321,
      "ĠÚ¯Ø§ÙĩÛĮ": 6322,
      "ĠØµØ¨Ø±": 6323,
      "ØºØ°": 6324,
      "ĠØ¯ÙĩÙĨØ¯Ú¯Ø§ÙĨ": 6325,
      "ĠØ§ÙĦØ¹ÙħÙĦ": 6326,
      "ĠØµÙĪØ±ØªØŃØ³Ø§Ø¨": 6327,
      "ĠØ§Ø®ØªÙĦØ§ÙģØ§Øª": 6328,
      "ĠÙħÙģÛĮØ¯": 6329,
      "ĠØ§Ø³ÙĤØ§Ø·ÛĮ": 6330,
      "ĠØ±ÙĪØŃØ§ÙĨÛĮ": 6331,
      "ĠØªØ§Ø²Ú¯ÛĮ": 6332,
      "ÛĮÙĪ": 6333,
      "Ø±Øº": 6334,
      "ĠÚ©Ù¾Ø±ÙĪØ±": 6335,
      "ĠØ¯Ø±Ø¯": 6336,
      "Ø¨Ø§ÛĮØ¯": 6337,
      "ĠØ³ØºØ±Ø¨": 6338,
      "ÙģÛĮÙĨ": 6339,
      "ĠÙ¾Ø±Ùĩ": 6340,
      "ĠÙģÙĤØ±": 6341,
      "ĠØ§Ø±Ø³Ø§ÙĦÛĮ": 6342,
      "Ø¬ÙĩØ±Ùħ": 6343,
      "ĠØ§ÙĨØ¯ÛĮØ´": 6344,
      "ĠÚ©ÙĦØ§Ùģ": 6345,
      "ĠØ³Ø±ÚĨØ´ÙħÙĩ": 6346,
      "ĠØ§ÙĪØ±Ø§Ø³ÛĮØ§": 6347,
      "ĠØµØ¯Ø§ÛĮ": 6348,
      "ĠØ§Ø¶Ø§ÙģØ§Øª": 6349,
      "ĠÙģØ±ÙĩÙĨÚ¯": 6350,
      "ĠØ³ÛĮÙĨÙĪÙ¾Ú©": 6351,
      "ĠØ¹Ø§Ø¯ÙĦØ§ÙĨÙĩ": 6352,
      "ĠØ´ÙĩØ±ÙĪÙĨØ¯Ø§ÙĨ": 6353,
      "ĠØ§ÙĨØªØ³Ø§Ø¨ÛĮ": 6354,
      "ul": 6355,
      "ÛĮØ³Ùĩ": 6356,
      "ĠÚ©Ø·Ø¨Ø³": 6357,
      "ĠÙĪØ§Ø¬": 6358,
      "ĠÙĪÙĩØ²ÛĮÙĨÙĩ": 6359,
      "ÚĨØ±Ø¨ÛĮ": 6360,
      "ÛĮØªÙĪÙĨ": 6361,
      "ĠØ§Ø±Ø²ÙĨØ¯Ú¯ÛĮ": 6362,
      "ĠÚ©ÙĦÙĪØ®Ùĩ": 6363,
      "Ø±Ø§ØªÙĪØ±": 6364,
      "ĠÙħØ·Ø¨ÙĪØ¹": 6365,
      "ĠÙ¾Ø§Ø³Ø®Ú¯ÙĪÛĮÛĮ": 6366,
      "ĠØ¬Ø§ÙħØ¨ÙĪ": 6367,
      "Ú¯ÙĦØ³ØªØ§": 6368,
      "ĠØ³ÙĦÙĪÙĦ": 6369,
      "ĠØ³Ø¯ÙĪØ±": 6370,
      "Ø¬ÙĨÙĪØ¨": 6371,
      "Ø¨ÛĮÙĦØª": 6372,
      "ĠØ±ÛĮÛĮØ³Ùĩ": 6373,
      "ÛĮØ¯Ø±ÛĮØ¯": 6374,
      "ĠÙĨÛĮØ§Ø²ÛĮ": 6375,
      "Ġac": 6376,
      "ĠÙ¾ÙĦÛĮØª": 6377,
      "ĠØ³Ø§Ø®ØªØ§Ø±ÛĮ": 6378,
      "ĠÙħØ³ØªØ¹ÙħÙĦ": 6379,
      "ĠØ³Ø±ÛĮØ¹ØªØ±": 6380,
      "ĠØ¨Ø¨ÛĮÙĨÛĮÙħ": 6381,
      "Ø¬ÙĪÛĮØ§ÙĨ": 6382,
      "ÙĪÚ¯Ø±Ø§Ùģ": 6383,
      "Ú©Ø§ÛĮÙĪ": 6384,
      "ĠÙħÙĤÛĮ": 6385,
      "ĠØ±Ú¯": 6386,
      "ØªÛĮÙĪØ¨": 6387,
      "ÙĪÛĮØ§ÙĦ": 6388,
      "ĠØ§ØªØ§ÙĨ": 6389,
      "ĠØ¹ÙħØ±Ø§ÙĨÛĮ": 6390,
      "ĠØ±Ø³ÙħØ§": 6391,
      "Ø´Ø±Ø¨Øª": 6392,
      "Ú©ÙħØ±Ø¨ÙĨØ¯": 6393,
      "Ú©ÙħØ¨Ø§ÛĮÙĨ": 6394,
      "ĠÙ¾Ø§Ø¯ÙħØ§ÙĨÛĮ": 6395,
      "ĠØ®ÙħØŃØ±Ú©Ùĩ": 6396,
      "ØªØ®ÙģÛĮÙģØ§Øª": 6397,
      "pvp": 6398,
      "ĠÙĪØ¨Ø¯ÙĩÛĮÙĩØ§ÛĮ": 6399,
      "ÙħØ±Ø¨": 6400,
      "ĠÙĪØ«ÛĮ": 6401,
      "ĠØ³ØŃ": 6402,
      "ĠØ§ÛĮÙĨØ¯": 6403,
      "ĠØ¹Ø¬": 6404,
      "Ø§Ø³Ú©": 6405,
      "Ù¾Ø²Ø´Ú©ÛĮØ§ÙĨ": 6406,
      "Ø§ÙĤØ¹": 6407,
      "ÙħÛĮÙĨÙĪ": 6408,
      "Ø§ÙĨÙĪÙģ": 6409,
      "Ġpta": 6410,
      "ĠÙģØ±Ø¯ÛĮ": 6411,
      "ĠÙĪØ§Ú¯ÙĨ": 6412,
      "ĠØ¬ÙĪØ§Ø¨": 6413,
      "ĠÙħÙĤØ·Ø¹ÛĮ": 6414,
      "ĠÙ¾Ø§ÛĮØ¨ÙĨØ¯ÛĮ": 6415,
      "ev": 6416,
      "ĠÙħØ§Ø¨Ùĩ": 6417,
      "ĠÙĤØ¯Ùħ": 6418,
      "Ø®Ø§Ùħ": 6419,
      "Ø±Ú©ÙĪØ±Ø¯": 6420,
      "Ø§Ø³ÙĩÙħ": 6421,
      "Ù¾ÙĨØª": 6422,
      "ĠÙħØªØ±ÛĮ": 6423,
      "ĠØ§Ø¨ÙħÛĮÙĪÙĩ": 6424,
      "ĠØ§Ø¹Ø¶Ø§": 6425,
      "ĠØ¨ÛĮÙĨØ¯": 6426,
      "ÙĪÙĤÙĪØ¹": 6427,
      "ĠØ§Ø³ÛĮØ§ØªÚ©": 6428,
      "ĠÙĪÛĮÚĺÚ¯ÛĮ": 6429,
      "ĠØªØ§Ø«ÛĮØ±Ø§Øª": 6430,
      "ĠÙģØ±ÙĪÛĮ": 6431,
      "ĠØ²Ø¯ÙĨØ¯": 6432,
      "ĠÙħØ·Ø§ÙĦØ¨Ùĩ": 6433,
      "ĠÙħØ±Ø²ÙĩØ§ÛĮ": 6434,
      "ĠÙħÙĪÙĦØ¯Ø³Ø§Ø²ÛĮ": 6435,
      "ĠÙħØªØ±ÙħØ±Ø¨Ø¹": 6436,
      "ĠØ³Ø§Ø±Ø§Ø¨": 6437,
      "ÙħØ¯ÛĮØ±Ø¹Ø§ÙħÙĦ": 6438,
      "ĠØ§ÙĦÙģÛĮÙĨ": 6439,
      "ÙħØ§ÙĦ": 6440,
      "Ø§Ø±ÙĪØ³": 6441,
      "ĠÚ©Ø§ÛĮ": 6442,
      "ĠÙ¾ÙĨØªØ§ÙĨ": 6443,
      "ĠØªÙĨÙĩØ§ÛĮÛĮ": 6444,
      "ĠØ¨ÙĨØ²ÛĮÙĨÛĮ": 6445,
      "ĠÙħØ§Ø²ÙĪØª": 6446,
      "ĠØ¨ÙĨÛĮØ§Ø¯": 6447,
      "Ġkpl": 6448,
      "ĠÙħØªØ¹ÙĦÙĤØ§Øª": 6449,
      "ĠØ§ÙĦØ²Ø§ÙħÛĮ": 6450,
      "ĠÙĪØ³ÛĮÙĦÙĩ": 6451,
      "ĠØ§ÙĨØŃÙĦØ§ÙĦ": 6452,
      "ĠØºÙĦØ¨Ùĩ": 6453,
      "ĠÙģØ²Ø±ÛĮÙĨ": 6454,
      "ĠÙĪØ«ÛĮÙĤÙĩ": 6455,
      "Ġkpler": 6456,
      "ong": 6457,
      "Ø§ÙħÚ©": 6458,
      "ÙģØ§ÛĮÛĮ": 6459,
      "Ø¹Ø¯ÛĮ": 6460,
      "ĠÙĤØ§Ø·Ø¹": 6461,
      "ØµØ§Ø±": 6462,
      "ĠØ§ÙħÛĮ": 6463,
      "ĠØ²ÛĮØªÙĪÙĨ": 6464,
      "Ø§ÙĪØ±ÙĩØ§ÛĮ": 6465,
      "ĠÙ¾ÛĮØ´Øª": 6466,
      "ĠÚ©ÙĦØ§Ùĩ": 6467,
      "ĠØ°ÛĮ": 6468,
      "ĠÙ¾ÙĦØ§Ú©": 6469,
      "Ġbr": 6470,
      "ĠÙħØ·Ø§ÙĦØ¹Ø§Øª": 6471,
      "ĠÚĨØ±Ø§Øº": 6472,
      "ĠØ¨ÙĪÙĦØªÙĨ": 6473,
      "mb": 6474,
      "Ø¯ÛĮÙĨ": 6475,
      "ĠØªØ§Ù¾": 6476,
      "ÛĮØ±Ø§ÙĦ": 6477,
      "Ø±Ú©Ø§Ø±Ø§ÙĨ": 6478,
      "ĠØ§ÙħØ´Ø¨": 6479,
      "Ø¨ÙĦÙĪÙħ": 6480,
      "ĠÚ©Ø§Ø±Ø§": 6481,
      "ĠØ¯Ø³ØªÙħØ²": 6482,
      "Ġmto": 6483,
      "ĠØ¸Ø§Ùĩ": 6484,
      "ĠØ³ÙĤØ§ÛĮÙĨ": 6485,
      "Ġttf": 6486,
      "ÙĨØ´ÛĮÙĨ": 6487,
      "ĠØªØ§Ø¨Ø³ØªØ§ÙĨÛĮ": 6488,
      "Ø¸ÙĩÙĪØ±": 6489,
      "ÙħÙĤØ§ÛĮØ³Ùĩ": 6490,
      "ĠØŃÚ©ÙĪÙħ": 6491,
      "ĠØ³ÙĨÙĪØ§ØªÛĮ": 6492,
      "ĠÙĪØµÙĨ": 6493,
      "ĠØµØ§ØŃØ¨": 6494,
      "ĠÚ©Ø±ÙĪÙħÛĮØª": 6495,
      "ØªÙĪØ±ÛĮ": 6496,
      "Ø³Ø±Ùħ": 6497,
      "Ø²ÙĦÛĮ": 6498,
      "Ø¨Ø±Ø§ÛĮ": 6499,
      "ÙĦÛĮØŃ": 6500,
      "Ø§Ú©Ø§ÛĮÙĪ": 6501,
      "Ø§ÛĮÙĦÙĪÙĨ": 6502,
      "ĠØ§Ø´Ú©Ø§Ø±": 6503,
      "Ġbo": 6504,
      "ĠÙħÙĦØ§ÛĮÙħ": 6505,
      "Ú¯Ø²Ø§": 6506,
      "ĠØ¨Ø±Ø¬Ø§ÙħÛĮ": 6507,
      "ĠØ¬ÙĨÚ¯ÛĮ": 6508,
      "ĠØ´Ú©Ø§ÛĮØª": 6509,
      "Ø¹ÙħÙĦÚ©Ø±Ø¯": 6510,
      "ore": 6511,
      "ĠØ¨ÛĮØ§ÙĨÚ¯Ø±": 6512,
      "ĠØ¨ØªØ§Ø³ÙĩÙħ": 6513,
      "ĠØ§Ø«Ø±Ú¯Ø°Ø§Ø±ÛĮ": 6514,
      "ĠÙģØ±Ø²ÙĨØ¯Ø§ÙĪØ±ÛĮ": 6515,
      "ĠØ²ÙĨÚ¯Ø§ÙĨ": 6516,
      "ĠØ§ÙģØ±ÛĮÙĨÛĮ": 6517,
      "ĠØ§ÛĮÙģØ§ÛĮ": 6518,
      "ØªØ§ÛĮØ¯": 6519,
      "Ø´ÙĪØ±": 6520,
      "ĠÚ©Ú¯ÙĩØ±": 6521,
      "ĠØ§Ø³ÙħØ§ÙĨ": 6522,
      "ØŃØ¶": 6523,
      "ĠÙħØ§ÙĩÛĮØª": 6524,
      "Ù¾ÛĮÙĦÙĨ": 6525,
      "Ø§ÙĪØ§": 6526,
      "ĠÙħØªÚ©ÛĮ": 6527,
      "ÙĪÛĮÚĨ": 6528,
      "ĠÙĦØ·": 6529,
      "ĠØ¨Ø²ÙĪØ¯ÛĮ": 6530,
      "ĠÙħØŃÙħÙĪØ¯": 6531,
      "ĠØªÚ©ÛĮÙĩ": 6532,
      "ĠØ¨Ø§Ø²Ú¯Ø´ØªÙĩ": 6533,
      "ĠØ³Ø±Ø§Ø³Ø±ÛĮ": 6534,
      "ĠØ§Ø²ÙħØ§ÛĮØ´": 6535,
      "ĠÙħØ§Ø¬Ø±Ø§ÛĮ": 6536,
      "ĠØ±Ø§ÙĨØ§": 6537,
      "ĠÙħÙĦØ§ÙħÛĮÙĨ": 6538,
      "ÛĮÛĮ": 6539,
      "Ø¯ÙĨØ§": 6540,
      "ĠØ¯ÙĪÙĨ": 6541,
      "ĠØªØ³Øª": 6542,
      "ĠÙĪØ³Ùĩ": 6543,
      "Ø²ÙĦÙĩ": 6544,
      "ĠØ§Ø³ØªÙĩ": 6545,
      "Ø±ÙĪØ³": 6546,
      "ØµØ§ÙĦØ§Øª": 6547,
      "Ø®Ø§ÙĨØ¯ÙĪØ²ÛĮ": 6548,
      "Ø§Ø±Ø¯Ø§ÙĨ": 6549,
      "ĠØ§ÙĨØ§ÙĨ": 6550,
      "ĠØ±ÙĪÚ©Ø´": 6551,
      "ĠØµÛĮ": 6552,
      "ĠÙħØ¯ÙĨØ¸Ø±": 6553,
      "ĠÙĨØ´Ø±ÛĮÙĩ": 6554,
      "ĠØ¯Ø³ØªØ§ÙĪØ±Ø¯": 6555,
      "ĠØªØ¬Ø²ÛĮÙĩ": 6556,
      "ÙģÛĮØ¨Ø±": 6557,
      "ĠØ³Ù¾ÙĩØ±": 6558,
      "ĠØ´ÙĪØ±ÙĪÙĨ": 6559,
      "ĠÙ¾ÙĨØ¬Ø±Ùĩ": 6560,
      "ĠÚĨÙĨÛĮÙĨÛĮ": 6561,
      "ĠØ¹Ø¬ÛĮØ¨ÛĮ": 6562,
      "ĠÙħÙĤÛĮØ§Ø³": 6563,
      "ĠØ³ØŃØ±": 6564,
      "ÙĪØ§Ø²": 6565,
      "Ø¨ÛĮÙĨÛĮ": 6566,
      "ĠÙģØ¶Ø§ÛĮÛĮ": 6567,
      "Ø±Ø§ÙĨÙĦ": 6568,
      "ĠÚ©ÙĨØªÙĪØ±": 6569,
      "ĠÙģØ±Ø§Ùħ": 6570,
      "ĠÙģØ±Ø§Ø®": 6571,
      "ĠÚ©Ø§Ø±Ø§ÙħØ¯": 6572,
      "Ø³ÙĩÙĨØ¯": 6573,
      "Ġcpi": 6574,
      "ĠØªØ³ÙĦÛĮØŃ": 6575,
      "ĠØªÙĪØ¶ÛĮØŃØ§Øª": 6576,
      "ĠÙħÙĨØ¸Ùħ": 6577,
      "ĠÙĨØ®ÙĪØ§ÙĩÙĨØ¯": 6578,
      "ĠØ§ØªÚ©Ø§ÛĮ": 6579,
      "lc": 6580,
      "ÙĦÙħØ§ÙĨ": 6581,
      "ÙĦØ§ÙĦØ§Øª": 6582,
      "ĠØ¯Ø§Ø³ØªØ§ÙĨ": 6583,
      "ÙĦÛĮØ§ÙĨÙĪÙģ": 6584,
      "ÙĪÙĨÚ¯ÛĮ": 6585,
      "Ø§ÙĨÛĮØ§ÙĩÙĪ": 6586,
      "ĠÙħØ´Ú©ÛĮ": 6587,
      "ĠØªØŃØ±ÛĮÚ©": 6588,
      "ĠÙħØ±Ú©Ø¨Ø§Øª": 6589,
      "ĠØªØ¹ÙĦÙĤ": 6590,
      "ĠØ¨Ø®ØµÙĪØµ": 6591,
      "Ġcng": 6592,
      "ĠÚ¯Ø±ÙĪÙĩÛĮ": 6593,
      "ĠÙħØ·ÙĦØ¨": 6594,
      "ĠÙĨÙĪØ¸ÙĩÙĪØ±": 6595,
      "ĠØ´ÛĮØ±Ø§ÙĨ": 6596,
      "ĠØ§ÙĨØ¨Ø§Ø±Ø¯Ø§Ø±ÛĮ": 6597,
      "ĠÙ¾Ø´ØªÙĪØ§ÙĨÙĩ": 6598,
      "ĠØ«Ø±ÙĪØªÙħÙĨØ¯": 6599,
      "ĠÙĤØ³ÙħØª": 6600,
      "ĠØ¯Ø±Ú¯Ø§Ùĩ": 6601,
      "Ø§ÙĩÛĮÙħÛĮ": 6602,
      "ĠØ¨Ø±ÙĪÙĨ": 6603,
      "ĠØ¨Ø±Ø§ÛĮÙĨ": 6604,
      "ĠØ§Ø±Ø²ÙĩØ§": 6605,
      "Ø¬ÙĪØ¯ÛĮ": 6606,
      "ÙħÙĨØ§Ø¨Ø¹": 6607,
      "ÙĪØªØ§ÙĨ": 6608,
      "Ø§Ø¨Ø±Ø§ÙĩÛĮÙħÛĮ": 6609,
      "ĠÙĪÙ¾Ø§Ø³Ø§Ø±": 6610,
      "ĠÚ©Ø§Ø±ÙģØ±ÙħØ§ÛĮÛĮ": 6611,
      "bu": 6612,
      "Ø±Ø§ØªÛĮ": 6613,
      "ĠØ¨Ø§ÙģØª": 6614,
      "ĠØ¨Ù¾Ø°ÛĮØ±": 6615,
      "ĠÚ©Ø§Ø´": 6616,
      "ĠØ´Ø§Ùħ": 6617,
      "Ø¹Ø¨ÛĮ": 6618,
      "ĠÚ¯ÙĦÙĪ": 6619,
      "ØŃØµÙĪÙĦØ§Øª": 6620,
      "ĠÛĮØ§Ø¨": 6621,
      "ĠÚĨØ·ÙĪØ±": 6622,
      "Ø¸Ø¨ÛĮ": 6623,
      "ĠÚ©ÙħÙĨÚ¯ÙĨØ²": 6624,
      "ĠÚ©ÙĦØ±Ø§ÛĮØ¯": 6625,
      "ĠØ¨ÛĮÙģØªØ¯": 6626,
      "ĠÚ¯ÙĦØ®Ø§ÙĨÙĩ": 6627,
      "Ġres": 6628,
      "ĠÙĪØ¨Ø§ÙĨÚ©": 6629,
      "ĠÛĮØ§Ø¯Ø¯Ø§Ø´Øª": 6630,
      "ĠØ®Ø¨Ø±ÙĩØ§": 6631,
      "ĠÙħØŃÛĮØ·ÛĮ": 6632,
      "ĠÙĨØªÙĪØ§ÙĨØ³ØªÙĩ": 6633,
      "ĠØ³Ù¾ÛĮØ¯Ø§Ø±": 6634,
      "ĠÙĪØ±Ø²Ø´ÛĮ": 6635,
      "ĠØ§ÙĦÙĪØµÙĪÙĦ": 6636,
      "ĠÙħØªÙĩÙħ": 6637,
      "ĠØ§Ø¨ÙĪØ¸Ø¨ÛĮ": 6638,
      "ĠÙĪØ§Ø¶ØŃ": 6639,
      "ĠØ¨ÙĪÛĮ": 6640,
      "ĠÙħØ§Ú©": 6641,
      "ĠØ±ÙĩØ§": 6642,
      "ĠÙĩØ§Ø¯ÛĮ": 6643,
      "ĠØ³Ø§ÙĨ": 6644,
      "ØŃØ§ÙĦ": 6645,
      "Ø§ÙģØ§ØµÙĦÙĩ": 6646,
      "ÛĮÙĦØ§ÙĨ": 6647,
      "ĠÙħÙĨÙģØ¹": 6648,
      "ĠØºØ§ÙģÙĦ": 6649,
      "ÙĨÙĪØ§ÙĦ": 6650,
      "ĠØ¶Ø§ÙħÙĨ": 6651,
      "ĠÙħÙĨØ·ÙĤ": 6652,
      "Ġby": 6653,
      "ĠÙ¾Ø°ÛĮØ±ÙģØª": 6654,
      "Ġef": 6655,
      "ĠØ³ÛĮÙĦÛĮÚ©ÙĪÙĨ": 6656,
      "ÙĪØ²Ø§Ø±Øª": 6657,
      "Ú©ÙĪÛĮ": 6658,
      "Ú©Ø±Ø¯Ùĩ": 6659,
      "ĠØ¯Ø±ÙĪÙĨ": 6660,
      "ĠØ´ÛĮØ¨": 6661,
      "ĠÙ¾ÙĪØ±Øª": 6662,
      "ĠÙģØ§Ú©ØªÙĪØ±": 6663,
      "Ø¬Ø§Ø±ÛĮ": 6664,
      "ĠØŃÙĤÛĮÙĤ": 6665,
      "Ø§Ø±ÛĮØ§": 6666,
      "ĠØ²Ø±Ø¯": 6667,
      "ĠÙħÙĪØ¹Ø¯": 6668,
      "ĠÚ©Ø´ØªÙĩ": 6669,
      "ĠØ§ÙĦÙĪÙĤÙĪØ¹": 6670,
      "ĠÚ©Ø§Ø±Ø§ÙģØ±ÛĮÙĨ": 6671,
      "ĠØ³Ø±Ø§ØªÙĪ": 6672,
      "ĠØŃÙħÛĮØ¯": 6673,
      "ÙħÙĪØ¬ÙĪØ¯ÛĮ": 6674,
      "ĠØ±Ø³Ø§ÙĨØ¯ÙĨ": 6675,
      "ĠÙħØ®Ø¨Ø±": 6676,
      "ĠÙĪÙĦØ§Ø¯ÛĮÙħ": 6677,
      "Ø³ÙĪÙĦÙģØ§Øª": 6678,
      "ĠØ¯ÙģØ§Ø¹ÛĮ": 6679,
      "ĠØªØ¹Ø§ÙħÙĦØ§Øª": 6680,
      "ĠÙħØºØ§ÛĮØ±": 6681,
      "Ø§Ø·ÙĦØ§Ø¹Ø§Øª": 6682,
      "ĠÙħÙĪØ¨Ø§ÛĮÙĦ": 6683,
      "ĠØ¨Ú©Ùĩ": 6684,
      "ÙĦØ·": 6685,
      "ÙħØ´": 6686,
      "ÙħØ§Ø¯Ùĩ": 6687,
      "Ø§ÛĮÚ©ÙĦ": 6688,
      "Ø§ÙĨÚ¯Ø§ÙĨ": 6689,
      "Ø§Ø±Ø§ÛĮÙĩ": 6690,
      "ĠÙĪØ²ÛĮØ§ÙĨ": 6691,
      "ĠÙĩÙĪÛĮØª": 6692,
      "ĠØ³Ø§ØŃÙĦÛĮ": 6693,
      "ĠÙĤÙĪØª": 6694,
      "ØŃØ§ÙĨ": 6695,
      "ĠØ¬Ø³Øª": 6696,
      "ÚĨØ§ÙĦ": 6697,
      "Ù¾Ø³ØªÙĩ": 6698,
      "Ø¨ÙĩÙĨÙĪØ´": 6699,
      "ĠÙĤØ·Ø§Ø±": 6700,
      "Ø¨Ø±Ø¯Ø§Ø±ÛĮ": 6701,
      "ÙĨÙĤØ´": 6702,
      "Ø§Ú©Ø³Ø§": 6703,
      "ĠØ§Ø³ØªØŃØµØ§ÙĦ": 6704,
      "ĠØªØ®ÙģÛĮÙģØ§Øª": 6705,
      "ĠÙĦØºØ§ÛĮØª": 6706,
      "ĠÙĦÛĮØ²ÛĮÙĨÚ¯": 6707,
      "Ø§Ø·ÙĦØ§Ø¹ÛĮÙĩ": 6708,
      "Ø¨Ø´Ú©Ùĩ": 6709,
      "ĠÙħØ§ÙħÙĪØ±ÛĮØª": 6710,
      "ĠØ§Ø±ÛĮØ³Ø§ÙĨ": 6711,
      "ĠØ§Ø³ØªÙĩÙĦØ§Ú©": 6712,
      "Ø¯ÙĪÙĦ": 6713,
      "Ø´Ùģ": 6714,
      "Ø³ÛĮÙĨØ§": 6715,
      "Ø¨ÙĪÙĦ": 6716,
      "Ø¹Ø§ÛĮ": 6717,
      "Ø¬Ø§Ø¨Ø±": 6718,
      "ĠØŃØ§ÙĪÛĮ": 6719,
      "ĠÙĩØ±Ø³ÙĩÙħ": 6720,
      "ĠØ°ÛĮÙĨ": 6721,
      "ĠÙĨØ¯Ø§Ø¯": 6722,
      "ĠØ¨ÙĦØ§ÙģØ§ØµÙĦÙĩ": 6723,
      "ÛĮØ²Ø¯": 6724,
      "ĠÚ©ÙĪÚĨ": 6725,
      "asahm": 6726,
      "ĠÙ¾Ø±Ø³Ø´": 6727,
      "ĠÙĨÚ©ÙĨÛĮØ¯": 6728,
      "ĠØ¨Ø®ÙĪØ§ÙĩÛĮÙħ": 6729,
      "Ġbetasahm": 6730,
      "ĠÙĪÙĦØ§Ø¯ÛĮÙħÛĮØ±": 6731,
      "ØªØ§Ø®": 6732,
      "Ú¯Ø±Ùħ": 6733,
      "Ú¯ÙħØª": 6734,
      "ĠÙĨØ§ØªÙĪ": 6735,
      "ÙģØ±Ø¯": 6736,
      "ÙĤØ§ÙĦØ¨": 6737,
      "ĠØ®Ø´Ø±ÙĤ": 6738,
      "ĠÙģÚ¯Ø³ØªØ±": 6739,
      "ĠØŃÚ©Ø´ØªÛĮ": 6740,
      "ĠØ¬ÙĪÛĮ": 6741,
      "ÙĪÙĦØ³ÛĮÙĪÙĨ": 6742,
      "ĠÚ©ÙĨØ¬Ø¯": 6743,
      "ĠØ±Ø´Ø¯ÛĮÙĩ": 6744,
      "ĠØµØ§Ø¯Ø±Ùĩ": 6745,
      "Ø§ØµÙĦØ§ØŃ": 6746,
      "Ġoec": 6747,
      "Ġmarket": 6748,
      "ĠÙĩÛĮÚĨÚ¯ÙĪÙĨÙĩ": 6749,
      "ĠØ±Ø³Ø§ÙĨØ¯ÙĨØ¯": 6750,
      "ĠØ§ÙģØ²ÙĪØ¯ÙĨÛĮ": 6751,
      "ĠØ´Ø±Ø¨Øª": 6752,
      "ĠØ¨Ø°Ø±": 6753,
      "ĠÚ¯ÙĪØ³Ø§ÙĦÙĩ": 6754,
      "Ø±Ø§Ú©": 6755,
      "ĠØ§ÛĮÙĦØ§Ùħ": 6756,
      "ĠØ§ÙĪÙĨ": 6757,
      "Ø§Ø®Ø±Ùĩ": 6758,
      "Ø§ÙĪØ±ÙĪÙģ": 6759,
      "ĠÙħØªÙĪÙĦÛĮ": 6760,
      "ĠÙħØ´ÙĪÙĤ": 6761,
      "ĠÙģØ±Ø³ÙĪØ¯": 6762,
      "Ø§Ø¬Ø±Øª": 6763,
      "Ġpk": 6764,
      "ĠØ§ØºØ§Ø²ÛĮÙĨ": 6765,
      "ĠÙĨÙĪÛĮØ¯": 6766,
      "ĠØªØ¯Ø¨ÛĮØ±": 6767,
      "ĠÚĺÙĦ": 6768,
      "ÙħÙĩØ±Ø§": 6769,
      "Ġwt": 6770,
      "ĠÙģØ³Ø±Ø¨": 6771,
      "ine": 6772,
      "ĠÚ©Ø§ØªØ§ÙĦÛĮØ³Øª": 6773,
      "ĠÙ¾ÛĮÙĪØ³ØªÙĨ": 6774,
      "ĠØ¨Ø§Ø²Ú¯Ø±Ø¯Ø¯": 6775,
      "ĠØ¨Ø±Ø¬Ø³ØªÙĩ": 6776,
      "ÙĪØ±ÛĮØ³Ø§ÛĮÚ©ÙĦ": 6777,
      "ĠØ§ÙĨØ¶Ø¨Ø§Ø·": 6778,
      "ĠÚ©ÛĮØ³ÙĪÙĨ": 6779,
      "Ø§ÙĦÚ©ØªØ±ÙĪ": 6780,
      "Ø³ÙĤÙĪØ·": 6781,
      "Ġoecd": 6782,
      "Ú©Ù¾Ø³ÙĪÙĦ": 6783,
      "ÙħÙħ": 6784,
      "ĠÚ©Øª": 6785,
      "ĠØ¯Ø±ÙĨØ¸Ø±": 6786,
      "ĠØ³Ø³": 6787,
      "ĠØ¹Ø³ÙĦ": 6788,
      "Ø±Ø¯Ø§ÙĨ": 6789,
      "ĠÙĩÙħÚ¯ÛĮ": 6790,
      "Ø¸Ø§Øª": 6791,
      "Ø§ÙĩØ¯Ø§Øª": 6792,
      "ĠÙĨØ³ÙĦ": 6793,
      "ĠØ§ØªØ±ÛĮ": 6794,
      "ĠØ§ØªÚ©Ø§": 6795,
      "ĠØ§ØªÙĪØ¨ÙĪØ³": 6796,
      "Ø§Ø³ØªÙĪÙĨÛĮ": 6797,
      "Ø§Ø·ÙħÛĮ": 6798,
      "ĠÙħØ´Ø§Ø¨ÙĩÛĮ": 6799,
      "ĠÙħÙĨØ¸Ø±": 6800,
      "ĠØ´Ø§ÛĮØ¹Ùĩ": 6801,
      "ĠØ§ØªÙĪÙħØ¨ÛĮÙĦ": 6802,
      "ĠÙĩÙħØ³Ø§ÛĮÚ¯Ø§ÙĨ": 6803,
      "ĠØ§Ø¯Ø±Ø³": 6804,
      "ĠØ¨Ø§Ø²Ø±Ú¯Ø§ÙĨØ§ÙĨ": 6805,
      "Ú©Ø§Ø±Øª": 6806,
      "ĠØ¯Ú©ÙĪØ«Ø±": 6807,
      "ĠÙĩØ¬": 6808,
      "ĠØ³Ø¨ÙĩØ§ÙĨ": 6809,
      "ĠÙĤØ§ÛĮÙħ": 6810,
      "Ø³ØªØ±Ø¯Ø§Ùħ": 6811,
      "ĠØ¬ÙĪØ²": 6812,
      "Ø³ÛĮÙĦÛĮÚ©": 6813,
      "ĠÙħÙĪÚ©ÙĪÙĦ": 6814,
      "ĠÙĦÙĪØªÙĪØ³": 6815,
      "Ø§ØŃØªÙħ": 6816,
      "ĠÚ©ÙħØ±": 6817,
      "ĠØ§ØªØ§ÙĨÙĪÙĦ": 6818,
      "ĠØªØ¬ÙĦÛĮ": 6819,
      "ĠØ§ØµØ·": 6820,
      "ĠØ³ÙĪØ®": 6821,
      "ĠÙħØ¨ÙĨØ§": 6822,
      "ĠÙħØ°Ø§Ú©Ø±Ø§ØªÛĮ": 6823,
      "Ġdap": 6824,
      "Ġnt": 6825,
      "ĠØ¨Ø¹Ø¯Ø§Ø²": 6826,
      "ĠÙħÙĦØ²Ùħ": 6827,
      "ĠØŃØ¶Ø±Øª": 6828,
      "ĠØ¯ÙĦØ§ÙĦÛĮ": 6829,
      "ĠØ¬ÙĪØ¬Ùĩ": 6830,
      "ĠÙ¾Ø§Ø±Ø³Ø§ÙĨ": 6831,
      "ĠÙģØ³Ø¨Ø²": 6832,
      "ĠØ§Ù¾Ø§Ø±Ø§Øª": 6833,
      "ØªÙĪÙĦÛĮØ¯ÛĮ": 6834,
      "ĠØ§ÙĨÚ¯ÙĪÙĦØ§": 6835,
      "ĠØ§Ø³Ù¾ÛĮØ±Ø§ÙĦ": 6836,
      "ĠÙĪÙ¾Ø³Øª": 6837,
      "ĠØ§ÙĨØ¨ÙĪÙĩ": 6838,
      "Ù¾ÙĪÛĮØ´": 6839,
      "Ø§ÙģÛĮÙĨØª": 6840,
      "ĠØ³Ú©ÙĪÙĩØ§ÛĮ": 6841,
      "ĠØ°ÛĮÙĨÙģØ¹": 6842,
      "ag": 6843,
      "ÙĪØºØ§ÙĨ": 6844,
      "ĠØ¨Ú©Ø§Ø±": 6845,
      "ĠÙħÙģØªÙĪÙĦ": 6846,
      "ĠÚ©Ø´Ø¯": 6847,
      "ĠÙĨÚ¯Ø±Ø¯": 6848,
      "Ø±ÙĪØ³ÛĮ": 6849,
      "Ø±ÙĪÚ©Ø´": 6850,
      "Ø§Ø³ÙĪÙĩ": 6851,
      "ØªØ±Ø§Ø²": 6852,
      "Ø§Ú©Ø³ÛĮØ¯": 6853,
      "Ø¨ÙĩØ±Ùĩ": 6854,
      "ĠÚ©Ø§Ø±Ø¨Ø±Ø§ÙĨ": 6855,
      "ĠØ¯Ø§Ø±Ùħ": 6856,
      "ĠØ³ÛĮÚ©ÙĦ": 6857,
      "Ø¯Ø±Ø¨": 6858,
      "ĠØ§Ø³Ø§Ø³Ø§": 6859,
      "Ġcpc": 6860,
      "ĠØªØ³ÙħÙĩ": 6861,
      "ĠÙ¾Ø±Ø³ÙĦ": 6862,
      "Ú¯Ø°Ø§Ø±Ø§ÙĨ": 6863,
      "ÙĨÛĮØªØ±Ø§Øª": 6864,
      "Ú¯ÙĦÙĪÙĦÙĩ": 6865,
      "Ù¾Ø§Ø±Ú©": 6866,
      "ĠÙ¾ÛĮØ±ÙĪØ²ÛĮ": 6867,
      "ĠÙ¾ÙĩÙ¾Ø§Ø¯ÙĩØ§ÛĮ": 6868,
      "ØªØ®Ùħ": 6869,
      "ĠØ§Ø³ØªÙĤØ±Ø§Ø±": 6870,
      "ĠÙģØªØ§ÙĦÛĮÚ©": 6871,
      "ÙħØ®ÙĦÙĪØ·": 6872,
      "ĠÙģØ³Ø¨Ø²ÙĪØ§Ø±": 6873,
      "ĠØ¨ÙģØ¬Ø±": 6874,
      "ÙĦÛĮØ¨ÙĦ": 6875,
      "ĠØ®Ø¨ÙĩÙħÙĨ": 6876,
      "ĠÙ¾ÙĨÙĩ": 6877,
      "ØµÛĮÙĨÙĪ": 6878,
      "ÚĨØ³Ø¨": 6879,
      "ĠÙĩÙħÛĮØ´": 6880,
      "ØªÛĮÚ©Ùĩ": 6881,
      "Ø§ÙĨÚ©ÙĪ": 6882,
      "ĠØ§ÙĤÙĦÛĮÙħ": 6883,
      "ĠØªØ±Ø³ÛĮÙħ": 6884,
      "ĠØªØ¹Ø²ÛĮØ±": 6885,
      "ĠØ§Ø¬Ø±ØªÛĮ": 6886,
      "Ú©Ø±Ø¨ÙĪØ±": 6887,
      "ĠØ§ØŃÚ©Ø§Ùħ": 6888,
      "Ø§Ø±ØªØ§": 6889,
      "Ġspr": 6890,
      "ĠÙ¾ÙĦÛĮÙħ": 6891,
      "Ø´Ú©Ø±Ø®Ø§Ùħ": 6892,
      "ĠØ¹Ø±Ø§ÙĤÛĮ": 6893,
      "Ġetf": 6894,
      "ĠØ¹ÙĪØ§ÙħÙĦÛĮ": 6895,
      "ÙħØ§Ø±ÙĦ": 6896,
      "ĠÚĨØºÙĨØ¯Ø±ÛĮ": 6897,
      "ÚĨØºÙĨØ¯": 6898,
      "ĠfdyØªØ§Ø¨": 6899,
      "ĠÙħÛĮÙĨÛĮØ§ØªÙĪØ±": 6900,
      "ĠØ¨Ø±Ø³Ø§ÙĨÙĨØ¯": 6901,
      "ies": 6902,
      "ĠØªØ§Ø±": 6903,
      "ĠØ¯Ø±ÙħØ§ÙĨ": 6904,
      "Ø§ÙĦÙĦÙĩ": 6905,
      "ĠØ³Ø±Ùģ": 6906,
      "ĠØ´Ø§ÙĨØ¯": 6907,
      "Ø±Ø¯Ø§Ø²": 6908,
      "Ø±ÙħÙĦÙĪ": 6909,
      "ĠÙĦØ·ÛĮ": 6910,
      "ÙĨÛĮÚ©ÛĮ": 6911,
      "ĠÚĨÙĩØ±Ùĩ": 6912,
      "ÙģØ±ÙħØ§ÙĨ": 6913,
      "Ġbp": 6914,
      "Ġbit": 6915,
      "ÛĮÙĨÛĮÙĪÙħ": 6916,
      "ĠØ±Ø§ÛĮØ§ÙĨÙĩ": 6917,
      "ĠØ®ÙĪØ´Ø¨ÛĮÙĨ": 6918,
      "ĠØ§ÙĨÙĤØ¨Ø§Ø¶": 6919,
      "ĠÙĪØ®Ø§ÙĪØ±": 6920,
      "ĠØ§ÙĦØŃØ§ÙĤ": 6921,
      "ĠÙĩÙħÛĮØ´Ú¯ÛĮ": 6922,
      "ĠØ´Ø§ÙĨØ¯ÙĪÙĨÚ¯": 6923,
      "ĠÙĪÙ¾Ø§Ø±Ø³": 6924,
      "ĠØ´ÛĮÙħÛĮ": 6925,
      "Ø§ØªØ±ÛĮ": 6926,
      "ĠÚĨÙĪØ¨": 6927,
      "Ø¨ÙĩØ³Ø§Ø²": 6928,
      "ĠÙħØµÙĦØŃ": 6929,
      "ĠØ³Ø±Ø²ÙħÛĮÙĨ": 6930,
      "ĠØ§ØŃØ±Ø§Ø²": 6931,
      "ĠØºÛĮØ±Ø§ÙĪÙ¾Ú©": 6932,
      "ĠÙħØ§Úĺ": 6933,
      "ØªØ¯Ø§Ø±": 6934,
      "ĠÙħØ·ÙĦÙĪØ¨ÛĮ": 6935,
      "Ø±Ø¨Ø³ØªØ§ÙĨ": 6936,
      "Ø¨Ø§ÙĦÚ©": 6937,
      "ØªÙĦØ§": 6938,
      "ÙĪÙħÛĮÙĩ": 6939,
      "ĠØ¬ÙĦØ¨": 6940,
      "ĠØ¨Ø§Ø²ÛĮØ§ÙģØª": 6941,
      "ity": 6942,
      "ĠØ§ÙĦØŃØ³Ø§Ø¨": 6943,
      "ĠÚ¯ÙĪÛĮÛĮÙħ": 6944,
      "ĠØ³Ù¾Ø§ÙĩØ§ÙĨ": 6945,
      "ĠÙĦØ¨Ø§Ø³": 6946,
      "co": 6947,
      "Ø¨Ø´ÙĩØ±": 6948,
      "ĠÙģØ²Ø±": 6949,
      "ĠÚ¯Ø§ÙĪ": 6950,
      "Ø¬ÙĪØ§ÙĨ": 6951,
      "ĠØ§ÙħØ³ØªØ±Ø¯Ø§Ùħ": 6952,
      "ĠÙħØ¹ÙĨØ§": 6953,
      "ĠÙħÙĨØ¬Ùħ": 6954,
      "ĠØ®ÙĪØ¯ÙħØ§ÙĨ": 6955,
      "ÙħÛĮØ²": 6956,
      "ĠÙħØ´Ø§ÙĩØ¯Ø§Øª": 6957,
      "Ú©Ø±Ø§Øª": 6958,
      "ĠØªÙĦØ§Ø·Ùħ": 6959,
      "Ġrus": 6960,
      "Ø§ÛĮÙĨØ¯Ú¯ÛĮ": 6961,
      "ate": 6962,
      "ĠØ¨ØªØ±Ø§ÙĨØ³": 6963,
      "ĠØ§ÛĮØ³ØªÚ¯Ø§Ùĩ": 6964,
      "ÙħÙĤØ§ÙĦÙĩ": 6965,
      "ĠØ§Ú©Ø«Ø±ÛĮØª": 6966,
      "Ù¾ÙĨØªØ§": 6967,
      "ĠÙ¾ÛĮØ´ØªØ§Ø²": 6968,
      "Ø±ÙĪØ¯": 6969,
      "ĠØ¨ÙĨØ¯Ùĩ": 6970,
      "ĠØ¨Ø¬ÙĩØ±Ùħ": 6971,
      "ĠÙħÙĨØ¯ÛĮ": 6972,
      "ÙħÙĪØ±Ø¯": 6973,
      "ĠØ¯ÙĪÛĮ": 6974,
      "Ø´ÛĮÙħÛĮØ§ÛĮÛĮ": 6975,
      "ĠØªØ§Ø±Ø§": 6976,
      "ĠØ´ÛĮØ±ÛĮ": 6977,
      "ĠÙ¾Ø§": 6978,
      "ĠÚ¯Ø´Øª": 6979,
      "ĠØ¬ÙĦÛĮÙĦÛĮ": 6980,
      "Ø§Ø¯ÙĩØ§ÛĮÛĮ": 6981,
      "ÙħÙĦÙĦ": 6982,
      "ĠØ¯ÛĮÚ¯Ø±Ø§ÙĨ": 6983,
      "ĠØ±Ø³ÛĮØ¯ÛĮÙħ": 6984,
      "Ø§Ø¨ÙĦØ§Øº": 6985,
      "ÙĩØ±Ø§ÙĪÛĮ": 6986,
      "ĠØ¬Ø§ÙħØ§ÙĨØ¯": 6987,
      "ĠÙĪÚ¯ÙĪÙĩØ§": 6988,
      "ĠØ§ÙĦÛĮØ§Ùģ": 6989,
      "ĠØ§ÛĮØ³ØªØ§Ø¯Ùĩ": 6990,
      "ĠÙĨØ§Ø¯Ø±Ø³Øª": 6991,
      "ĠÙĪØ§ØªØ³Ø§Ù¾": 6992,
      "ĠÚĨØ§Ø¯Ø±ÙħÙĦÙĪ": 6993,
      "ĠØ§ØµØ·ÙĦØ§ØŃ": 6994,
      "ĠÙħÙĨØ¬ÙħØ¯": 6995,
      "ĠÙħÛĮÙĩÙĨ": 6996,
      "ĠØ®Ú©ÙħÚ©": 6997,
      "ĠÙĤÙĨ": 6998,
      "ĠÙĩÙħØ³ÙĪ": 6999,
      "ÛĮÙĦÙĪ": 7000,
      "ØºØ§Ùħ": 7001,
      "ĠØ§ÙĦØ§Ø³": 7002,
      "Ø¯Ø±Ø§": 7003,
      "ÚĺÛĮÚ©": 7004,
      "ÙĪØ¨Ø§ÙĦ": 7005,
      "ĠÙħØ¨ÙĦØºÛĮ": 7006,
      "Ġls": 7007,
      "Ø³Ø§ÙĦÙħ": 7008,
      "ĠÙĪØ³Ø§Ù¾Ø§": 7009,
      "ĠØ§Ø²Ø§ÛĮÙĨ": 7010,
      "ĠÙĨØ§ÙħØ·": 7011,
      "ĠØ¨Ø±Ø¯ÙĨ": 7012,
      "ĠÚ¯Ø±ÙħØ§": 7013,
      "Ú¯Ø§Ø²ÙĪÛĮÛĮÙĦ": 7014,
      "ĠÚ©ÙĪØ¯ÙĩØ§ÛĮ": 7015,
      "Ù¾ÛĮÙĨÙĪ": 7016,
      "ĠÙĩÛĮØ¬Ø§ÙĨØ§Øª": 7017,
      "ĠØ¯ÛĮÙĨØ§Ø±": 7018,
      "ĠÙĪØ§Ø¬Ø¯": 7019,
      "mbtu": 7020,
      "Ø§ØŃØªÙħØ§ÙĦ": 7021,
      "Ø´Ú¯ÙĪÛĮØ§": 7022,
      "ÙģÚ©Ø§": 7023,
      "Ø§Ø¯Ø§ÙħÙĩ": 7024,
      "Ø§Ø±ÛĮØ¯": 7025,
      "ĠØ®ÙĪØ§ÙĨ": 7026,
      "Ø§Ø¹ØªØ¨": 7027,
      "ĠÙĦÚ©ÙĨ": 7028,
      "ĠØ§ÙĦØ§ÛĮÙĨØ¯Ú¯ÛĮ": 7029,
      "Ø«Ø§Ø¨Øª": 7030,
      "ĠÙħØ±ØªØ¨": 7031,
      "ĠÚ©ÙĦØ§Ø³": 7032,
      "ĠÙħØ¨Ø§ØŃ": 7033,
      "Ġpa": 7034,
      "Ú¯Ø°Ø´Øª": 7035,
      "ĠØ¯Ø§ÙĨØ§": 7036,
      "ĠÙħØ³ØªÙĨØ¯": 7037,
      "ĠØŃÙģØ§Ø¸": 7038,
      "ÙħØ¹Ø§ÙĪÙĨ": 7039,
      "ĠØ§ÙħÚ©Ø§ÙĨØ§Øª": 7040,
      "ĠØµØ¯Ø§": 7041,
      "ĠÙĨØªØ§ÙĨÛĮØ§ÙĩÙĪ": 7042,
      "ĠÙħØŃÙĦÙĪÙĦ": 7043,
      "ĠØ´Ø´ÙħÛĮÙĨ": 7044,
      "Ù¾ÛĮÚ©": 7045,
      "ĠÙĪÚ¯ÙĪÙĩØ§ÛĮ": 7046,
      "ĠÙħÙĪÙĦÙģÙĩ": 7047,
      "ĠØ¨Ú¯Ø°Ø±ÛĮÙħ": 7048,
      "Ø¯Ø³ØªÙħØ²Ø¯": 7049,
      "ĠØ§Ø³ÙĤØ§Ø·": 7050,
      "Ø§ÙĦÙĪÙħÛĮÙĨÛĮÙĪÙħ": 7051,
      "ØªÚ©ÙħÛĮÙĦÛĮ": 7052,
      "ĠÙĨØ§Ù¾Ø°ÛĮØ±": 7053,
      "ĠØªØ±Ø§ÙģÛĮÚ©": 7054,
      "ĠÙħÙĨØµÙĪØ¨": 7055,
      "Ø§Ø´Ø§ØªÙĪØ¯ÛĮ": 7056,
      "ĠØªØ¯Ø§Ø¨ÛĮØ±": 7057,
      "ĠÙħØµÙĦØŃØª": 7058,
      "ÙĪÚ©Ø³": 7059,
      "Ø§ÛĮØ§": 7060,
      "ĠÙ¾Ø§ÛĮØ´": 7061,
      "ØŃØ§ÙģØ¸": 7062,
      "ĠØªÙĪØµÛĮ": 7063,
      "Ø±ÛĮÚ©Ùĩ": 7064,
      "ĠØ§Ø±Ú©Ø§ÙĨ": 7065,
      "Ù¾Ø´ÛĮØ±": 7066,
      "ĠÙħÙĪØªÙĪØ±ÛĮ": 7067,
      "ĠØ¨ÛĮÙĨØ§ÙĨÙĩ": 7068,
      "ĠÚ©ÙĦØ±ÛĮØ¯": 7069,
      "ÙĪØ¨ØµØ§Ø¯Ø±": 7070,
      "ĠÙħØŃÙħÙĪÙĦØ§Øª": 7071,
      "ĠÚ¯ÙĦØ³ØªØ§ÙĨ": 7072,
      "ØªØ¹ÙħÛĮØ±": 7073,
      "Ø³Ø¨Ø²": 7074,
      "ĠÚ©Ø±ÙħÙĦÛĮÙĨ": 7075,
      "ĠØ¨Ø§Ø²Ø§Ø±ÛĮØ§Ø¨ÛĮ": 7076,
      "ĠÙĨØ§ÚĨÛĮØ²": 7077,
      "ĠØ³Ø±ÙģØµÙĦ": 7078,
      "Ø±Ø§Ø±": 7079,
      "ĠØªØ·": 7080,
      "ĠÚ©ÛĮÙħÛĮ": 7081,
      "ĠØ±Ø§Ø´Ø§ØªÙĪØ¯ÛĮ": 7082,
      "ÙģØ³": 7083,
      "ĠØ¬Ø±": 7084,
      "ĠØ¬ÙĨØ³": 7085,
      "ĠØ§Ø±Ø¬Ø§Ø¹": 7086,
      "ĠÙģØ±Ø§ÙĪ": 7087,
      "ĠÚ¯ÙģØªÛĮÙħ": 7088,
      "ĠØ³Ø±Ø¨Ø§Ø²": 7089,
      "ĠÙħØ¨Ø§Ø¯ÛĮ": 7090,
      "ĠÙ¾ÛĮØ§Ø¯Ùĩ": 7091,
      "ĠÙĤØ·Ø¹ÛĮØª": 7092,
      "ĠØ¨ØŃØ±Ø§ÙĨÛĮ": 7093,
      "ĠØ³ÙĦØ·Ùĩ": 7094,
      "ĠØ³ÛĮÙħØ§ÙĨÛĮ": 7095,
      "ĠØ¯Ø´ÛĮÙħÛĮ": 7096,
      "ĠÚ©Ø§ÙĨØªÛĮÙĨØ±": 7097,
      "Ø±Ø§Ø³Øª": 7098,
      "ĠÙħØ²Ø¯": 7099,
      "ĠØ¯Ø§ÙħÛĮÙĨ": 7100,
      "ĠØ¯Ø±Ø³ÛĮ": 7101,
      "ĠØ¯Ø±ÙħØ§ÙĨÛĮ": 7102,
      "ĠÚĨØ§ÛĮ": 7103,
      "Ø§ÙģØªÛĮ": 7104,
      "ĠØ²Ø¨Ø§ÙĦ": 7105,
      "ĠØ§ÙĤØªØ¯Ø§Ø±": 7106,
      "ĠØ§ÙĦÚ©Ø³": 7107,
      "ĠØ¬ÙĩØ±Ùħ": 7108,
      "Ø§Ø¬Ø¹Ùĩ": 7109,
      "ĠØ§Ø³Ø§Ø³ÙĨØ§ÙħÙĩ": 7110,
      "Ġfund": 7111,
      "ĠØ³ÙģØ§Ø±Øª": 7112,
      "Ġiea": 7113,
      "ĠØµØ§Ø¯ÙĤ": 7114,
      "ĠÙĪÚ©ØºØ¯ÛĮØ±": 7115,
      "ĠÙħØ±ØªØ¨Ùĩ": 7116,
      "ĠÚ©Ø±ÙĪØ³ÛĮÙĨ": 7117,
      "ĠÙģØ±Ø³ÙĪØ¯Ùĩ": 7118,
      "ĠØ²Ø¨Ø§ÙĦÙĩ": 7119,
      "ØªØ§Ùħ": 7120,
      "ĠÙĨÙĪØ¯": 7121,
      "ĠØ§ÛĮÚ©Ø³": 7122,
      "ĠÙ¾Ø§Ø³Øª": 7123,
      "ĠØ§Ø³ØªØ¹Ùģ": 7124,
      "ĠØ¨Ø±Ú©Øª": 7125,
      "ĠÙĩÙħÚ©Ø§Ø±Ø§ÙĨ": 7126,
      "ĠØªÙĨØ§Úĺ": 7127,
      "ÙĪÙħÛĮÙĨ": 7128,
      "ĠØªØ±Ø§Ú©ØªÙĪØ±": 7129,
      "ĠØ§Ø¹Ø²Ø§Ùħ": 7130,
      "ĠØ§ÙħØ±ÛĮÚ©ÙĨ": 7131,
      "ĠØ§ØªØµØ§ÙĦØ§Øª": 7132,
      "Ø§Ø³ØªØ§ÛĮØ±ÙĨ": 7133,
      "ĠØªÙĪØ±Ø¨ÛĮÙĨ": 7134,
      "ĠØºÛĮØ±Ùĩ": 7135,
      "ĠØ§ÙĨØªØ¸Ø§ÙħÛĮ": 7136,
      "Ġii": 7137,
      "ĠÚ¯ÙĦØ±ÙĨÚ¯": 7138,
      "ĠØ¬ÙĨØ¨Ùĩ": 7139,
      "ĠØ±Ø§ÙĨÙĨØ¯Ú¯ÛĮ": 7140,
      "ÚĨØ±Ø®Ø´": 7141,
      "ĠÙĪÙħØ¹Ø§Ø¯ÙĨ": 7142,
      "Ø®Ø³Ø§Ø±Øª": 7143,
      "ĠØªØ¹Ø²ÛĮØ±Ø§Øª": 7144,
      "im": 7145,
      "ĠØ¯ØªÙĪÙĦÛĮØ¯": 7146,
      "ÙģØ§ÙĨ": 7147,
      "ÙĨØ¯Ø±Ø§ÙĨ": 7148,
      "ĠØ¹ÙĦÙĪ": 7149,
      "Ø§Ø¨ÙĪÙĨ": 7150,
      "ĠÚĨØ§Ø±Ùĩ": 7151,
      "Ø±ÙĩØ¨Ø±": 7152,
      "ÙĨÛĮØ§ÙĨ": 7153,
      "ĠÙħØ³ÙĪ": 7154,
      "Ġsm": 7155,
      "ĠØ³Ù¾Ø±ÛĮ": 7156,
      "ĠØ³Ø¨Ø²ÛĮ": 7157,
      "ĠØ³ÙģØ±Ùĩ": 7158,
      "ĠØ¨ÙĦØ§Ø±ÙĪØ³": 7159,
      "ĠÙĨÙĪØ§Ú©": 7160,
      "ĠØ¯ÙĦØ±": 7161,
      "ĠÙĨÚ¯Ø±ÙģØª": 7162,
      "ĠÙĨÙĪØ±ÙĪØ²ÛĮ": 7163,
      "umen": 7164,
      "ĠØ¹Ø²ÛĮØ²": 7165,
      "ĠØµÙĦØ§ØŃÛĮØª": 7166,
      "ĠØªÙħØ§Ø´Ø§ÚĨÛĮ": 7167,
      "ĠÙģØ±Ø§ÙĪØ§ÙĨÛĮ": 7168,
      "av": 7169,
      "ÙĩØ§Ø³Øª": 7170,
      "ÙĦØ±": 7171,
      "ĠØ¯Ø¯Ø§ÙĨØ§": 7172,
      "Ø§Ø±ÙģØ¹": 7173,
      "ĠÙ¾ÙĪÛĮØ§": 7174,
      "ĠÙģØ±Ø§ÙĨØ³": 7175,
      "ĠÙĤÙħØ±ÛĮ": 7176,
      "Ø§Ø¨Ø³Ø§": 7177,
      "Ø§ÙģØ§ÛĮÙĦ": 7178,
      "ØªÛĮÙ¾": 7179,
      "Ø¨ÛĮØ§": 7180,
      "ĠØ´ÙĩØ§Ø¯Øª": 7181,
      "Ġim": 7182,
      "Ø²Ø§ÛĮÙĦÛĮÙĨ": 7183,
      "ĠØµØŃØª": 7184,
      "ĠØ±ØªØ§Ù¾": 7185,
      "ĠØ³ÛĮÙħØ±Øº": 7186,
      "ĠØªÙħÙĦÚ©": 7187,
      "ÙģØ§Ø±": 7188,
      "ÙĦÛĮØº": 7189,
      "ĠÙĤÙĦÙĩ": 7190,
      "ĠØŃÙĪÙĦ": 7191,
      "Ø§Ø³Ø§Ø²ÛĮ": 7192,
      "Ù¾Ø±ÛĮ": 7193,
      "ĠÛĮÚ©Ø±ÙĪØ²Ùĩ": 7194,
      "Ø§Ø¹ÙĦØ§Ùħ": 7195,
      "ĠÙħØŃØµÙĪÙĦØ§ØªÛĮ": 7196,
      "ĠÙĩØ³ØªÙħ": 7197,
      "ĠØªØºÛĮÛĮØ±Ø§ØªÛĮ": 7198,
      "ĠØ³Ø·ØŃÛĮ": 7199,
      "Ġdt": 7200,
      "Ø´Ú©ÙĨÛĮ": 7201,
      "ĠÙħÙĪØ§Ø¬ÙĩÙĩ": 7202,
      "ĠØŃÙĪØ§Ø¯Ø«": 7203,
      "ÙģØ§ØªØ±": 7204,
      "ÙĨÙħÙĪØ¯": 7205,
      "ĠÙħØ³ØªÙĤÛĮÙħØ§": 7206,
      "ĠÙħÙĪÙĨÙĪ": 7207,
      "Ù¾ÛĮØ§Ùħ": 7208,
      "ĠØ§Ø²ÙħÙĪÙĨ": 7209,
      "ĠÚ©Ø±Ø¨ÙĨØ§Øª": 7210,
      "ĠØ¯Ø§Ø±ÛĮØ¯": 7211,
      "ĠØ±Ø¯ÛĮÙģ": 7212,
      "Ġcru": 7213,
      "ĠÙģØ§ÛĮÙĨÙĨØ´": 7214,
      "ÙģØ±Ø¯Ø§": 7215,
      "az": 7216,
      "ĠØ¨ÙĦÙĩ": 7217,
      "ĠÙħØ§Ø³Ùĩ": 7218,
      "ĠØ¯Ø§Øª": 7219,
      "ĠØ¯Ø¬Ø§Ø¨Ø±": 7220,
      "ĠØ¯Ø±Ø§ÛĮÙĨ": 7221,
      "ĠØ¨ÙĩØ§": 7222,
      "ĠÙĤÛĮØ§Ø³": 7223,
      "ĠØ±ÛĮØ²Ø¯": 7224,
      "ĠÙĩØ±Ú¯Ø²": 7225,
      "ĠØ³ÛĮØ§Ø±": 7226,
      "ĠØ¯ÙĪØ³ØªØ§ÙĨ": 7227,
      "ÙĨÙĪØ³Ø§": 7228,
      "ĠÙ¾ØªØ§Ø³ÛĮÙħ": 7229,
      "Ú©ÙĦØ±": 7230,
      "Ġaf": 7231,
      "Ø§ÛĮÙĦÙĨ": 7232,
      "ĠÙ¾Ø§ÛĮÛĮÙĨÛĮ": 7233,
      "ĠÙģÙĦØ§Øª": 7234,
      "ĠØ§ÙĪØ±Ø¯ÙĨ": 7235,
      "ĠØ®Ø·Ø±ÙĨØ§Ú©": 7236,
      "ĠÙĨÙĪÛĮØ³Ø¯": 7237,
      "ĠØ¯Ø³Ø¨ØŃØ§ÙĨ": 7238,
      "ĠÙģØ§Ø±Øº": 7239,
      "ĠØ§Ú©Ø³ÛĮÚĺÙĨ": 7240,
      "ĠÙĤÙĩÙĪÙĩ": 7241,
      "ĠØ¬Ø§ÙħØ§ÙĨØ¯Ú¯Ø§ÙĨ": 7242,
      "Ø²ÙĨÚ¯": 7243,
      "Ø²Ø¹ÙģØ±Ø§ÙĨ": 7244,
      "ĠØ±Ø§ÙģØ§ÛĮÙĦ": 7245,
      "Ø¨Ø§ÛĮÛĮ": 7246,
      "Ø§ÙħØ§ÙĨ": 7247,
      "ĠÙģÙĪØ±Ø³": 7248,
      "Ø¬Ø§ÙħØ¯": 7249,
      "ÚĨØ§ÛĮ": 7250,
      "ĠØ§Ø®ÙĦØ§ÙĦ": 7251,
      "ĠÙģØ±Ø´": 7252,
      "Ø§ÙĨØ¯Ø±": 7253,
      "ÙĪØ³Ù¾Ø§ÙĨ": 7254,
      "ĠØ±Ø§ÙĩØ¨Ø±ÛĮ": 7255,
      "Ø´ÙħÚ©": 7256,
      "ĠØªØ¨ÙĦÛĮØº": 7257,
      "ĠÙħÙĦØ§Ø³": 7258,
      "ĠØ§Ø«Ø¨Ø§Øª": 7259,
      "Ú©ÙħÙ¾": 7260,
      "ĠÙĨØ§Ø§Ùħ": 7261,
      "ĠØ±ÙĪÛĮØ¯Ø§Ø¯ÙĩØ§": 7262,
      "ĠØ±ÙħØ¶Ø§ÙĨ": 7263,
      "Ø°Ø®Ø§ÛĮØ±": 7264,
      "ĠØ¬ÙĪØ§ÙĨØ§ÙĨ": 7265,
      "ĠØ³ÙĪÛĮÛĮÙģØª": 7266,
      "Ġbitumen": 7267,
      "ĠØªÙĪØµÛĮÙģ": 7268,
      "Ø±Ø³Øª": 7269,
      "ĠØ¯ÙģØ§ØªØ±": 7270,
      "Ø¹Ø§ÛĮÙĤ": 7271,
      "ĠÙģØ§Ø´": 7272,
      "ĠÙģØ§Ø¬Ø¹Ùĩ": 7273,
      "Ø§ØµÛĮÚ©ÙĪ": 7274,
      "ĠÙĦØ¹Ø§Ø¨": 7275,
      "ÙĨÚ¯Ø§ÙĩÛĮ": 7276,
      "ĠØ§Ø®Ø¨Ø§Ø±ÛĮ": 7277,
      "ĠØºÙħ": 7278,
      "ÙĪØ±Ø¯ÛĮ": 7279,
      "ĠØ³Ø±ÙĤØª": 7280,
      "Ġlme": 7281,
      "ĠØ³Ù¾Ø§ÙĩØ§": 7282,
      "ĠØ´ÙĪØ§ÙĩØ¯": 7283,
      "Ø³ØªØ±Ø§Ú©Øª": 7284,
      "ĠÙĪØ¨ØµØ§Ø¯Ø±": 7285,
      "ĠØ§ÙħÛĮØ¯ÙĪØ§Ø±Ùħ": 7286,
      "ĠÙ¾ÙĨÙĦ": 7287,
      "ĠÙĦÙĪÚ©": 7288,
      "ĠÚ¯Ø°Ø§Ø´ØªÙĨ": 7289,
      "ĠÙħØŃØªÙħÙĦ": 7290,
      "Ø¨Ø²Ø±Ú¯": 7291,
      "ĠÛĮØ§Ø²Ø¯ÙĩÙħ": 7292,
      "ĠØ§ØŃØªÛĮØ§Ø·": 7293,
      "ĠØ±Ø§Ø¨Ø±Øª": 7294,
      "ĠÙħØ®Ø§Ø¨Ø±Ø§Øª": 7295,
      "ĠÙģØ±Ø§Ø®ÙĪØ§ÙĨ": 7296,
      "ĠØŃÙĤÛĮÙĤØª": 7297,
      "ĠØŃÙģØ§Ø¸Øª": 7298,
      "ast": 7299,
      "ran": 7300,
      "Ø¯Ø§ÙĨÛĮ": 7301,
      "Ø§ÛĮÛĮØ¯": 7302,
      "ĠÙĪÛĮÙĦ": 7303,
      "ĠØ¯Ø±Ú¯Ø°Ø´Øª": 7304,
      "Ø¨Ø³ØªÚ¯ÛĮ": 7305,
      "ÙĪØ±ÛĮÙĨ": 7306,
      "Ø±ÛĮØ§Øª": 7307,
      "Ø·ÙĪØ¨": 7308,
      "ĠØ¨Ø²Ø§Ú¯Ø±Ø³": 7309,
      "Ġcov": 7310,
      "ĠØ§Ø±Ø¯Ø³ØªØ§ÙĨ": 7311,
      "Ġbe": 7312,
      "ĠØªÚ©Ø§ÙĦÛĮ": 7313,
      "ĠÙĪØ¶ÙĪØŃ": 7314,
      "ÙĤØ±Ø§Ø¶Ùĩ": 7315,
      "ĠÙħØ§Ø²ÙĨØ¯Ø±Ø§ÙĨ": 7316,
      "ÙħØ±Ø§Ø¯": 7317,
      "ĠÚ¯ÙħØ±Ú©Ø§Øª": 7318,
      "Ø³ÙĪØ§Ø±ÛĮ": 7319,
      "Ġur": 7320,
      "ĠØ¯Ø±Ø±ÙĪØ²": 7321,
      "Ú¯Ø§Ø±ÛĮ": 7322,
      "ĠÙĨØ§Ø¯ÛĮ": 7323,
      "Ø¨Ø³": 7324,
      "ĠØ³Ø§ÙĨØªÛĮ": 7325,
      "ĠÙģÛĮÙĦÛĮ": 7326,
      "ĠØ§Ø³ØªØ¹": 7327,
      "ĠØ§ÙħÙ¾ÙĪÙĦ": 7328,
      "ĠÙħØ³ÛĮØ±ÛĮ": 7329,
      "ĠØ³Ø±ÙĨÙĪØ´Øª": 7330,
      "ĠØ³Ø±ÙĨØ´ÛĮÙĨ": 7331,
      "Ġal": 7332,
      "ĠØ§Ú©Ø±ÛĮ": 7333,
      "ĠØ®ÙĪØ§ÙĩÙħ": 7334,
      "ÙĪÛĮØªØ§": 7335,
      "ĠÙħÙĦØ§ÙĤ": 7336,
      "ĠÙģØ±ÙĪØ³": 7337,
      "Ù¾Ø§Ø±Ø³Ø§": 7338,
      "ĠØ³Ø§Ø±ÙĪØ¬": 7339,
      "ĠÙĨØ§Ø¯ÛĮØ¯Ùĩ": 7340,
      "ØªÙĪØ§ÙĨ": 7341,
      "ÙĪØ§ØªØ±": 7342,
      "ĠØ¯Ø±Ø§ÚĺÙĩ": 7343,
      "Ú¯ÙĦÙĪ": 7344,
      "Ø§Ø¯Ø¹Ø§ÛĮ": 7345,
      "ÙĤØ§Øª": 7346,
      "ĠØ§Ø³ÙĨ": 7347,
      "ĠÙ¾Ø¯ÛĮØ¯Ùĩ": 7348,
      "ĠÙģØ§Ø·ÙħÛĮ": 7349,
      "ØµØ§Ø±Ùĩ": 7350,
      "ĠØ±ÛĮÙĦ": 7351,
      "ĠÙĦØ·Ùģ": 7352,
      "ĠØ«Ø¨ØªÛĮ": 7353,
      "ĠØ¨Ø§ÙĦØ§Ø®Ø±Ùĩ": 7354,
      "ĠØ§ÙĨØ¯Ø§Ø®ØªÙĩ": 7355,
      "ĠØ§Ø¬Ø¨Ø§Ø±ÛĮ": 7356,
      "Ø§Ø¬Ø±Ø§ÛĮ": 7357,
      "ĠØªÙĪØ±ÛĮÙĦ": 7358,
      "ĠÙ¾ÙĦÚ©Ø§ÙĨÛĮ": 7359,
      "ĠÙ¾Ø±ÚĨ": 7360,
      "Ġwe": 7361,
      "ĠÙħÙĪÙĤØªÛĮ": 7362,
      "ĠÙģØ±ØµØªÛĮ": 7363,
      "ĠÙ¾ÛĮØ§ÙħØ¯ÙĩØ§ÛĮ": 7364,
      "ÙħÙĤØ§Ø·Ø¹": 7365,
      "Ġanz": 7366,
      "ĠØ¯ÙģØªØ±ÛĮ": 7367,
      "ĠØ¯Ø±ÙĩØ§ÙĪØ±": 7368,
      "ĠÙ¾ÙĨÙĩØ§ÙĨ": 7369,
      "âĢ": 7370,
      "Ø¯ÙĦØ§ÙĦ": 7371,
      "ĠØ¯Ø§Ø³ÙĪÙĩ": 7372,
      "Ø´ÙĤ": 7373,
      "ĠÚ©ÙĪÛĮÙĦ": 7374,
      "ĠÚ©Ø§Ú©Ø§ÛĮÙĪ": 7375,
      "ĠØ¯Ø±ÙĤØ§ÙĦØ¨": 7376,
      "Ú¯Ø³Ø§": 7377,
      "Ø¨Ø±Ø®": 7378,
      "ĠÙģØ¶": 7379,
      "Ø§Ø²ÙĪÙĦ": 7380,
      "Ø¬Ø¨": 7381,
      "ĠÚĨØ³Ø¨": 7382,
      "ĠØ³ÙĩØ±ÙħØ²": 7383,
      "ĠÙ¾ÛĮØ´Ø±ÙĪÛĮ": 7384,
      "ĠØ§Ø·ÙĦØ³": 7385,
      "ĠÙ¾ÙĦØ§ØªÛĮÙĨ": 7386,
      "ĠØ®ÙĪØ§ÙĩÛĮØ¯": 7387,
      "Ġbn": 7388,
      "ĠØªØ¹Ø¯ÛĮÙĦØ§Øª": 7389,
      "ĠÙħÙĦÚ©ÛĮ": 7390,
      "ØªØ§ÚĺÛĮ": 7391,
      "ÙĨÙģØªØ§ÛĮ": 7392,
      "Ù¾ÙĦØ§Ø³ØªÛĮÚ©": 7393,
      "Ú©ÙĪØ±Ø´": 7394,
      "ĠØ¬Ø²ÛĮØ±Ùĩ": 7395,
      "ĠÚ¯ÙģØªÚ¯ÙĪÙĩØ§ÛĮ": 7396,
      "Ġun": 7397,
      "Ø§ÙĦÚ©ØªØ±ÙĪØ¯": 7398,
      "Ġnib": 7399,
      "ĠØ§Ø³Ú©ÙĦÙĩ": 7400,
      "ÙĨØ±ÙħØ§ÙĦ": 7401,
      "ĠÙħØŃØ±ÙħØ§ÙĨÙĩ": 7402,
      "ÙĩØ±ÙħØ²": 7403,
      "ĠÙħØ§Ø¯": 7404,
      "Ø§ÛĮÙĤÛĮ": 7405,
      "ĠØ¯ÙħÙĪ": 7406,
      "Ø³ÙĨÚ¯ÛĮ": 7407,
      "ĠØªØ±ÙĪÛĮ": 7408,
      "ĠÙĪØªØ¹": 7409,
      "ĠÙĩØªÙĦ": 7410,
      "Ø§ÙĦØ¨ÛĮ": 7411,
      "ĠØ§Ø³ØªØ±ÛĮÙĦ": 7412,
      "ØµÙĨÙħ": 7413,
      "ĠØ§ÛĮÙĨØ·ÙĪØ±": 7414,
      "ÙħÛĮØ²Ø§ÙĨ": 7415,
      "ĠÙĨÙħÚ©": 7416,
      "ĠØ§Ø¨Ø§Ø¯Ø§": 7417,
      "ĠØ¯Ø³ØªÚ©Ø§Ø±ÛĮ": 7418,
      "ĠØ¨Ø¯Ø¨ÛĮÙĨ": 7419,
      "ĠØ´Ø§ÙħÙĦØ§": 7420,
      "ĠØŃØ³ÛĮÙĨØ§": 7421,
      "ĠÙĩØ¯ÙģÚ¯Ø°Ø§Ø±ÛĮ": 7422,
      "Ġeur": 7423,
      "ĠØ¯ÙĦÙĤ": 7424,
      "ĠÙħÙĪØ¬ÙĪØ¯ÛĮÙĩØ§": 7425,
      "ĠÚ©ÙĦÛĮØ§Øª": 7426,
      "ĠØ§Ù¾Ø±Ø¯Ø§Ø²": 7427,
      "ĠØ§Ø¨ÙĦØ§ØºÛĮ": 7428,
      "Ø§ÙħÙ¾ÙĪÙĦ": 7429,
      "rom": 7430,
      "ĠØ¨Ø§Ø¯Ø§ÙħÚ©": 7431,
      "ĠÙ¾Ø±Ø¯Ø§Ø²Ø´": 7432,
      "ental": 7433,
      "ĠØ¨Ø§Ø·ÙĦÙĩ": 7434,
      "ĠØ«Ø§ÙĦØ«": 7435,
      "ĠØ§Ø²Ø³Ø±Ú¯ÛĮØ±ÛĮ": 7436,
      "ĠÙħÙħØªØ§Ø²": 7437,
      "ĠØ¸Ø§ÙĩØ±Ø§": 7438,
      "ip": 7439,
      "ĠØ¨Ú¯Ø°Ø§Ø±": 7440,
      "ĠØ¨Ø³ØªØ±ÛĮ": 7441,
      "Ú©Ø³ØªØ§ÙĨ": 7442,
      "ĠØ¯ÙģØ±Ø§": 7443,
      "Ø§Ø±Ú¯ÙĪØ³": 7444,
      "Ø´Ø§Ø³ÛĮ": 7445,
      "ĠÙĩØ§Ø´": 7446,
      "Ø¨Ø®": 7447,
      "Ø¨ÛĮÙħÙĩ": 7448,
      "Ø¨Ø·Ø±ÛĮ": 7449,
      "ÙĦÛĮÙħÙĪ": 7450,
      "Ø§ØªÛĮÙĦÙĨ": 7451,
      "ĠØ§Ø³ØªØ±ÛĮÙħ": 7452,
      "Ø®Ø§ÙĨÛĮ": 7453,
      "Ø§Ø¨ÙħÛĮÙĪÙĩ": 7454,
      "ĠØ§Ø±ÛĮØ§ÙĨ": 7455,
      "Ù¾ÛĮØ²Ø¯": 7456,
      "Ø§ÙģØªÙĩ": 7457,
      "ØªÛĮØºÙĩ": 7458,
      "ØºØ¯Ø±": 7459,
      "ĠÚ©ÙĨØ³": 7460,
      "ĠÛĮÚ©Ø³Ø§ÙĨ": 7461,
      "ĠÙħØ´Ø¹ÙĦ": 7462,
      "ÙĨÛĮØ§Ø²": 7463,
      "ÙħÙĦØ§Ø³": 7464,
      "ÙħÙĦØ²ÙĪÙħØ§Øª": 7465,
      "Ø¯ÛĮÙĦÛĮ": 7466,
      "Ø³ÙĪØ¯ÙĪ": 7467,
      "Ø³ÙĪØ¯ÙĨØ§Ø´ÛĮ": 7468,
      "ĠÚ©ÙĦØ³ÛĮÙħ": 7469,
      "ĠØ³Ø±Ø¨ÛĮ": 7470,
      "ĠØ·ÙĦÙĤÛĮ": 7471,
      "Ø¨Ø§ÙĦÙĪ": 7472,
      "ĠØ¨ÙĦÚĺÛĮÚ©": 7473,
      "Ġbg": 7474,
      "Ø¯Ø§ÙĦØ¨Ø±": 7475,
      "ÙħÙĪØ§Ø¯Ø§ÙĪÙĦÛĮÙĩ": 7476,
      "ĠØ§ØµÙĦØ§ØŃÛĮÙĩ": 7477,
      "ĠÙħØ§ÙĨØ¯ÙĨØ¯": 7478,
      "Ø¨ÙĨØ§ÛĮ": 7479,
      "Ú¯ÙĦØ¯Ø´Øª": 7480,
      "Ù¾Ø±ÙĪØªÛĮÛĮÙĨ": 7481,
      "ĠÙģØ±ÙħØ§ÙĨØ¯Ùĩ": 7482,
      "ĠØ®Ø§ÙĨÙĪØ§Ø±ÙĩØ§": 7483,
      "ĠØ¯Ú©Ù¾Ø³ÙĪÙĦ": 7484,
      "ÙħÙĪØªÙĪ": 7485,
      "Ø°ØºØ§ÙĦØ³ÙĨÚ¯": 7486,
      "Ø¨ÙĪØªÙĨ": 7487,
      "Ø³Ø§ÛĮØ±ÙħÙĪØ§Ø¯": 7488,
      "ĠÙĨØ§Ú¯ÙĩØ§ÙĨÛĮ": 7489,
      "ĠØ®Ø§ØªÙħÙĩ": 7490,
      "ĠØªÙĦÙĪÛĮØ²ÛĮÙĪÙĨÛĮ": 7491,
      "Ø³Ø§ÛĮØ±Ø¯Ø±Ø§Ùħ": 7492,
      "Ú©Ø§ÛĮÙĪÚĨ": 7493,
      "ÙħØ±Ø¨Ø§": 7494,
      "Ø³ÛĮÙĦÛĮÚ©Ø§Øª": 7495,
      "ĠØ¯ÙĦÙĤÙħØ§": 7496,
      "iti": 7497,
      "ÙħÛĮÙħ": 7498,
      "ĠØ¨ÙĩÙ¾Ø§Ú©": 7499,
      "ĠÙħØ§ÙĩØ§ÛĮ": 7500,
      "ĠØ§ÙģØ±Ø§": 7501,
      "ØªØ±Ø§Ùħ": 7502,
      "ĠØ§Ø¹ØªÙħ": 7503,
      "ÙĤÛĮØ§Ùħ": 7504,
      "ĠØ³ÛĮÙĦÛĮ": 7505,
      "ĠØ«Ø´Ø§ÙĩØ¯": 7506,
      "ĠÙ¾ÙĦØªÙģ": 7507,
      "ĠØ®Ø·Ø§Ø¨": 7508,
      "ĠØªØ¨Ø¹ÛĮ": 7509,
      "Ġtra": 7510,
      "ĠÙĪØ³ÛĮÙĨØ§": 7511,
      "ĠÙħØ³ÛĮÙĪÙĦÛĮÙĨ": 7512,
      "ĠÙħÙĪÙĨØªØ§ÚĺÛĮ": 7513,
      "ĠØ®Ø´Ú©Ø³Ø§ÙĦÛĮ": 7514,
      "ĠØ®Ø±Ø¬": 7515,
      "ĠÚĨØ±Ø®Ø´": 7516,
      "ĠØ§Ø³ØªØ«ÙĨØ§ÛĮ": 7517,
      "Ġprices": 7518,
      "ĠØ¨ÙħÙ¾ÙĨØ§": 7519,
      "Ø³ÛĮØ±": 7520,
      "Ø²Ø§Ú¯Ø±Ø³": 7521,
      "ĠÙĩÚ¯Ø²": 7522,
      "ĠØ´Ø³Ù¾Ø§": 7523,
      "ÙĤØ§ÙĨ": 7524,
      "ĠØ§ÛĮÙĦ": 7525,
      "ĠØ®Øµ": 7526,
      "ĠØ§Ø³ØªØ¯ÙĦØ§ÙĦ": 7527,
      "Ø±ÙĪÙĦØ§Ú©": 7528,
      "ĠØ§ÙĨØ±ÛĮÚ©Ùĩ": 7529,
      "ĠØªÙĨØ®ÙĪØ§Ùĩ": 7530,
      "ĠØ³ÙĩÚ¯ÙħØª": 7531,
      "ĠØ¯ÛĮÙĪØ§Ø±": 7532,
      "ĠØ³ÛĮØ§Ø³ØªÙĩ": 7533,
      "ĠØ¹ÙħØ±Ø§ÙĨ": 7534,
      "ĠØ§ØµØ±Ø§Ø±": 7535,
      "Ġab": 7536,
      "ĠØ¨Ø±Ø®Ø·": 7537,
      "Ġbc": 7538,
      "ĠÙħØ³ØªÙħØ±ÛĮ": 7539,
      "ÙģÙĪØ±ÙħÛĮØª": 7540,
      "ĠØ¨Ø¯ÙĩÛĮÙħ": 7541,
      "ĠØªØ¬ÙħÛĮØ¹ÛĮ": 7542,
      "ĠÙĤØ§Ø¹Ø¯Ùĩ": 7543,
      "Ø±ÙĨÛĮÚ©": 7544,
      "Ø¯Ø§ÛĮ": 7545,
      "Ø§Ø±Ø¬": 7546,
      "ĠÙĪÙĦØ³": 7547,
      "ĠÙĪÙģØ§": 7548,
      "ĠÙ¾Ø±Ø³ÛĮ": 7549,
      "ĠÙĤØ§Ø±": 7550,
      "ĠØŃØ§ÛĮØ²": 7551,
      "ĠØŃØªØ§ÛĮØ¯": 7552,
      "Ø°Ø¨": 7553,
      "ĠÙħØ¯Ø§Ø±Ø³": 7554,
      "ĠÚ©Ø§Ø±Ú©Ø±Ø¯Ùĩ": 7555,
      "ĠÙħÙĪØ±Ø¯ÛĮ": 7556,
      "ĠØ·ÛĮÙģ": 7557,
      "Ġtank": 7558,
      "ĠØªØ®Ø±ÛĮØ¨": 7559,
      "ĠÙĪØ³Ø¯ÛĮØ¯": 7560,
      "ĠØŃÙģØ§Ø±Ø³": 7561,
      "Ø³Ù¾ÛĮØ¯": 7562,
      "ĠØ¬ÙĪØ§ÙĩØ±": 7563,
      "ĠØ¹ÙĪØ¶": 7564,
      "ĠÙ¾ÙĨØ¬Ùĩ": 7565,
      "Ø²Ø¯Ø§ÛĮÛĮ": 7566,
      "ĠØªØŃÙĤÛĮÙĤØ§ØªÛĮ": 7567,
      "ĠØ²Ø±Ø§Ø¹Øª": 7568,
      "Ġchina": 7569,
      "Ù¾ÙĪØ´Ø´": 7570,
      "Ġexp": 7571,
      "ĠØ±Ø§Ø¯ÛĮØ§ØªÙĪØ±": 7572,
      "ÙĨØ¸Ø§Ùħ": 7573,
      "ĠÙģØ±Ø§Ø³Ø§ØŃÙĦÛĮ": 7574,
      "ĠÙħÙĨÙģØ¹Øª": 7575,
      "Ġcovid": 7576,
      "âĢĶ": 7577,
      "Ø§ÙĨÛĮØª": 7578,
      "Ø´ÙĪÙĨ": 7579,
      "ĠÚ©Ø§Ø²": 7580,
      "ĠÙĪØ§ÙĨ": 7581,
      "ĠÙĪÛĮØ±": 7582,
      "Ø§ÙĦÙĪ": 7583,
      "ĠØ³ØªØ¯": 7584,
      "ĠØ³Ø´Ø±ÙĤ": 7585,
      "ĠØ¨ÙĩØ§Ø¯Ø±ÛĮ": 7586,
      "ĠØªÙĪÙ¾": 7587,
      "Ø±ÛĮØ³": 7588,
      "ĠØ§Ø±ÙĪÙħÛĮÙĩ": 7589,
      "Ø§Ø³ÙħÛĮ": 7590,
      "Ø§ÙĦÛĮØ²": 7591,
      "ĠÙĨÛĮÚ©": 7592,
      "ĠØ§ÙĦÚ¯": 7593,
      "ĠÚ©Ø§Ø±ÙĩØ§": 7594,
      "ĠØ¯Ø³ØªØ§ÙĪØ±Ø¯Ùĩ": 7595,
      "ĠØ´ÙĨÙģØª": 7596,
      "ĠÙĩÙģØªÙħÛĮÙĨ": 7597,
      "ĠÙħØ®Ø§Ø±Ø¬": 7598,
      "ĠØªÙģØ§Ø±Ø³": 7599,
      "ĠÙĪØ§Ø±ÛĮØ²ÛĮ": 7600,
      "ĠÙħÙĪØ«Ø±ÛĮ": 7601,
      "ĠÙģÙĦØ³Ø·ÛĮÙĨÛĮ": 7602,
      "ĠØ±Ø¶Ø§ÛĮØª": 7603,
      "ĠÙħØ´Ø±ÙĪØ·": 7604,
      "Ġreports": 7605,
      "Ø¨Ø§ÛĮØ¯ÙĨ": 7606,
      "ĠØ¹Ø³ÙĦÙĪÛĮÙĩ": 7607,
      "ĠÙģØ±Ø§ÙĨØ³ÙĪÛĮ": 7608,
      "ĠØ§Ú©Ø±ÛĮÙĦÛĮÚ©": 7609,
      "ĠÙħÙĦØ§ÙĤØ§Øª": 7610,
      "ÙĪØ§Ú©ÙĨØ´": 7611,
      "ÙħØ°": 7612,
      "Ø¨ÙĪØ¯ÛĮ": 7613,
      "ĠØ´Ú©ÙĨ": 7614,
      "ĠØ´Ø±Ø§ÙĨÙĦ": 7615,
      "Ø§ØªØŃ": 7616,
      "Ø§Ø¯ÙĪ": 7617,
      "ĠØ®ÛĮØ²": 7618,
      "ĠÙ¾Ú©Ø±ÙħØ§ÙĨ": 7619,
      "Ø§Ø²Ø§Ø¯": 7620,
      "ĠØ§ÙĨØªÛĮ": 7621,
      "ĠÛĮÛĮ": 7622,
      "ĠØ±ÛĮÙģÙĪØ±ÙħÛĮØª": 7623,
      "ĠÙĦØ§ÛĮÙĩ": 7624,
      "ĠØºØ¨Ø´ÙĩØ±": 7625,
      "Ú¯Ø±Ø¬ÛĮ": 7626,
      "ĠØ§Ø±Ø²Ø´Ú¯Ø°Ø§Ø±ÛĮ": 7627,
      "ĠØ¨Ø´Ùĩ": 7628,
      "ĠÙħØŃØ¯ÙĪØ¯ØªØ±": 7629,
      "ĠØ´ÙĨØ§Ø®Øª": 7630,
      "ĠÙĪØ±ÙĨØ§": 7631,
      "ĠÙħÙĦØ²ÙĪÙħØ§Øª": 7632,
      "ĠÙħØªØ±Ø§Úĺ": 7633,
      "ĠØ§Ù¾Ø´ÙĨ": 7634,
      "ĠØ´Ù¾ÙĦÛĮ": 7635,
      "ÙģÙĪÚ©Ø§": 7636,
      "ĠØ¯ÙĤØ§ÛĮÙĤÛĮ": 7637,
      "ĠØ³ÙħØ§Ø²ÙĨ": 7638,
      "ĠØ´Ø¨ÙĩØ±ÙĨ": 7639,
      "ĠÙħØ±ØªØ¶ÛĮ": 7640,
      "ĠØ±Ø§Ø¯ÛĮØ§ÙĦ": 7641,
      "ĠØ¨Ø±Ø§ÙĨÚ¯ÛĮØ²": 7642,
      "ĠÚĨÚ¯ÙĪÙĨÚ¯ÛĮ": 7643,
      "ĠØªÚ©Ø§ÙĦÛĮÙģ": 7644,
      "td": 7645,
      "ĠØ¯Ø§Ø¨ÙĪØ±": 7646,
      "ĠÚ©Ù¾ÙĦ": 7647,
      "ĠÙĪØ·": 7648,
      "ĠÙĪÙĨÙģØª": 7649,
      "ĠÙĪÚ©Ø§ÙĦ": 7650,
      "ĠÙĨØ§ÛĮÙĦÙĪÙĨ": 7651,
      "ĠØ§Ø³Ø¨ÙĤ": 7652,
      "ĠØ§ÙĪØ§ÙĨ": 7653,
      "ĠÙĦØ³": 7654,
      "Ø¯ÛĮØ¯Ø§Ø±": 7655,
      "ĠØ²ÛĮØ±Ø³": 7656,
      "ĠØ³ÙĪÛĮØ¯": 7657,
      "ĠØ§ÙĪØ±ÙĨØ¯": 7658,
      "ÙħØ¯Ø§Ø±Ø§ÙĨ": 7659,
      "Ø³ÛĮÙħØ§": 7660,
      "ĠÙħØ´ØªØ±Ú©Ø§ÙĨ": 7661,
      "ĠÙħØ´ØªØ±Ú©ÛĮÙĨ": 7662,
      "ĠÙĨÙĪØ´ØªÛĮÙħ": 7663,
      "ĠØ´ÛĮØ®": 7664,
      "ĠØ§Ø²ÙħØ§ÛĮÛĮ": 7665,
      "ith": 7666,
      "Ú¯ÛĮÙĦØ§ÙĨ": 7667,
      "ĠØ¯Ø²ÙĩØ±Ø§ÙĪÛĮ": 7668,
      "ĠØ´Ø¯ÙĪØµ": 7669,
      "ĠÙģØ±Ø§ÙħÙĪØ´": 7670,
      "ĠÙħØ¨Ø§ØŃØ«": 7671,
      "ĠØ§Ø¹ØªÙħØ§Ø¯ÛĮ": 7672,
      "ru": 7673,
      "sa": 7674,
      "ÙĨØ§Ùģ": 7675,
      "ĠÚ©Ø§Ø¨": 7676,
      "ĠÚ©Ø§ÙĨØ¯": 7677,
      "ĠÙĪÙħÙĩ": 7678,
      "ĠØ¯Ø±ÙħÙĪØ±Ø¯": 7679,
      "Ø§ÙĦØ¯ÛĮ": 7680,
      "ĠÙģØªÙĪØ³Ø§": 7681,
      "ĠÙĤØ¶": 7682,
      "Ø§Ø¨ÙĨ": 7683,
      "ĠØ±ÙĪØ§ÛĮØª": 7684,
      "ĠØµØ§Ø¯Ø§Ø±": 7685,
      "ÙĪÙĨÙĪÙħÛĮ": 7686,
      "ĠØ²Ù¾Ø§Ø±Ø³": 7687,
      "ÛĮØ´ÙĪ": 7688,
      "ÛĮØ´ÙĨ": 7689,
      "Ø§ÙĪÛĮÙĦ": 7690,
      "ĠØ§ÙĤØ´Ø§Ø±": 7691,
      "ĠÚ©Ø§Ø±Ø¨": 7692,
      "Ġjp": 7693,
      "ĠÙĪÛĮØ§ÙĦ": 7694,
      "ĠØ§ÙĩØ³ØªÙĩ": 7695,
      "ĠÙħØ°Ø§Ø¨": 7696,
      "ĠØ§Ø±Ø¯ÙĪØºØ§ÙĨ": 7697,
      "Ø§ÙĦØ¨Ø§ÙĨ": 7698,
      "Ø§ÙĦÛĮØ§Úĺ": 7699,
      "ĠØ³Ø§ÛĮØ¨Ø±ÛĮ": 7700,
      "ĠØ³Ø®ØªÚ¯ÛĮØ±Ø§ÙĨÙĩ": 7701,
      "ĠØ´Ù¾Ø§Ø³": 7702,
      "ĠØ¯Ú©ÛĮÙħÛĮ": 7703,
      "ĠÙĩØ´ØªÙħÛĮÙĨ": 7704,
      "Ø®Ø§Ø±Ø²Ùħ": 7705,
      "ĠØ¯ÙģØ§Ø±Ø§": 7706,
      "ĠØªÙĪØ§ÙĨØ³ØªÛĮÙħ": 7707,
      "ĠØ³Ø§Ø±Ø¨ÛĮÙĦ": 7708,
      "ĠØ³Ú©Ø±ÙħØ§": 7709,
      "Ø§Ø¯ÛĮØ±Ø§": 7710,
      "ĠÚ©Ø§Ù¾Ø±ÙĪÙĦØ§Ú©": 7711,
      "ĠØ¯Ø§ØªØ§Ùħ": 7712,
      "ĠÚ©Ù¾ÙĦØ±": 7713,
      "ist": 7714,
      "ĠÚ©ÙĪØ¨": 7715,
      "ĠØ¯Ø±Ø§Ø²ÛĮ": 7716,
      "ĠØ´ØµØ¯Ùģ": 7717,
      "ĠÙģÙĨØ¯": 7718,
      "Ø¬ÛĮØ§ÙĨ": 7719,
      "ØµÛĮÙĦ": 7720,
      "ĠØŃÚ¯ÙĩØ±": 7721,
      "ĠÙĦØ§ÙĪØ±ÙĪÙģ": 7722,
      "ĠØ§ÙĦÚ©ÙĦ": 7723,
      "ĠØ§ÙĦÚ¯ÙĪ": 7724,
      "ĠØºÙħÛĮÙĨÙĪ": 7725,
      "ĠØ§ØªÙĩØ§Ùħ": 7726,
      "ĠÙħØ±Ú¯": 7727,
      "ĠÙģØ¹Ø§ÙĦÛĮ": 7728,
      "ĠØ§ØµÙĨØ§Ùģ": 7729,
      "ĠØºÛĮØ±ØŃØ¶": 7730,
      "ĠØªÙħÙĦÛĮ": 7731,
      "Ġfrom": 7732,
      "ĠØ·Ø±ØŃÛĮ": 7733,
      "ĠÚ¯ÙĦÙĪØ¨Ø§ÙĦ": 7734,
      "ical": 7735,
      "ĠØ¯ÙĤØ§Ø¶ÛĮ": 7736,
      "ĠØªØŃØ±ÛĮØ±": 7737,
      "ĠÙħÙĨÛĮØ²ÛĮÙħ": 7738,
      "ĠØ®ÙģÙĨØ±": 7739,
      "ĠØ¯ÙĦÛĮÙĦÛĮ": 7740,
      "ĠÚ©ÙĦÙĩ": 7741,
      "ĠÚ©Ø¯Ùħ": 7742,
      "ĠÙĪØ§ÛĮÙĨØ¯": 7743,
      "ĠÙĪØ¨Ø±ÙĤ": 7744,
      "ĠÙĨÚ¯ÛĮÙĨ": 7745,
      "ĠØ´ØªÙĪÚ©Ø§": 7746,
      "Ø¹ÙĪØ§Ø±Ø¶": 7747,
      "ĠØ§ÛĮØ±Ø¨": 7748,
      "ĠØ¨Ø±Ùĩ": 7749,
      "ĠÛĮÙĩ": 7750,
      "ÛĮØ¯Ø§ÙĨ": 7751,
      "ĠÙħØ¹Ø¶": 7752,
      "ĠØ§ÙĪØ±Ø§ÙĨ": 7753,
      "ĠÚ©Ø§Ø±Ú¯Ø§Ùĩ": 7754,
      "Ø§ÙħØ¯Ø§Ø¯": 7755,
      "ĠØ¯Ø§Ø±ÙĨØ¯Ùĩ": 7756,
      "ĠÙħÙĤØ§ÙĪÙħ": 7757,
      "Ø¨Ø±ÙĨØ§ÙħÙĩ": 7758,
      "ĠÙ¾ÛĮØ§ÙħÛĮ": 7759,
      "ĠÙĪÛĮØ§": 7760,
      "ĠØ¨Ø²Ø±Ú¯ØªØ±": 7761,
      "ĠÙħØ®ØªØµ": 7762,
      "ĠÙħØ®Ø²ÙĨ": 7763,
      "ĠØ§Ø¹Ø·Ø§": 7764,
      "Ø´ÛĮØ±Ø§Ø²": 7765,
      "ĠÙĨØ¯Ø§Ø´ØªÛĮÙħ": 7766,
      "ĠØ®Ø±Ø§Ø¨": 7767,
      "Ø³Ø¨Ø¬ÙĨÙĪ": 7768,
      "ĠØªØ±Ø¯Ø¯": 7769,
      "ĠÙħÛĮØ¯Ú©ÙĪ": 7770,
      "ÚĨØ±Ø®Ùĩ": 7771,
      "ĠÙģØ±ÛĮØ²Ø±": 7772,
      "Ø¶Ø±Ø±": 7773,
      "ĠØ§Ø²Ø¨Ú©Ø³ØªØ§ÙĨ": 7774,
      "Ġview": 7775,
      "ÙģØ§Ø±Ø§Ú©": 7776,
      "ĠÙģØ§ÛĮÙĨÙĨØ´Ø§ÙĦ": 7777,
      "ĠØºÛĮØ±ØŃØ¶ÙĪØ±ÛĮ": 7778,
      "ØªÚ©ÙĨ": 7779,
      "ĠÚ©ØŃØ§ÙģØ¸": 7780,
      "ĠÙĪØ´ÙĩØ±": 7781,
      "ĠØ³ÙĨØ¬ÛĮ": 7782,
      "ĠØ®Ù¾ÙĪÛĮØ´": 7783,
      "ĠØ¬Ø§ÙĦØ¨ÛĮ": 7784,
      "ĠÚĨØ¯ÙĨÛĮ": 7785,
      "ĠÙħÙĪØ¨ÛĮÙĦ": 7786,
      "ÙħÙĦØ§Ø±Ø¯": 7787,
      "ĠØºØ¯ÛĮØ³": 7788,
      "ĠØºÚ©ÙĪØ±Ø´": 7789,
      "ĠÙ¾ÛĮØ´Ø¨Ø±Ø¯": 7790,
      "ĠØªØ¹ÙħÛĮÙĤ": 7791,
      "ĠÚ©ÙĦØ§ÙĪ": 7792,
      "ØªÙħØ§Ùħ": 7793,
      "Ġav": 7794,
      "ĠØ§ÙĩØ§ÙĦÛĮ": 7795,
      "ĠØªÛĮØ±Ø§ÙĩÙĨ": 7796,
      "Ø¯Ø§Ø±ÙĪ": 7797,
      "ĠÙĩÙĪØ§Ù¾ÛĮ": 7798,
      "ĠÙģÙĦÙĪÙĦÙĩ": 7799,
      "Ú©ÙħØ§": 7800,
      "ĠØ´Ú©Ø±Ø¨ÙĨ": 7801,
      "Ġins": 7802,
      "Ġpetro": 7803,
      "Ø§Ú¯ÙĪÙĨ": 7804,
      "ĠØ¨ÙģØ±ÙĪØ´ÙĨØ¯": 7805,
      "ĠØ¨Ú¯ÙĪÛĮÙħ": 7806,
      "ĠØ¹ÙĤÙĦØ§ÙĨÛĮØª": 7807,
      "ĠØ¯Ø±Ø§Ø²Ú©": 7808,
      "ĠØ¹Ø¬ÙĦÙĩ": 7809,
      "ĠÚ©ÛĮÙħÛĮØ§ØªÚ©": 7810,
      "Ø§ÙĦØ¯ÛĮÛĮØ¯": 7811,
      "df": 7812,
      "ØªÙĪÙĤÙģ": 7813,
      "Ú©Ú¯Ø§Ø²": 7814,
      "ĠØ¯Ø§ÛĮÙħ": 7815,
      "ĠØªØ§ØµÛĮÚ©ÙĪ": 7816,
      "ĠÙĪØ³Ø§ÛĮØ±": 7817,
      "ĠØ¯Ø±ÙĪØ²": 7818,
      "Ú¯Ø±ÙĪØ³ÛĮ": 7819,
      "Ø¨ÙĨØ¯": 7820,
      "ĠØ´Ø¬Ùħ": 7821,
      "ÙģØ±ÛĮ": 7822,
      "Ø§Ø¯ÙĦÛĮ": 7823,
      "ĠØ®Ú©Ø§Ø±": 7824,
      "ĠÙģØ§Ø°Ø±": 7825,
      "ĠÙģÙĨÙĪØ§ÙĦ": 7826,
      "ĠØ§Ø³ØªØ§Ø±Øª": 7827,
      "ĠØ¹ÙĤØ¯": 7828,
      "ĠØ§Ø±ÛĮ": 7829,
      "ĠÙħØ¹ØªØ¯": 7830,
      "ĠØ§ÙģØ²Ø§Ø±ÛĮ": 7831,
      "ĠÙĦØ§Ú©": 7832,
      "ĠØ´ÙĨØ§ÙĪØ±ÙĩØ§ÛĮ": 7833,
      "ĠØªØ³ÙĦÛĮØª": 7834,
      "ĠØ§ÙĪÙĦÙģÛĮÙĨ": 7835,
      "ĠØ¨ÙĦØº": 7836,
      "ĠÙ¾Ø§Ú©Ø´ÙĪ": 7837,
      "ÙĨØ´Ø±ÛĮÙĩ": 7838,
      "ĠÙħØ®Ø§Ø·": 7839,
      "ĠØ´Ù¾Ø§Ú©Ø³Ø§": 7840,
      "ĠØ¨Ø¯ÙĩÚ©Ø§Ø±Ø§ÙĨ": 7841,
      "ĠØ®Ø±ÛĮØ®Øª": 7842,
      "amental": 7843,
      "ĠØ§ÙĨØŃØ±Ø§Ùģ": 7844,
      "ĠØ³ÛĮÙĦÙĨØ¯Ø±": 7845,
      "ĠØ¯Ø³Ø§ÙĨÚ©ÙĪ": 7846,
      "ĠÙĦØ¨Ø§Ø³Ø´ÙĪÛĮÛĮ": 7847,
      "ĠÙĪÙĦØ³Ø§Ù¾Ø§": 7848,
      "ry": 7849,
      "ĠØ¯Ø¹Ø¨ÛĮØ¯": 7850,
      "Ø´ÛĮØ¯": 7851,
      "ĠÙĪÙĩ": 7852,
      "Ø¨ÙĨØ¯ÛĮ": 7853,
      "ĠØ³ÙĨØ¬": 7854,
      "Ø®ÙĪØ¨": 7855,
      "Ø®Ø§ÙĪØ±": 7856,
      "ÙĪÙĨÛĮØª": 7857,
      "ÛĮØ´Ø¨": 7858,
      "ĠÙħÙĨØ¹": 7859,
      "ÙĨÛĮÚ©ÙĦ": 7860,
      "Ú¯Ø±ÙģØªÙĩ": 7861,
      "ĠÙĨØ¸Ùħ": 7862,
      "ĠØ®Ø§ÙħÙĨÙĩ": 7863,
      "ĠØªÙĪØ³ÙĨ": 7864,
      "ĠØ±Ø³ÙħÛĮØª": 7865,
      "ĠÚ©Ø³Ø¹Ø¯ÛĮ": 7866,
      "ĠØ±ÙĪØ¯Ø®Ø§ÙĨÙĩ": 7867,
      "ĠØ¯Ø§ÙĨÚ¯": 7868,
      "ÙħØ¬Ø§Ø²": 7869,
      "ĠØ§Ø²Ø§Ø¯Ú¯Ø§ÙĨ": 7870,
      "ĠØ´Ú©Ø§Ùħ": 7871,
      "ĠÙģÙĨÙĪØ±Ø¯": 7872,
      "ĠÚ¯ÙĪÛĮØ§": 7873,
      "ĠÙģÙĤØ¯Ø§ÙĨ": 7874,
      "ĠÙħÛĮØ¯ÙĦ": 7875,
      "ĠÙħÛĮÚ©Ø±ÙĪ": 7876,
      "ĠÙĪØ§Ø±Ø¯Ùĩ": 7877,
      "ĠØ®ÙħØŃÙĪØ±": 7878,
      "ĠÚ¯ÛĮÚ¯Ø§ÙĪØ§Øª": 7879,
      "Ø®ÙĦØ§ØµÙĩ": 7880,
      "ĠÙħÙģØµÙĦ": 7881,
      "ĠÙħØ§Ø³Ú©": 7882,
      "ĠÙĪÙģØ±ÙĪØ´": 7883,
      "Ø²ÛĮØ±Ùĩ": 7884,
      "ĠÙĨÛĮØ´": 7885,
      "ĠØ³Ú©Ø±Ø¯": 7886,
      "ĠØ®ÙħÙĪØªÙĪØ±": 7887,
      "ĠÙģØ§ÛĮÙĦ": 7888,
      "Ø¬ÙĦÛĮÙĦÛĮ": 7889,
      "ĠØ¹Ø²Ùħ": 7890,
      "ĠØ¬Ø§Øª": 7891,
      "Ø±Ø¯Ú¯ÛĮ": 7892,
      "ĠØ§Ø±ÙħØ§ÙĨ": 7893,
      "ØºØ§ÙĦÛĮ": 7894,
      "Ø¨ÙĦÙĨØ¯": 7895,
      "Ø«Ø¨Øª": 7896,
      "ĠØ³ÙĪØ¯ÙĩØ§ÛĮ": 7897,
      "ĠØºÙħÙĩØ±Ø§": 7898,
      "ĠØºÙ¾ÛĮÙĨÙĪ": 7899,
      "ÙĪÙĤØ§": 7900,
      "ĠÚ©ÙĦÙĪÙĨØ¯": 7901,
      "ÙĪØ´Ùĩ": 7902,
      "ĠÙ¾ÙĨØ¬Ø§Ùĩ": 7903,
      "ĠØ¨Ø±Ø³ÙĨØ¯": 7904,
      "ĠÚĺØ§Ù¾ÙĨÛĮ": 7905,
      "Ú¯ÙĪÛĮØ§ÙĨ": 7906,
      "ĠØ§ÙĨÚ¯ÙĦÛĮØ³ÛĮ": 7907,
      "ĠØ¶ÙħÙĨØ§": 7908,
      "ĠØ§Ø±Ø²Ø§ÙĨØªØ±": 7909,
      "ĠÙĩØ´ØªÙħ": 7910,
      "ĠØ³Ø®ÙĨØ§ÙĨ": 7911,
      "Ù¾Ø§Ø³Ø®": 7912,
      "ĠÙĨØ§Ú¯ÙĩØ§ÙĨ": 7913,
      "ĠØªØŃØ±Ú©Ø§Øª": 7914,
      "ĠÙ¾ÙĦØªÙģØ±Ùħ": 7915,
      "ĠÙħØ¹ØªØ¯ÙĦ": 7916,
      "ding": 7917,
      "qu": 7918,
      "Ø¯Ú©": 7919,
      "ÙĪÚ©ÙĪ": 7920,
      "ÙĨÙĪØ±ÛĮ": 7921,
      "ĠÙħØ§Ø¨ÛĮÙĨ": 7922,
      "Ø§ÛĮØ²Ø±": 7923,
      "ĠØ¯Ù¾Ø§Ø±Ø³": 7924,
      "ĠÙĪØªÙĪ": 7925,
      "Ú¯Ø´Øª": 7926,
      "ĠØ±Ø§Ø³ØªÛĮ": 7927,
      "Ø§ØªÛĮØª": 7928,
      "ĠÙģÙĪÙħ": 7929,
      "ĠÙģØ³Ù¾Ø§": 7930,
      "ĠÙĤØ§Ø³Ùħ": 7931,
      "Ø®Ø´Ú©": 7932,
      "ĠØ¨Ø§Ú©ÙĪ": 7933,
      "Ø±Ø§ÙĨÙģÙĪØ±": 7934,
      "ĠØ²Ø®": 7935,
      "ĠÙħÙĨÙģØµ": 7936,
      "ĠØªÙĨÙĪÛĮÙĨ": 7937,
      "ĠØºÙħØ§Ø±": 7938,
      "ĠÙ¾ÛĮØ´Ø±Ø§ÙĨ": 7939,
      "ĠÙĤØ±Ø¨Ø§ÙĨÛĮ": 7940,
      "ĠØ³ÛĮØ³ØªØ§ÙĨ": 7941,
      "ĠØ¯ÙĪØ¨ÛĮ": 7942,
      "ĠØ«ÙģØ§Ø±Ø³": 7943,
      "ĠØ¨Ø§ÙĦØ§Ø³": 7944,
      "ĠØ³Ø§Ø²ÙĨØ¯Ú¯Ø§ÙĨ": 7945,
      "ÛĮØ§ÙĨØª": 7946,
      "ĠØ±Ø³ÙĨØ¯": 7947,
      "ĠØ¨ÙĨØ§Ø¨Ø±": 7948,
      "ĠØ§Ø¯ØºØ§Ùħ": 7949,
      "ĠØ§Ú©Ø±ÛĮÙĦ": 7950,
      "Ġpo": 7951,
      "ĠÙģØ±ÙĪÙ¾Ø§Ø´ÛĮ": 7952,
      "ĠÙ¾Ø§Ø³Ø§": 7953,
      "ĠØ§ÙĦÙħØ§ÙĨÛĮ": 7954,
      "ĠØ´Ú©ÙĦØ±": 7955,
      "atf": 7956,
      "ess": 7957,
      "ĠÙħØ¨Ø§Ø±Ú©": 7958,
      "ĠØ®ÙĪØ±Ø¯ÙĨ": 7959,
      "ĠØ®ÙĨØµÛĮØ±": 7960,
      "ÙģØ±ÙĪØ³ÛĮÙĦ": 7961,
      "ĠØ´ÙĦØ¹Ø§Ø¨": 7962,
      "ĠØŃØ¬ÙħÛĮ": 7963,
      "ĠÙ¾Ø¯Ø§Ùģ": 7964,
      "ĠÙ¾ÙĦÛĮÙħØ±ÙĩØ§": 7965,
      "Ġfundamental": 7966,
      "ĠØ§Ø³ØªØ¹ÙĦØ§Ùħ": 7967,
      "ĠÙħÙĨÙģØµÙĦÙĩ": 7968,
      "ĠØºÙħØ§Ø±Ú¯": 7969,
      "Ø¯ØªÙĪØ²ÛĮØ¹": 7970,
      "ÙħØµØ±Ùģ": 7971,
      "ĠÙĪÙħÙĦÙĦ": 7972,
      "ĠØ±Ø§ÙĦÛĮ": 7973,
      "ĠÙĨØ§Øª": 7974,
      "ĠÙĨÚ¯ÛĮØ±": 7975,
      "Ø¨Ø§Øº": 7976,
      "ĠØ³ÛĮØª": 7977,
      "Ø¹Ø²ÛĮ": 7978,
      "ĠÙģÙħØ±Ø§Ø¯": 7979,
      "ĠÚ¯Ø§ÙħÛĮ": 7980,
      "ĠÚ¯Ø¯ÙĨØ§": 7981,
      "ĠÙĤØµÙģÙĩØ§": 7982,
      "Ø®Ø·": 7983,
      "ĠØŃØ§Ø³Ø§": 7984,
      "ĠØ§ÙĨØ³Ø§ÙĨ": 7985,
      "ĠÚĨÙĪØ¨ÛĮ": 7986,
      "ĠØ²ÙħØ²": 7987,
      "ĠØ²ÙģÚ©Ø§": 7988,
      "ØºØ³Ø§ÙĦÙħ": 7989,
      "ĠØ¯ÙĩØ¯Ø´Øª": 7990,
      "Ø§Ø³ØªÙģØ§Ø¯Ùĩ": 7991,
      "ĠØŃØ§ÙĦÛĮØ³Øª": 7992,
      "ĠØ³ÙĨÚ¯ÛĮÙĨÛĮ": 7993,
      "Ġcif": 7994,
      "ĠÙħÚ©Ø§Øª": 7995,
      "ĠÚ©Ø±Ø§Ø²ÛĮ": 7996,
[...]
