{
  "version": "1.0",
  "truncation": null,
  "padding": null,
  "added_tokens": [
    {
      "id": 0,
      "content": "<|begin_of_text|>",
      "single_word": false,
      "lstrip": false,
      "rstrip": false,
      "normalized": false,
      "special": true
    },
    {
      "id": 1,
      "content": "<|end_of_text|>",
      "single_word": false,
      "lstrip": false,
      "rstrip": false,
      "normalized": false,
      "special": true
    },
    {
      "id": 2,
      "content": "<space>",
      "single_word": false,
      "lstrip": false,
      "rstrip": false,
      "normalized": false,
      "special": true
    }
  ],
  "normalizer": {
    "type": "Sequence",
    "normalizers": [
      {
        "type": "Strip",
        "strip_left": true,
        "strip_right": true
      },
      {
        "type": "NFD"
      },
      {
        "type": "BertNormalizer",
        "clean_text": true,
        "handle_chinese_chars": true,
        "strip_accents": true,
        "lowercase": true
      },
      {
        "type": "Replace",
        "pattern": {
          "Regex": "\\s{2,}"
        },
        "content": "<space>"
      },
      {
        "type": "Replace",
        "pattern": {
          "String": " "
        },
        "content": "<space>"
      }
    ]
  },
  "pre_tokenizer": {
    "type": "Sequence",
    "pretokenizers": [
      {
        "type": "Digits",
        "individual_digits": true
      },
      {
        "type": "Split",
        "pattern": {
          "String": "(?i:'s|'t|'re|'ve|'m|'ll|'d)|[^\\r\\n\\p{L}\\p{N}]?\\p{L}+|\\p{N}{1,3}| ?[^\\s\\p{L}\\p{N}]+[\\r\\n]*|\\s*[\\r\\n]+|\\s+(?!\\S)|\\s+"
        },
        "behavior": "MergedWithPrevious",
        "invert": false
      }
    ]
  },
  "post_processor": null,
  "decoder": {
    "type": "BPEDecoder",
    "suffix": "<space>"
  },
  "model": {
    "type": "BPE",
    "dropout": null,
    "unk_token": null,
    "continuing_subword_prefix": null,
    "end_of_word_suffix": null,
    "fuse_unk": false,
    "byte_fallback": false,
    "vocab": {
      "<|begin_of_text|>": 0,
      "<|end_of_text|>": 1,
      "<space>": 2,
      "$": 3,
      "%": 4,
      "&": 5,
      "+": 6,
      "-": 7,
      ".": 8,
      "0": 9,
      "1": 10,
      "2": 11,
      "3": 12,
      "4": 13,
      "5": 14,
      "6": 15,
      "7": 16,
      "8": 17,
      "9": 18,
      "<": 19,
      "=": 20,
      ">": 21,
      "?": 22,
      "[": 23,
      "]": 24,
      "^": 25,
      "a": 26,
      "b": 27,
      "c": 28,
      "d": 29,
      "e": 30,
      "f": 31,
      "g": 32,
      "h": 33,
      "i": 34,
      "j": 35,
      "k": 36,
      "l": 37,
      "m": 38,
      "n": 39,
      "o": 40,
      "p": 41,
      "q": 42,
      "r": 43,
      "s": 44,
      "t": 45,
      "u": 46,
      "v": 47,
      "w": 48,
      "x": 49,
      "y": 50,
      "z": 51,
      "£": 52,
      "ا": 53,
      "ب": 54,
      "ت": 55,
      "ث": 56,
      "ج": 57,
      "ح": 58,
      "خ": 59,
      "د": 60,
      "ذ": 61,
      "ر": 62,
      "ز": 63,
      "س": 64,
      "ش": 65,
      "ص": 66,
      "ض": 67,
      "ط": 68,
      "ظ": 69,
      "ع": 70,
      "غ": 71,
      "ف": 72,
      "ق": 73,
      "ل": 74,
      "م": 75,
      "ن": 76,
      "ه": 77,
      "و": 78,
      "٫": 79,
      "پ": 80,
      "چ": 81,
      "ژ": 82,
      "ک": 83,
      "گ": 84,
      "ی": 85,
      "–": 86,
      "—": 87,
      "‚": 88,
      "€": 89,
      "ce": 90,
      "sp": 91,
      "ace": 92,
      "space": 93,
      "<space": 94,
      "ه<space>": 95,
      "ی<space>": 96,
      "ر<space>": 97,
      "ن<space>": 98,
      "د<space>": 99,
      "ت<space>": 100,
      "ا<space>": 101,
      "ای": 102,
      "ار": 103,
      "در<space>": 104,
      "<space>م": 105,
      "از": 106,
      "ال": 107,
      "و<space>": 108,
      "ان<space>": 109,
      "ان": 110,
      "اس": 111,
      "به<space>": 112,
      "ای<space>": 113,
      "ام": 114,
      "ش<space>": 115,
      "رو": 116,
      ".<space>": 117,
      "ری": 118,
      "ده<space>": 119,
      "لی": 120,
      "از<space>": 121,
      "ار<space>": 122,
      "تو": 123,
      "ل<space>": 124,
      "که<space>": 125,
      "ال<space>": 126,
      "م<space>": 127,
      "بر": 128,
      "اه": 129,
      "های<space>": 130,
      "ات<space>": 131,
      "ود<space>": 132,
      "ین<space>": 133,
      "اف": 134,
      "ور": 135,
      "دا": 136,
      "این<space>": 137,
      "ته<space>": 138,
      "می<space>": 139,
      "است": 140,
      "د.<space>": 141,
      "با<space>": 142,
      "<space>می": 143,
      "را<space>": 144,
      "<space>میلی": 145,
      "یم": 146,
      "ارد<space>": 147,
      "رک": 148,
      "اد": 149,
      "اب": 150,
      "سی": 151,
      "است<space>": 152,
      "ند<space>": 153,
      "ز<space>": 154,
      "دی": 155,
      "کر": 156,
      "<space>%": 157,
      "اه<space>": 158,
      "باز": 159,
      "قیم": 160,
      "نف": 161,
      "س<space>": 162,
      "ک<space>": 163,
      "قیمت<space>": 164,
      "بو": 165,
      "مان<space>": 166,
      "فرو": 167,
      "ق<space>": 168,
      "ام<space>": 169,
      "<space>%<space>": 170,
      "ها<space>": 171,
      "ول": 172,
      "نی": 173,
      "شد<space>": 174,
      "تی<space>": 175,
      "سال<space>": 176,
      "است.<space>": 177,
      "بازار<space>": 178,
      "برای<space>": 179,
      "خو": 180,
      "اخ": 181,
      "بی": 182,
      "ور<space>": 183,
      "می": 184,
      "<space>٫": 185,
      "<space>٫<space>": 186,
      "کن": 187,
      "ون<space>": 188,
      "ست": 189,
      "اد<space>": 190,
      "ع<space>": 191,
      "ران<space>": 192,
      "اق": 193,
      "نفت<space>": 194,
      "زای": 195,
      "هم": 196,
      "فروش<space>": 197,
      "$<space>": 198,
      "اری<space>": 199,
      "شته<space>": 200,
      "شده<space>": 201,
      "تص": 202,
      "مو": 203,
      "لی<space>": 204,
      "شرک": 205,
      "کاه": 206,
      "افزای": 207,
      "تومان<space>": 208,
      "یر<space>": 209,
      "انه<space>": 210,
      "گذ": 211,
      "شرکت<space>": 212,
      "تا<space>": 213,
      "ریال<space>": 214,
      "ند": 215,
      "رف": 216,
      "افزایش<space>": 217,
      "کاهش<space>": 218,
      "ب<space>": 219,
      "تح": 220,
      "او": 221,
      "عام": 222,
      "اع": 223,
      "کش": 224,
      "نگ": 225,
      "ماه<space>": 226,
      "بت<space>": 227,
      "وی": 228,
      "ده": 229,
      "پی": 230,
      "تر": 231,
      "تر<space>": 232,
      "تن<space>": 233,
      "در": 234,
      "ایی<space>": 235,
      "هر<space>": 236,
      "خ<space>": 237,
      "عامل": 238,
      "انی<space>": 239,
      "ایران<space>": 240,
      "بر<space>": 241,
      "زی": 242,
      "مح": 243,
      "دی<space>": 244,
      "نی<space>": 245,
      "تولی": 246,
      "بان": 247,
      "اور": 248,
      "رشد<space>": 249,
      "اص": 250,
      "ط<space>": 251,
      "من": 252,
      "یر": 253,
      "رسی": 254,
      "اش": 255,
      "سر": 256,
      "پای": 257,
      "تق": 258,
      "نر": 259,
      "عر": 260,
      "الی<space>": 261,
      "رین<space>": 262,
      "روز<space>": 263,
      "اح": 264,
      "دار": 265,
      "زی<space>": 266,
      "خود<space>": 267,
      "دو": 268,
      "مای": 269,
      "نو": 270,
      "<space>ه": 271,
      "زار<space>": 272,
      "<space>می<space>": 273,
      "<space>$<space>": 274,
      "است<space>که<space>": 275,
      "رس": 276,
      "هم<space>": 277,
      "جه<space>": 278,
      "خواه": 279,
      "نس": 280,
      "نرخ<space>": 281,
      "زار": 282,
      "تولید<space>": 283,
      "در<space>ح": 284,
      "بوده<space>": 285,
      "فته<space>": 286,
      "ف<space>": 287,
      "<space>ماه": 288,
      "گر": 289,
      "ول<space>": 290,
      "اض": 291,
      "اقتص": 292,
      "و<space>م": 293,
      "به": 294,
      "نسبت<space>": 295,
      "جه": 296,
      "ادی<space>": 297,
      "بود<space>": 298,
      "داد<space>": 299,
      "د.": 300,
      "قر": 301,
      "<space>هزار<space>": 302,
      "فر": 303,
      "نش": 304,
      "یک<space>": 305,
      "گذشته<space>": 306,
      "داشته<space>": 307,
      "سو": 308,
      "ات": 309,
      "ست<space>": 310,
      "سود<space>": 311,
      "شن": 312,
      "شت<space>": 313,
      "یت<space>": 314,
      "بانک": 315,
      "ص<space>": 316,
      "کرد<space>": 317,
      "نده<space>": 318,
      "ارز": 319,
      "اس<space>": 320,
      "خواهد<space>": 321,
      "معامل": 322,
      "تع": 323,
      "هفته<space>": 324,
      "که<space>در<space>": 325,
      "ریک": 326,
      "کشور<space>": 327,
      "اتی<space>": 328,
      "امه<space>": 329,
      "عرض": 330,
      "یا<space>": 331,
      "یاف": 332,
      "مش": 333,
      "بور": 334,
      "عرضه<space>": 335,
      "سه<space>": 336,
      "امریک": 337,
      "صاد": 338,
      "سه": 339,
      "قب": 340,
      "ح<space>": 341,
      "جم": 342,
      "گزار": 343,
      "دن<space>": 344,
      "مر": 345,
      "دول": 346,
      "نظ": 347,
      "تم": 348,
      "شو": 349,
      "ند.<space>": 350,
      "ی<space>از<space>": 351,
      "است.": 352,
      "عم": 353,
      "بال": 354,
      "طل": 355,
      "چین<space>": 356,
      "توس": 357,
      "ساز": 358,
      "بل": 359,
      "چن": 360,
      "کرده<space>": 361,
      "خری": 362,
      "بی<space>": 363,
      "بش": 364,
      "صادر": 365,
      "بورس<space>": 366,
      "اج": 367,
      "ترین<space>": 368,
      "دود<space>": 369,
      "انگ": 370,
      "نه<space>": 371,
      "له<space>": 372,
      "شود<space>": 373,
      "نیز<space>": 374,
      "بن": 375,
      "یم<space>": 376,
      "در<space>م": 377,
      "سیه<space>": 378,
      "مایه<space>": 379,
      "امریکا<space>": 380,
      "تقاض": 381,
      "یه<space>": 382,
      "گاز<space>": 383,
      "سرمایه<space>": 384,
      "نق": 385,
      "کال": 386,
      "همچن": 387,
      "یک": 388,
      "اند<space>": 389,
      "<space>ماهه<space>": 390,
      "دولت<space>": 391,
      "روسیه<space>": 392,
      "دید<space>": 393,
      "بیش": 394,
      "کم": 395,
      "ارز<space>": 396,
      "وار": 397,
      "پر": 398,
      "قاب": 399,
      "در<space>سال<space>": 400,
      "در<space>هر<space>": 401,
      "کار": 402,
      "بانک<space>م": 403,
      "ستان<space>": 404,
      "قبل<space>": 405,
      "رکزی<space>": 406,
      "گر<space>": 407,
      "از<space>م": 408,
      "گاه<space>": 409,
      "تور": 410,
      "صن": 411,
      "غ<space>": 412,
      "ارو": 413,
      "نشان<space>": 414,
      "اک": 415,
      "پیش<space>": 416,
      "ی<space>در<space>": 417,
      "انت": 418,
      "بود": 419,
      "نم": 420,
      "r<space>": 421,
      "داخ": 422,
      "وز": 423,
      "اما<space>": 424,
      "سال": 425,
      "گف": 426,
      "شر": 427,
      "رژ": 428,
      "عه<space>": 429,
      "مع": 430,
      "دت<space>": 431,
      "صادرات<space>": 432,
      "نفت<space>خ": 433,
      "گزارش<space>": 434,
      "پا<space>": 435,
      "اختص": 436,
      "اختصاص": 437,
      "به<space>د": 438,
      "می<space>ده": 439,
      "انرژ": 440,
      "ورد<space>": 441,
      "ج<space>": 442,
      "اقتصادی<space>": 443,
      "شم": 444,
      "بخ": 445,
      "کل<space>": 446,
      "اره<space>": 447,
      "-<space>": 448,
      "بای": 449,
      "گیر": 450,
      "است<space>و<space>": 451,
      "شی": 452,
      "ات<space>م": 453,
      "باش": 454,
      "اده<space>": 455,
      "محص": 456,
      "ل<space>م": 457,
      "تل": 458,
      "فع": 459,
      "ترو": 460,
      "مج": 461,
      "ید<space>": 462,
      "ی<space>به<space>": 463,
      "تج": 464,
      "در<space>این<space>": 465,
      "وق<space>": 466,
      "گذاری<space>": 467,
      "بین<space>": 468,
      "افت<space>": 469,
      "ی<space>و<space>": 470,
      "خود<space>را<space>": 471,
      "ته": 472,
      "نامه<space>": 473,
      "انگین<space>": 474,
      "قرار<space>": 475,
      "y<space>": 476,
      "پایان<space>": 477,
      "ریی": 478,
      "ارزش<space>": 479,
      "لیل<space>": 480,
      "ar": 481,
      "گو": 482,
      "دارد<space>": 483,
      "اق<space>": 484,
      "نگ<space>": 485,
      "همچنین<space>": 486,
      "دار<space>": 487,
      "با": 488,
      "شد.<space>": 489,
      "اب<space>": 490,
      "عد": 491,
      "نماد<space>": 492,
      "انرژی<space>": 493,
      "هی": 494,
      "ش<space>م": 495,
      "داده<space>": 496,
      "صور": 497,
      "گان<space>": 498,
      "تی": 499,
      "انج": 500,
      "be": 501,
      "کند<space>": 502,
      "زر": 503,
      "اختصاصی<space>": 504,
      "حدود<space>": 505,
      "رسیده<space>": 506,
      "خرید<space>": 507,
      "اروپا<space>": 508,
      "لام<space>": 509,
      "بانک<space>": 510,
      "خر": 511,
      "گرف": 512,
      "یل": 513,
      "اساس<space>": 514,
      "های<space>م": 515,
      "سته<space>": 516,
      "تغ": 517,
      "<space>تن<space>": 518,
      "<space>مو": 519,
      "ثبت<space>": 520,
      "بلغ<space>": 521,
      "ت.<space>": 522,
      "دات<space>": 523,
      "گفت<space>": 524,
      "پترو": 525,
      "ره<space>": 526,
      "ماه": 527,
      "حم": 528,
      "صورت<space>": 529,
      "نظر<space>": 530,
      "داشت<space>": 531,
      "بود.<space>": 532,
      "<space>و<space>": 533,
      "امین<space>": 534,
      "صنع": 535,
      "ایر<space>": 536,
      "تش": 537,
      "رییس<space>": 538,
      "قی<space>": 539,
      "جود<space>": 540,
      "عی<space>": 541,
      "می<space>دهد<space>": 542,
      "واح": 543,
      "بیشتر<space>": 544,
      "an": 545,
      "شنبه<space>": 546,
      "معاملات<space>": 547,
      "و<space>به<space>": 548,
      "رف<space>": 549,
      "صو": 550,
      "باید<space>": 551,
      "بد": 552,
      "شود.<space>": 553,
      "<space>به<space>": 554,
      "ولات<space>": 555,
      "اعلام<space>": 556,
      "پال": 557,
      "پس<space>": 558,
      "اقتصاد<space>": 559,
      "توسط<space>": 560,
      "کو": 561,
      "جهانی<space>": 562,
      "گرو": 563,
      "کالا<space>": 564,
      "ber<space>": 565,
      "پالای": 566,
      "می<space>تو": 567,
      "بینی<space>": 568,
      "بشکه<space>": 569,
      "دو<space>": 570,
      "هست": 571,
      "روند<space>": 572,
      "برگ": 573,
      "این": 574,
      "قو": 575,
      "تغی": 576,
      "تامین<space>": 577,
      "معامله<space>": 578,
      "امل<space>": 579,
      "دری": 580,
      "توجه<space>": 581,
      "اث": 582,
      "زان<space>": 583,
      "و<space>در<space>": 584,
      "بیش<space>": 585,
      "ابه<space>": 586,
      "مدت<space>": 587,
      "شاه": 588,
      "طر": 589,
      "شیمی<space>": 590,
      "واردات<space>": 591,
      "تب": 592,
      "انتظ": 593,
      "پرو": 594,
      "خار": 595,
      "تورم<space>": 596,
      "اند": 597,
      "یل<space>": 598,
      "امی<space>": 599,
      "ندگان<space>": 600,
      "میانگین<space>": 601,
      "عاملات<space>": 602,
      "در<space>حال<space>": 603,
      "داش": 604,
      "برخ": 605,
      "داری<space>": 606,
      "بزر": 607,
      "در<space>ماه<space>": 608,
      "طی<space>": 609,
      "را<space>به<space>": 610,
      "گروه<space>": 611,
      "کاهش<space>یاف": 612,
      "کار<space>": 613,
      "پتروشیمی<space>": 614,
      "بیش<space>از<space>": 615,
      "مل": 616,
      "ضو": 617,
      "بزرگ": 618,
      "هایی<space>": 619,
      "مق": 620,
      "اغ": 621,
      "دیگر<space>": 622,
      "درام": 623,
      "خت<space>": 624,
      "رسید<space>": 625,
      "راه<space>": 626,
      "ژه<space>": 627,
      "وجود<space>": 628,
      "جدید<space>": 629,
      "مدی": 630,
      "سازمان<space>": 631,
      "سی<space>": 632,
      "می<space>شود<space>": 633,
      "مشابه<space>": 634,
      "الی": 635,
      "کند.<space>": 636,
      "پس<space>از<space>": 637,
      "قه<space>": 638,
      "رسی<space>": 639,
      "ترک": 640,
      "اخرین<space>": 641,
      "وله<space>": 642,
      "افزایش<space>یاف": 643,
      "نز": 644,
      "<space>ریال<space>": 645,
      "زم": 646,
      "انجام<space>": 647,
      "ما<space>": 648,
      "زین<space>": 649,
      "ودی<space>": 650,
      "کننده<space>": 651,
      "قی": 652,
      "ادامه<space>": 653,
      "ضع": 654,
      "اوره<space>": 655,
      "روی<space>": 656,
      "ش<space>ماه": 657,
      "قط": 658,
      "اطل": 659,
      "کرد.<space>": 660,
      "الص<space>": 661,
      "بخش<space>": 662,
      "جل": 663,
      "بع": 664,
      "کشور": 665,
      "ولی<space>": 666,
      "ات<space>متح": 667,
      "پل": 668,
      "تقاضای<space>": 669,
      "سهم<space>": 670,
      "رسید.<space>": 671,
      "شی<space>": 672,
      "فعال": 673,
      "<space>تا<space>": 674,
      "چه<space>": 675,
      "تان": 676,
      "محصول<space>": 677,
      "ث<space>": 678,
      "سهام<space>": 679,
      "نت<space>": 680,
      "ایال": 681,
      "تواف": 682,
      "صند": 683,
      "خودر": 684,
      "مان": 685,
      "سط": 686,
      "کرد": 687,
      "ذخ": 688,
      "اپ": 689,
      "تد": 690,
      "ju": 691,
      "بررسی<space>": 692,
      "را<space>در<space>": 693,
      "شه": 694,
      "کن<space>": 695,
      "اسیا<space>": 696,
      "تقاضا<space>": 697,
      "تحری": 698,
      "نمو": 699,
      "خود": 700,
      "شاخ": 701,
      "اخیر<space>": 702,
      "بودجه<space>": 703,
      "ند<space>که<space>": 704,
      "بسی": 705,
      "mber<space>": 706,
      "ایالات<space>متح": 707,
      "رد": 708,
      "فول": 709,
      "برنامه<space>": 710,
      "اک<space>": 711,
      "وی<space>": 712,
      "فص": 713,
      "جاری<space>": 714,
      "اذ": 715,
      "گی<space>": 716,
      "نفتی<space>": 717,
      "سف": 718,
      "تر<space>از<space>": 719,
      "نج": 720,
      "ارت<space>": 721,
      "ایت<space>": 722,
      "توسعه<space>": 723,
      "اقد": 724,
      "باشد<space>": 725,
      "اینده<space>": 726,
      "صندوق<space>": 727,
      "کنی": 728,
      "ابتد": 729,
      "تن": 730,
      "<space>در<space>": 731,
      "چه": 732,
      "سیاست<space>": 733,
      "رود<space>": 734,
      "طور<space>": 735,
      "اکن": 736,
      "اری": 737,
      "میزان<space>": 738,
      "انتظار<space>": 739,
      "<space>تومان<space>": 740,
      "ز<space>م": 741,
      "پرداخ": 742,
      "لیه<space>": 743,
      "است.<space>م": 744,
      "تغییر<space>": 745,
      "دست": 746,
      "تخ": 747,
      "ازی<space>": 748,
      "وب<space>": 749,
      "<space>مالی<space>": 750,
      "اف<space>": 751,
      "بهره<space>": 752,
      "موضو": 753,
      "واحد<space>": 754,
      "شک": 755,
      "وزیر<space>": 756,
      "ارزی<space>": 757,
      "جنو": 758,
      "گرد": 759,
      "م<space>به<space>": 760,
      "گیری<space>": 761,
      "پار": 762,
      "درامد<space>": 763,
      "اول<space>": 764,
      "خصو": 765,
      "مت<space>": 766,
      "صرف<space>": 767,
      "اجر": 768,
      "داران<space>": 769,
      "قرار": 770,
      "ند<space>و<space>": 771,
      "صنعت<space>": 772,
      "تحریم<space>": 773,
      "اکر": 774,
      "دا<space>": 775,
      "وری<space>": 776,
      "لاز": 777,
      "سوخت<space>": 778,
      "بنزین<space>": 779,
      "طبی": 780,
      "نا": 781,
      "ها<space>در<space>": 782,
      "uar": 783,
      "شرای": 784,
      "داخلی<space>": 785,
      "شگاه<space>": 786,
      "زینه<space>": 787,
      "جمه": 788,
      "ذاکر": 789,
      "وم<space>": 790,
      "شاخص<space>": 791,
      "از<space>این<space>": 792,
      "مس": 793,
      "دس": 794,
      "در<space>روز<space>": 795,
      "ایر": 796,
      "بار<space>": 797,
      "ها<space>و<space>": 798,
      "خودرو<space>": 799,
      "قابل<space>": 800,
      "مبلغ<space>": 801,
      "سازی<space>": 802,
      "پایین<space>": 803,
      "شار<space>": 804,
      "وزار": 805,
      "دهای<space>": 806,
      "تحوی": 807,
      "جهان<space>": 808,
      "طلا<space>": 809,
      "اطلاع": 810,
      "یاب": 811,
      "uary<space>": 812,
      "باره<space>": 813,
      "به<space>ماه<space>": 814,
      "ارد<space>$<space>": 815,
      "شدن<space>": 816,
      "تری<space>": 817,
      "حس": 818,
      "ذخایر<space>": 819,
      "ق<space>به<space>": 820,
      "طقه<space>": 821,
      "زمان<space>": 822,
      "عملی": 823,
      "قف<space>": 824,
      "اسف": 825,
      "پرداخت<space>": 826,
      "پو": 827,
      "لین<space>": 828,
      "نب": 829,
      "جمو": 830,
      "بهم": 831,
      "بح": 832,
      "نوان<space>": 833,
      "توان": 834,
      "پذ": 835,
      "اوراق<space>": 836,
      "ng": 837,
      "طرح<space>": 838,
      "پایه<space>": 839,
      "تهران<space>": 840,
      "کنندگان<space>": 841,
      "تاث": 842,
      "بات<space>": 843,
      "ظرف": 844,
      "وزارت<space>": 845,
      "شامل<space>": 846,
      "گرفته<space>": 847,
      "محم": 848,
      "انو": 849,
      "اوپ": 850,
      "و<space>س": 851,
      "استف": 852,
      "چی": 853,
      "هزینه<space>": 854,
      "بهمن<space>": 855,
      "توافق<space>": 856,
      "عدد<space>": 857,
      "مین<space>": 858,
      "اگر<space>": 859,
      "استفاده<space>": 860,
      "باع": 861,
      "احتم": 862,
      "سطح<space>": 863,
      "د.<space>م": 864,
      "تف": 865,
      "یم.<space>": 866,
      "میلی": 867,
      "المل": 868,
      "تحویل<space>": 869,
      "کان": 870,
      "ردین<space>": 871,
      "فروردین<space>": 872,
      "بین<space>المل": 873,
      "نیم": 874,
      "<space>ماه<space>": 875,
      "عنوان<space>": 876,
      "همین<space>": 877,
      "نمای": 878,
      "s<space>": 879,
      "ادل<space>": 880,
      "اغاز<space>": 881,
      "ظرفیت<space>": 882,
      "عرب": 883,
      "کاری<space>": 884,
      "اینکه<space>": 885,
      "محصولات<space>": 886,
      "موضوع<space>": 887,
      "ملی<space>": 888,
      "از<space>ط": 889,
      "و<space>با<space>": 890,
      "سوی<space>": 891,
      "ابع<space>": 892,
      "اوپک<space>": 893,
      "ابتدای<space>": 894,
      "پول<space>": 895,
      "دان": 896,
      "بار": 897,
      "می<space>کن": 898,
      "قابل<space>م": 899,
      "پالایشگاه<space>": 900,
      "تای": 901,
      "ch": 902,
      "اع<space>": 903,
      "اسی": 904,
      "وره<space>": 905,
      "لا<space>": 906,
      "اردی": 907,
      "بود<space>و<space>": 908,
      "لح": 909,
      "<space>س": 910,
      "عربستان<space>": 911,
      "الی<space>که<space>": 912,
      "هد": 913,
      "تاری": 914,
      "عل": 915,
      "نا<space>": 916,
      "گران<space>": 917,
      "اصلی<space>": 918,
      "برخی<space>": 919,
      "باعث<space>": 920,
      "زیرا<space>": 921,
      "فولاد<space>": 922,
      "بهشت<space>": 923,
      "خرداد<space>": 924,
      "کمی": 925,
      "عامله<space>": 926,
      "سب": 927,
      "ابر<space>": 928,
      "روی": 929,
      "پیشن": 930,
      "تانول<space>": 931,
      "اط": 932,
      "پیشنه": 933,
      "ت<space>و<space>": 934,
      "e<space>": 935,
      "اردیبهشت<space>": 936,
      "ماهانه<space>": 937,
      "خالص<space>": 938,
      "فعالیت<space>": 939,
      "گاز": 940,
      "ابی<space>": 941,
      "اسی<space>": 942,
      "حص": 943,
      "ایج": 944,
      "ریق<space>": 945,
      "اکنون<space>": 946,
      "اظ": 947,
      "ایه<space>": 948,
      "دوم<space>": 949,
      "ember<space>": 950,
      "اذر<space>": 951,
      "l<space>": 952,
      "ایجاد<space>": 953,
      "تشر<space>": 954,
      "فی": 955,
      "ایع<space>": 956,
      "باشد.<space>": 957,
      "منطقه<space>": 958,
      "دم": 959,
      "گاز<space>طبی": 960,
      "شاهد<space>": 961,
      "د<space>و<space>": 962,
      "ابر": 963,
      "باد": 964,
      "اژ": 965,
      "لاح": 966,
      "لات<space>": 967,
      "ضی": 968,
      "مالی<space>": 969,
      "ه<space>به<space>": 970,
      "وارد<space>": 971,
      "همچنان<space>": 972,
      "شرایط<space>": 973,
      "رق": 974,
      "وضع": 975,
      "رای": 976,
      "گوی": 977,
      "دینگ": 978,
      "ارزش<space>م": 979,
      "ارات<space>": 980,
      "توضی": 981,
      "برق<space>": 982,
      "دارد.<space>": 983,
      "ترم<space>": 984,
      "فار": 985,
      "بسیار<space>": 986,
      "عامل<space>": 987,
      "نقدینگ": 988,
      "فق<space>به<space>": 989,
      "اسفند<space>": 990,
      "<space>-<space>": 991,
      "خبر<space>": 992,
      "چهار": 993,
      "خور": 994,
      "غیر": 995,
      "ویت<space>": 996,
      "ریت<space>": 997,
      "ادر<space>": 998,
      "امسال<space>": 999,
      "دست<space>": 1000,
      "ریان<space>": 1001,
      "هف": 1002,
      "همه<space>": 1003,
      "سام": 1004,
      "ری<space>": 1005,
      "ri": 1006,
      "می<space>کند<space>": 1007,
      "کشورهای<space>": 1008,
      "ویژه<space>": 1009,
      "بدون<space>": 1010,
      "تاثیر<space>": 1011,
      "وضعیت<space>": 1012,
      "عودی<space>": 1013,
      "زیر<space>": 1014,
      "یلات<space>": 1015,
      "تولید": 1016,
      "امی": 1017,
      "تسه": 1018,
      "<space>%-<space>": 1019,
      "ط<space>به<space>": 1020,
      "بعد<space>": 1021,
      "نه": 1022,
      "اورده<space>": 1023,
      "فوق<space>": 1024,
      "ند.": 1025,
      "بانکی<space>": 1026,
      "جم<space>": 1027,
      "mar": 1028,
      "شور": 1029,
      "عا<space>": 1030,
      "چند<space>": 1031,
      "ذاکرات<space>": 1032,
      "سنگ": 1033,
      "قرارداد<space>": 1034,
      "تجارت<space>": 1035,
      "t<space>": 1036,
      "هند<space>": 1037,
      "واق": 1038,
      "الب": 1039,
      "ثر<space>": 1040,
      "وس": 1041,
      "نفی<space>": 1042,
      "ان<space>در<space>": 1043,
      "ابت<space>": 1044,
      "حض": 1045,
      "<space>مبلغ<space>": 1046,
      "دم<space>": 1047,
      "غر": 1048,
      "+<space>": 1049,
      "توضیح<space>": 1050,
      "ضای<space>": 1051,
      "سهام": 1052,
      "حاض": 1053,
      "تیر<space>": 1054,
      "دیم<space>": 1055,
      "امات<space>": 1056,
      "ap": 1057,
      "داشت": 1058,
      "محدو": 1059,
      "خودرو": 1060,
      "خصوص<space>": 1061,
      "حقی": 1062,
      "ون<space>بش": 1063,
      "بالا": 1064,
      "حاضر<space>": 1065,
      "lng": 1066,
      "to": 1067,
      "خبر": 1068,
      "طب": 1069,
      "اجه<space>": 1070,
      "بود<space>که<space>": 1071,
      "وزه<space>": 1072,
      "کی<space>": 1073,
      "اتح": 1074,
      "ش<space>می<space>": 1075,
      "اند.<space>": 1076,
      "برابر<space>": 1077,
      "از<space>سوی<space>": 1078,
      "دهی<space>": 1079,
      "فروش<space>ماه": 1080,
      "میلیارد<space>": 1081,
      "حمای": 1082,
      "نبال<space>": 1083,
      "دهد.<space>": 1084,
      "هیچ": 1085,
      "فوب<space>": 1086,
      "ایل<space>": 1087,
      "عمل": 1088,
      "ازاد<space>": 1089,
      "بزرگ<space>": 1090,
      "حال<space>": 1091,
      "رییس<space>جمه": 1092,
      "تجاری<space>": 1093,
      "هر": 1094,
      "با<space>این<space>": 1095,
      "march": 1096,
      "می<space>رس": 1097,
      "حدا": 1098,
      "انها<space>": 1099,
      "juan": 1100,
      "شورای<space>": 1101,
      "کرد<space>که<space>": 1102,
      "نزدی": 1103,
      "ل<space>و<space>": 1104,
      "ادیه<space>": 1105,
      "<space>من": 1106,
      "هو": 1107,
      "نوس": 1108,
      "طه<space>": 1109,
      "تحلی": 1110,
      "اتحادیه<space>": 1111,
      "ریال": 1112,
      "عملیاتی<space>": 1113,
      "ان<space>به<space>": 1114,
      "شده<space>و<space>": 1115,
      "جمع<space>": 1116,
      "کنتر": 1117,
      "کم<space>": 1118,
      "تعداد<space>": 1119,
      "نیاز<space>": 1120,
      "شد": 1121,
      "تاریخ<space>": 1122,
      "پروژه<space>": 1123,
      "<space>با<space>": 1124,
      "جی<space>": 1125,
      "صنعتی<space>": 1126,
      "ارزی": 1127,
      "خوبی<space>": 1128,
      "خانه<space>": 1129,
      "اترین<space>": 1130,
      "براساس<space>": 1131,
      "بوط<space>به<space>": 1132,
      "یکی<space>از<space>": 1133,
      "ناش": 1134,
      "اوکر": 1135,
      "گزارش<space>ماه": 1136,
      "بالاترین<space>": 1137,
      "اتف": 1138,
      "البته<space>": 1139,
      "روغ": 1140,
      "کنیم<space>": 1141,
      "شناس": 1142,
      "حو": 1143,
      "منتشر<space>": 1144,
      "رسمی<space>": 1145,
      "یره<space>": 1146,
      "انس<space>": 1147,
      "صنایع<space>": 1148,
      "شش<space>": 1149,
      "ماهه<space>": 1150,
      "اش<space>": 1151,
      "ساخ": 1152,
      "همراه<space>": 1153,
      "پلی<space>": 1154,
      "شاهده<space>": 1155,
      "جهت<space>": 1156,
      "تاب": 1157,
      "کل": 1158,
      "درباره<space>": 1159,
      "ارزیابی<space>": 1160,
      "کمی<space>": 1161,
      "رقاب": 1162,
      "اجرای<space>": 1163,
      "اقدام<space>": 1164,
      "گفته<space>": 1165,
      "اطلاعات<space>": 1166,
      "نیست<space>": 1167,
      "شرق<space>": 1168,
      "اصلاح": 1169,
      "se": 1170,
      "ون<space>و<space>": 1171,
      "فصل<space>": 1172,
      "وق": 1173,
      "ارایه<space>": 1174,
      "€<space>": 1175,
      "سیر<space>": 1176,
      "به<space>طور<space>": 1177,
      "جموع<space>": 1178,
      "شهری": 1179,
      "میانه<space>": 1180,
      "کالاه": 1181,
      "سخ": 1182,
      "محموله<space>": 1183,
      "ایسه<space>": 1184,
      "ع<space>م": 1185,
      "مجمو": 1186,
      "اقی<space>": 1187,
      "به<space>این<space>": 1188,
      "مثبت<space>": 1189,
      "fe": 1190,
      "ساع": 1191,
      "اشیه<space>": 1192,
      "بادله<space>": 1193,
      "عملکرد<space>": 1194,
      "داشت.<space>": 1195,
      "کس": 1196,
      "فراورده<space>": 1197,
      "de": 1198,
      "نفت<space>و<space>": 1199,
      "اسل": 1200,
      "است.<space>لاز": 1201,
      "متانول<space>": 1202,
      "گست": 1203,
      "حمایت<space>": 1204,
      "بازار": 1205,
      "شم<space>": 1206,
      "گفت": 1207,
      "تور<space>": 1208,
      "ون<space>تن<space>": 1209,
      "روغن<space>": 1210,
      "صادراتی<space>": 1211,
      "بالا<space>": 1212,
      "مصرف<space>": 1213,
      "برنت<space>": 1214,
      "رقم<space>": 1215,
      "حد<space>": 1216,
      "br": 1217,
      "cf": 1218,
      "دریافت<space>": 1219,
      "ابان<space>": 1220,
      "سامانه<space>": 1221,
      "ون<space>$<space>": 1222,
      "مورد<space>": 1223,
      "تس": 1224,
      "شد<space>و<space>": 1225,
      "الا<space>": 1226,
      "تهی<space>به<space>": 1227,
      "اوکراین<space>": 1228,
      "ly<space>": 1229,
      "شهریور<space>": 1230,
      "مرک": 1231,
      "گرد<space>": 1232,
      "پاس": 1233,
      "<space>مر": 1234,
      "ضا<space>": 1235,
      "مالی": 1236,
      "هدف<space>": 1237,
      "مهم<space>": 1238,
      "جی": 1239,
      "اهن<space>": 1240,
      "حجم<space>": 1241,
      "را<space>با<space>": 1242,
      "کنترل<space>": 1243,
      "عمو": 1244,
      "جنوب<space>": 1245,
      "ثابت<space>": 1246,
      "تمام<space>": 1247,
      "شب": 1248,
      "شرو": 1249,
      "نخ": 1250,
      "امور<space>": 1251,
      "خاور": 1252,
      "عدم<space>": 1253,
      "تعط": 1254,
      "جلسه<space>": 1255,
      "اهی<space>": 1256,
      "نزدیک<space>": 1257,
      "تصمی": 1258,
      "دارایی<space>": 1259,
      "برج": 1260,
      "apri": 1261,
      "تحت<space>": 1262,
      "ها<space>به<space>": 1263,
      "تحلیل<space>": 1264,
      "عراق<space>": 1265,
      "یین<space>": 1266,
      "اورد<space>": 1267,
      "سته<space>ای<space>": 1268,
      "هفت": 1269,
      "تعیین<space>": 1270,
      "قان": 1271,
      "مکن<space>": 1272,
      "ندی<space>": 1273,
      "سنگ<space>": 1274,
      "نگر": 1275,
      "ختل": 1276,
      "بیشترین<space>": 1277,
      "داد": 1278,
      "ثبات<space>": 1279,
      "در<space>سال": 1280,
      "افی<space>": 1281,
      "july<space>": 1282,
      "یف<space>": 1283,
      "جریان<space>": 1284,
      "<space>را<space>": 1285,
      "اولین<space>": 1286,
      "گذار": 1287,
      "no": 1288,
      "سمت<space>": 1289,
      "ناخ": 1290,
      "خارجه<space>": 1291,
      "می<space>رود<space>": 1292,
      "خاورمیانه<space>": 1293,
      "هیچ<space>": 1294,
      "زمانی<space>": 1295,
      "تسهیلات<space>": 1296,
      "قانون<space>": 1297,
      "febr": 1298,
      "نیرو": 1299,
      "نتی": 1300,
      "ازه<space>": 1301,
      "اسرای": 1302,
      "حاشیه<space>": 1303,
      "کمتر<space>": 1304,
      "رقابت<space>": 1305,
      "بوده<space>و<space>": 1306,
      "<space>واحد<space>": 1307,
      "لو": 1308,
      "جنوبی<space>": 1309,
      "ترکیه<space>": 1310,
      "کی": 1311,
      "تحلیل": 1312,
      "زو": 1313,
      "jan": 1314,
      "دوره<space>": 1315,
      "بزرگترین<space>": 1316,
      "عمل<space>": 1317,
      "چشم<space>": 1318,
      "سکه<space>": 1319,
      "نتیجه<space>": 1320,
      "داد.<space>": 1321,
      "کر<space>": 1322,
      "زاری<space>": 1323,
      "پوشش<space>": 1324,
      "خاص": 1325,
      "اون<space>": 1326,
      "ازای<space>": 1327,
      "توقف<space>": 1328,
      "دور<space>": 1329,
      "مجل": 1330,
      "کانال<space>": 1331,
      "زیادی<space>": 1332,
      "کره<space>": 1333,
      "فل": 1334,
      "دنی": 1335,
      "ریال<space>و<space>": 1336,
      "قل": 1337,
      "کنند.<space>": 1338,
      "صد<space>": 1339,
      "february<space>": 1340,
      "جو": 1341,
      "نمی<space>": 1342,
      "اولیه<space>": 1343,
      "حف": 1344,
      "ناخالص<space>": 1345,
      "ر<space>به<space>": 1346,
      "<space>مع": 1347,
      "شمال<space>": 1348,
      "ها<space>را<space>": 1349,
      "oc": 1350,
      "شمش<space>": 1351,
      "march<space>": 1352,
      "اتیل": 1353,
      "طبق<space>": 1354,
      "علی<space>": 1355,
      "حه<space>": 1356,
      "ندار": 1357,
      "اوه<space>": 1358,
      "فارس<space>": 1359,
      "قق<space>": 1360,
      "تصمیم<space>": 1361,
      "بهبود<space>": 1362,
      "a<space>": 1363,
      "یز<space>": 1364,
      "امک": 1365,
      "جمله<space>": 1366,
      "کردن<space>": 1367,
      "january<space>": 1368,
      "خرد<space>": 1369,
      "گونه<space>": 1370,
      "کمک<space>": 1371,
      "انتشار<space>": 1372,
      "مک": 1373,
      "کد": 1374,
      "برس": 1375,
      "نفت": 1376,
      "فصلی<space>": 1377,
      "اعتب": 1378,
      "رات<space>": 1379,
      "پیدا<space>": 1380,
      "pt": 1381,
      "همکاری<space>": 1382,
      "فق": 1383,
      "تغییر": 1384,
      "روز": 1385,
      "خریداران<space>": 1386,
      "فشار<space>": 1387,
      "بازگ": 1388,
      "<space>سال<space>": 1389,
      "باقی<space>": 1390,
      "تاک": 1391,
      "عض": 1392,
      "ریس": 1393,
      "پیش": 1394,
      "مه": 1395,
      "کشتی<space>": 1396,
      "دان<space>": 1397,
      "که<space>به<space>": 1398,
      "اور<space>": 1399,
      "پارس<space>": 1400,
      "سایر<space>": 1401,
      "us": 1402,
      "اتیلن<space>": 1403,
      "ض<space>": 1404,
      "توانسته<space>": 1405,
      "خدم": 1406,
      "مجلس<space>": 1407,
      "که<space>این<space>": 1408,
      "دولتی<space>": 1409,
      "نقدینگی<space>": 1410,
      "منابع<space>": 1411,
      "یو": 1412,
      "نیمه<space>": 1413,
      "عمومی<space>": 1414,
      "cfr<space>": 1415,
      "حصولات<space>": 1416,
      "رو<space>": 1417,
      "زمی": 1418,
      "دستور": 1419,
      "نگرانی<space>": 1420,
      "حقو": 1421,
      "امو": 1422,
      "شده<space>در<space>": 1423,
      "ساعت<space>": 1424,
      "پی<space>": 1425,
      "سپر": 1426,
      "دستگاه<space>": 1427,
      "دهد<space>": 1428,
      "رینگ<space>": 1429,
      "ام<space>م": 1430,
      "حرک": 1431,
      "مردم<space>": 1432,
      "دریای<space>": 1433,
      "هنو": 1434,
      "امار<space>": 1435,
      "نشست<space>": 1436,
      "پالایش<space>": 1437,
      "اژانس<space>": 1438,
      "سهامداران<space>": 1439,
      "خلی": 1440,
      "lng<space>": 1441,
      "juan<space>": 1442,
      "dece": 1443,
      "قیمتی<space>": 1444,
      "تلاش<space>": 1445,
      "کلی": 1446,
      "دل": 1447,
      "میان<space>": 1448,
      "یک<space>م": 1449,
      "یلی<space>": 1450,
      "سر<space>": 1451,
      "صادر<space>": 1452,
      "براورد<space>": 1453,
      "سیم": 1454,
      "ان<space>و<space>": 1455,
      "انات<space>": 1456,
      "تنها<space>": 1457,
      "شد.": 1458,
      "خواهند<space>": 1459,
      "هفته<space>من": 1460,
      "پن": 1461,
      "کرد<space>و<space>": 1462,
      "ون<space>برگ": 1463,
      "بعد<space>از<space>": 1464,
      "بسیاری<space>": 1465,
      "الو": 1466,
      "تاکید<space>": 1467,
      "عیت<space>": 1468,
      "ابق<space>": 1469,
      "من<space>": 1470,
      "octo": 1471,
      "می<space>شو": 1472,
      "داشت<space>و<space>": 1473,
      "افر": 1474,
      "دید": 1475,
      "دیت<space>": 1476,
      "بهاد": 1477,
      "sept": 1478,
      "عنی<space>": 1479,
      "اوپک<space>پل": 1480,
      "گستر": 1481,
      "نی<space>بر<space>": 1482,
      "سالانه<space>": 1483,
      "الت<space>": 1484,
      "گذار<space>": 1485,
      "سقف<space>": 1486,
      "ورود<space>": 1487,
      "اوت<space>": 1488,
      "کالاهای<space>": 1489,
      "اقتصاد": 1490,
      "یعنی<space>": 1491,
      "سوم<space>": 1492,
      "از<space>نظر<space>": 1493,
      "مب": 1494,
      "دوشنبه<space>": 1495,
      "ان<space>را<space>": 1496,
      "به<space>مدت<space>": 1497,
      "in": 1498,
      "لحاظ": 1499,
      "april<space>": 1500,
      "در<space>نمو": 1501,
      "ضعیف<space>": 1502,
      "<space>سنت<space>": 1503,
      "زمستان<space>": 1504,
      "خواهیم<space>": 1505,
      "حقیقی<space>": 1506,
      "سعودی<space>": 1507,
      "قت<space>": 1508,
      "خوب<space>": 1509,
      "اسراییل<space>": 1510,
      "منفی<space>": 1511,
      "<space>%+<space>": 1512,
      "حتی<space>": 1513,
      "هستند<space>": 1514,
      "برجام<space>": 1515,
      "ریال<space>بود": 1516,
      "شاهده<space>است.": 1517,
      "سیون<space>": 1518,
      "پذیر": 1519,
      "ترکی": 1520,
      "فعالان<space>": 1521,
      "قل<space>": 1522,
      "ارت": 1523,
      "شبکه<space>": 1524,
      "october<space>": 1525,
      "به<space>نظر<space>": 1526,
      "جزی": 1527,
      "مذاکرات<space>": 1528,
      "حضور<space>": 1529,
      "december<space>": 1530,
      "فعلی<space>": 1531,
      "شد<space>که<space>": 1532,
      "سل": 1533,
      "اخر<space>": 1534,
      "سپرده<space>": 1535,
      "خارجی<space>": 1536,
      "september<space>": 1537,
      "غیر<space>": 1538,
      "یز": 1539,
      "شروع<space>": 1540,
      "جنگ<space>": 1541,
      "نقل<space>": 1542,
      "نقدی<space>": 1543,
      "قایسه<space>": 1544,
      "nov": 1545,
      "اجرایی<space>": 1546,
      "ختلف<space>": 1547,
      "منظ": 1548,
      "خلیج<space>": 1549,
      "کمیسیون<space>": 1550,
      "مست": 1551,
      "انتق": 1552,
      "چک<space>": 1553,
      "<space>قابل<space>م": 1554,
      "گوگرد<space>": 1555,
      "تقویت<space>": 1556,
      "حدو": 1557,
      "اختل": 1558,
      "بلو": 1559,
      "خوراک<space>": 1560,
      "الک": 1561,
      "چشم<space>اند": 1562,
      "شف": 1563,
      "<space>روز<space>": 1564,
      "میت<space>": 1565,
      "ترتی": 1566,
      "ma": 1567,
      "یان<space>": 1568,
      "اوراق<space>بهاد": 1569,
      "قیر<space>": 1570,
      "عات<space>": 1571,
      "یکی<space>": 1572,
      "فدر": 1573,
      "کنند<space>": 1574,
      "صی<space>": 1575,
      "شای": 1576,
      "کامل<space>": 1577,
      "%<space>": 1578,
      "صرف": 1579,
      "تولیدکنندگان<space>": 1580,
      "اله<space>": 1581,
      "نیست": 1582,
      "تواند<space>": 1583,
      "پول": 1584,
      "خرو": 1585,
      "بیت<space>": 1586,
      "ساله<space>": 1587,
      "می<space>توان": 1588,
      "نشده<space>": 1589,
      "<space>b": 1590,
      "عب<space>": 1591,
      "رفته<space>": 1592,
      "ممکن<space>": 1593,
      "عضو<space>": 1594,
      "گازوی": 1595,
      "ش<space>های<space>": 1596,
      "کیل": 1597,
      "اشاره<space>": 1598,
      "شه<space>": 1599,
      "دیل<space>": 1600,
      "موج": 1601,
      "احتمالا<space>": 1602,
      "<space>ت": 1603,
      "صح": 1604,
      "مواد<space>": 1605,
      "وا": 1606,
      "زد<space>": 1607,
      "غرب<space>": 1608,
      "نخست<space>": 1609,
      "هفتگی<space>": 1610,
      "رکورد<space>": 1611,
      "گری<space>": 1612,
      "جای": 1613,
      "فدرال<space>": 1614,
      "علیه<space>": 1615,
      "صه<space>": 1616,
      "حرکت<space>": 1617,
      "اروپ": 1618,
      "حموله<space>": 1619,
      "خارج<space>": 1620,
      "november<space>": 1621,
      "کارخانه<space>": 1622,
      "نک": 1623,
      "محدوده<space>": 1624,
      "ق<space>م": 1625,
      "اوری<space>": 1626,
      "هنوز<space>": 1627,
      "یمی": 1628,
      "دهم<space>": 1629,
      "برگزاری<space>": 1630,
      "استر": 1631,
      "محدود<space>": 1632,
      "c<space>": 1633,
      "مدیریت<space>": 1634,
      "تعه": 1635,
      "خص<space>": 1636,
      "d<space>": 1637,
      "منظور<space>": 1638,
      "بنا<space>": 1639,
      "خدمات<space>": 1640,
      "بنی": 1641,
      "اگر": 1642,
      "پنج": 1643,
      "تصوی": 1644,
      "gus": 1645,
      "هزار<space>": 1646,
      "نفتا<space>": 1647,
      "اسلامی<space>": 1648,
      "خط<space>": 1649,
      "گرم<space>": 1650,
      "اصلاح<space>": 1651,
      "بسته<space>": 1652,
      "بخش": 1653,
      "است<space>در<space>": 1654,
      "تقری": 1655,
      "ظه<space>": 1656,
      "لن<space>": 1657,
      "امنی": 1658,
      "<space>هم": 1659,
      "بالای<space>": 1660,
      "معادل<space>": 1661,
      "نفت<space>در<space>": 1662,
      "چهارشنبه<space>": 1663,
      "رکن": 1664,
      "زمینه<space>": 1665,
      "بالاتر<space>": 1666,
      "م<space>م": 1667,
      "ام<space>می<space>": 1668,
      "مال<space>": 1669,
      "ابل": 1670,
      "تحولات<space>": 1671,
      "مسکن<space>": 1672,
      "مط": 1673,
      "گازوییل<space>": 1674,
      "گران": 1675,
      "قبل<space>از<space>": 1676,
      "هستند.<space>": 1677,
      "به<space>سال<space>": 1678,
      "<space>l": 1679,
      "کرده<space>و<space>": 1680,
      "ارد<space>ریال": 1681,
      "شناسایی<space>": 1682,
      "صف": 1683,
      "au": 1684,
      "حساب<space>": 1685,
      "اج<space>": 1686,
      "چند": 1687,
      "<space>حدود<space>": 1688,
      "اقدامات<space>": 1689,
      "المان<space>": 1690,
      "بهار<space>": 1691,
      "ا<space>در<space>": 1692,
      "چهار<space>": 1693,
      "می<space>رسد<space>": 1694,
      "طرف<space>": 1695,
      "پولی<space>": 1696,
      "راست": 1697,
      "صادرکن": 1698,
      "را<space>از<space>": 1699,
      "عو": 1700,
      "کشاور": 1701,
      "معاملاتی<space>": 1702,
      "باز<space>": 1703,
      "دد<space>": 1704,
      "شت": 1705,
      "خز": 1706,
      "عمده<space>": 1707,
      "بود.": 1708,
      "نگوی<space>": 1709,
      "که<space>از<space>": 1710,
      "پیشنهاد<space>": 1711,
      "ترتیب<space>": 1712,
      "شرکت": 1713,
      "تال": 1714,
      "رفت<space>": 1715,
      "ابط<space>": 1716,
      "عی": 1717,
      "سهامی<space>": 1718,
      "تقریبا<space>": 1719,
      "حقوقی<space>": 1720,
      "طلای<space>": 1721,
      "اصل<space>": 1722,
      "حمله<space>": 1723,
      "تصویب<space>": 1724,
      "کوت": 1725,
      "امکان<space>": 1726,
      "اساس": 1727,
      "با<space>رشد<space>": 1728,
      "دیر<space>": 1729,
      "دارهای<space>": 1730,
      "<space>مواجه<space>": 1731,
      "خروج<space>": 1732,
      "یم.": 1733,
      "فدرال<space>ر": 1734,
      "نهایی<space>": 1735,
      "نوسان<space>": 1736,
      "فضای<space>": 1737,
      "حر": 1738,
      "دارند<space>": 1739,
      "جمهوری<space>": 1740,
      "بیشتری<space>": 1741,
      "عق": 1742,
      "تراز<space>": 1743,
      "پیلن<space>": 1744,
      "است<space>تا<space>": 1745,
      "صر": 1746,
      "مکعب<space>": 1747,
      "سخنگوی<space>": 1748,
      "حجم": 1749,
      "ربه<space>": 1750,
      "<space>میزان<space>": 1751,
      "شیمی": 1752,
      "خط": 1753,
      "راه<space>اند": 1754,
      "اتفاق": 1755,
      "ریسک<space>": 1756,
      "که<space>با<space>": 1757,
      "فراب": 1758,
      "بیم": 1759,
      "تخص": 1760,
      "لت<space>": 1761,
      "معاون<space>": 1762,
      "بودن<space>": 1763,
      "می<space>باش": 1764,
      "دارد<space>و<space>": 1765,
      "کو<space>": 1766,
      "نرخ": 1767,
      "قطر<space>": 1768,
      "ارز<space>و<space>": 1769,
      "کردند.<space>": 1770,
      "استان<space>": 1771,
      "رعامل<space>": 1772,
      "اپور<space>": 1773,
      "تث": 1774,
      "بدهی<space>": 1775,
      "فه": 1776,
      "لادی<space>": 1777,
      "در<space>چین<space>": 1778,
      "شهر<space>": 1779,
      "فرابور": 1780,
      "دیده<space>": 1781,
      "حداقل<space>": 1782,
      "سنگین<space>": 1783,
      "امریکایی<space>": 1784,
      "گل": 1785,
      "تولیدی<space>": 1786,
      "en": 1787,
      "فروش": 1788,
      "برداری<space>": 1789,
      "یک<space>میلی": 1790,
      "اخبار<space>": 1791,
      "یابد.<space>": 1792,
      "ستی<space>": 1793,
      "سیاسی<space>": 1794,
      "امیدو": 1795,
      "رکز<space>": 1796,
      "سرانه<space>": 1797,
      "تعمی": 1798,
      "بحران<space>": 1799,
      "شکل<space>": 1800,
      "عت<space>": 1801,
      "حوزه<space>": 1802,
      "<space>$": 1803,
      "سفار": 1804,
      "فن": 1805,
      "augus": 1806,
      "احتمال<space>": 1807,
      "تابستان<space>": 1808,
      "فدرال<space>رزر": 1809,
      "اغ<space>": 1810,
      "اختی": 1811,
      "حل<space>": 1812,
      "فعال<space>": 1813,
      "داشته<space>باش": 1814,
      "می<space>گوی": 1815,
      "پاسخ<space>": 1816,
      "ارد<space>و<space>": 1817,
      "رکز<space>م": 1818,
      "یار": 1819,
      "رت": 1820,
      "از<space>سال<space>": 1821,
      "th": 1822,
      "یات<space>": 1823,
      "مرداد<space>": 1824,
      "اسکن": 1825,
      "مز<space>": 1826,
      "ارگو": 1827,
      "کلی<space>": 1828,
      "لحظه<space>": 1829,
      "امار": 1830,
      "نگاه<space>": 1831,
      "ره": 1832,
      "زغ": 1833,
      "در<space>سه<space>": 1834,
      "بور<space>": 1835,
      "لازم<space>": 1836,
      "صوبه<space>": 1837,
      "برگزار<space>": 1838,
      "عملیات<space>": 1839,
      "رگ": 1840,
      "سرمایه<space>گذار": 1841,
      "رع": 1842,
      "پایانی<space>": 1843,
      "بازگشت<space>": 1844,
      "سفر<space>": 1845,
      "افت": 1846,
      "قوی<space>": 1847,
      "نبه<space>": 1848,
      "انتظارات<space>": 1849,
      "نکته<space>": 1850,
      "شماره<space>": 1851,
      "حله<space>": 1852,
      "بر<space>این<space>": 1853,
      "قرار<space>گرف": 1854,
      "fo": 1855,
      "اقصه<space>": 1856,
      "حذ": 1857,
      "ti": 1858,
      "دف": 1859,
      "رک<space>": 1860,
      "فرابورس<space>": 1861,
      "تثبیت<space>": 1862,
      "واقع<space>": 1863,
      "تایید<space>": 1864,
      "صعودی<space>": 1865,
      "مس<space>": 1866,
      "هر<space>سهم<space>": 1867,
      "اطلاع<space>": 1868,
      "تفاوت<space>": 1869,
      "اول": 1870,
      "ا<space>و<space>": 1871,
      "قیمت<space>$<space>": 1872,
      "نیز<space>م": 1873,
      "از<space>لحاظ": 1874,
      "روابط<space>": 1875,
      "راه": 1876,
      "تحلیلگران<space>": 1877,
      "دستور<space>": 1878,
      "سیز": 1879,
      "زیان<space>": 1880,
      "ایرانی<space>": 1881,
      "دوباره<space>": 1882,
      "دلیل<space>": 1883,
      "ال<space>م": 1884,
      "گند": 1885,
      "pe": 1886,
      "اماده<space>": 1887,
      "کوتاه<space>": 1888,
      "ظ<space>": 1889,
      "ژاپ": 1890,
      "الیات<space>": 1891,
      "قبلی<space>": 1892,
      "داوم<space>": 1893,
      "مانند<space>": 1894,
      "may<space>": 1895,
      "اروپایی<space>": 1896,
      "تار<space>": 1897,
      "بن<space>": 1898,
      "العمل<space>": 1899,
      "گفت<space>و": 1900,
      "حمل<space>": 1901,
      "انتقال<space>": 1902,
      "بهای<space>": 1903,
      "صمت<space>": 1904,
      "ها<space>از<space>": 1905,
      "ساخت<space>": 1906,
      "جام": 1907,
      "خود<space>در<space>": 1908,
      "ورق<space>": 1909,
      "پیشنهاد": 1910,
      "چرا<space>": 1911,
      "پلی": 1912,
      "کردند<space>": 1913,
      "نام<space>": 1914,
      "پلت": 1915,
      "بع<space>": 1916,
      "فی<space>": 1917,
      "داریم<space>": 1918,
      "نیز<space>به<space>": 1919,
      "یکش": 1920,
      "سیمان<space>": 1921,
      "خودروهای<space>": 1922,
      "re": 1923,
      "قدر": 1924,
      "on": 1925,
      "حداک": 1926,
      "حاک": 1927,
      "سنگاپور<space>": 1928,
      "نظام<space>": 1929,
      "اعمال<space>": 1930,
      "پ<space>": 1931,
      "داتی<space>": 1932,
      "بیمه<space>": 1933,
      "به<space>م": 1934,
      "تولیدکننده<space>": 1935,
      "نفر<space>": 1936,
      "خواست<space>": 1937,
      "افری": 1938,
      "لای": 1939,
      "دولت<space>سیز": 1940,
      "پروپیلن<space>": 1941,
      "ایبنا<space>": 1942,
      "این<space>م": 1943,
      "زایده<space>": 1944,
      "هم<space>و<space>": 1945,
      "تبدیل<space>": 1946,
      "یارانه<space>": 1947,
      "شدید<space>": 1948,
      "کور<space>": 1949,
      "اهم<space>": 1950,
      "افز": 1951,
      "دیز": 1952,
      "کمترین<space>": 1953,
      "گیر<space>": 1954,
      "<space>نسبت<space>": 1955,
      "اضاف": 1956,
      "شان<space>": 1957,
      "نظارت<space>": 1958,
      "کدال<space>": 1959,
      "بان<space>": 1960,
      "در<space>بخش<space>": 1961,
      "m<space>": 1962,
      "زنج": 1963,
      "کام": 1964,
      "مر<space>": 1965,
      "پذیر<space>": 1966,
      "چر": 1967,
      "توجه": 1968,
      "دیدی<space>": 1969,
      "منج": 1970,
      "یکشنبه<space>": 1971,
      "اندو": 1972,
      "رکود<space>": 1973,
      "او<space>": 1974,
      "دستورالعمل<space>": 1975,
      "خل": 1976,
      "کارشن": 1977,
      "یابد<space>": 1978,
      "طول<space>": 1979,
      "جزییات<space>": 1980,
      "سری<space>": 1981,
      "نخواهد<space>": 1982,
      "حمل<space>و<space>": 1983,
      "کاهشی<space>": 1984,
      "بندی<space>": 1985,
      "افراد<space>": 1986,
      "لوله<space>": 1987,
      "در<space>نظر<space>": 1988,
      "اداره<space>": 1989,
      "جلو": 1990,
      "ذخیره<space>": 1991,
      "فو": 1992,
      "سرعت<space>": 1993,
      "کشاورزی<space>": 1994,
      "رفع<space>": 1995,
      "مالیاتی<space>": 1996,
      "دام": 1997,
      "اجرا<space>": 1998,
      "بحث<space>": 1999,
      "ریه<space>": 2000,
      "اظه": 2001,
      "حق<space>": 2002,
      "ذکور<space>": 2003,
      "ریزی<space>": 2004,
      "بایدن<space>": 2005,
      "تجربه<space>": 2006,
      "جمعه<space>": 2007,
      "مقداری<space>": 2008,
      "س<space>م": 2009,
      "رسید<space>و<space>": 2010,
      "بنابر": 2011,
      "امنیت<space>": 2012,
      "معنی<space>": 2013,
      "تض": 2014,
      "مواجه<space>": 2015,
      "سوی": 2016,
      "برای<space>سال": 2017,
      "صر<space>": 2018,
      "ا<space>به<space>": 2019,
      "مانده<space>": 2020,
      "و<space>می": 2021,
      "گازی<space>": 2022,
      "مخ": 2023,
      "نابع<space>": 2024,
      "خاص<space>": 2025,
      "ارتبا": 2026,
      "ژاپن<space>": 2027,
      "نوع<space>": 2028,
      "اضافه<space>": 2029,
      "دیدار<space>": 2030,
      "گفت<space>که<space>": 2031,
      "استان": 2032,
      "مول<space>": 2033,
      "الومی": 2034,
      "بنابراین<space>": 2035,
      "فروش<space>م": 2036,
      "قوط<space>": 2037,
      "ایند<space>": 2038,
      "همان<space>": 2039,
      "کنار<space>": 2040,
      "نزولی<space>": 2041,
      "ذاکره<space>": 2042,
      "نگی<space>": 2043,
      "اسب<space>": 2044,
      "ل<space>می<space>": 2045,
      "بازرگ": 2046,
      "متوسط<space>": 2047,
      "سای": 2048,
      "پلتس<space>": 2049,
      "حاصل<space>": 2050,
      "حذف<space>": 2051,
      "شود<space>و<space>": 2052,
      "انواع<space>": 2053,
      "رغ": 2054,
      "داد<space>که<space>": 2055,
      "نقطه<space>": 2056,
      "الب<space>": 2057,
      "واحدی<space>": 2058,
      "بری": 2059,
      "فقط<space>": 2060,
      "انی": 2061,
      "نان<space>": 2062,
      "رویتر": 2063,
      "<space>مح": 2064,
      "جدی<space>": 2065,
      "دومین<space>": 2066,
      "قابل<space>توجه": 2067,
      "نیروگاه<space>": 2068,
      "بران<space>": 2069,
      "اعضای<space>": 2070,
      "منت": 2071,
      "چال": 2072,
      "نیم<space>": 2073,
      "کسب<space>": 2074,
      "پاییز<space>": 2075,
      "جای<space>": 2076,
      "جهش<space>": 2077,
      "داشته<space>است": 2078,
      "قراردا": 2079,
      "قانو": 2080,
      "انده<space>": 2081,
      "گاز<space>م": 2082,
      "نوشت<space>": 2083,
      "چنین<space>": 2084,
      "خته<space>": 2085,
      "درو": 2086,
      "حق": 2087,
      "حفظ<space>": 2088,
      "کالای<space>": 2089,
      "معتق": 2090,
      "شدت<space>": 2091,
      "مالیات<space>": 2092,
      "بندر<space>": 2093,
      "هییت<space>": 2094,
      "رخ<space>": 2095,
      "تغییرات<space>": 2096,
      "رسید.": 2097,
      "منو": 2098,
      "سات<space>": 2099,
      "فرص": 2100,
      "چینی<space>": 2101,
      "وارداتی<space>": 2102,
      "گرانول<space>": 2103,
      "مه<space>": 2104,
      "راستای<space>": 2105,
      "جذ": 2106,
      "می<space>گیر": 2107,
      "اصله<space>": 2108,
      "مدیرعامل<space>": 2109,
      "واحدهای<space>": 2110,
      "اهمیت<space>": 2111,
      "یوان<space>": 2112,
      "طابق<space>": 2113,
      "غذ": 2114,
      "گز": 2115,
      "ت<space>های<space>": 2116,
      "دهه<space>": 2117,
      "زمین<space>": 2118,
      "شیمیایی<space>": 2119,
      "تکمی": 2120,
      "علاوه<space>": 2121,
      "دنیا<space>": 2122,
      "مجمع<space>": 2123,
      "متو": 2124,
      "نیز<space>با<space>": 2125,
      "پاک": 2126,
      "امید<space>": 2127,
      "سقوط<space>": 2128,
      "تاکنون<space>": 2129,
      "مناط": 2130,
      "کمبود<space>": 2131,
      "جان": 2132,
      "یص<space>": 2133,
      "هش": 2134,
      "بیان<space>": 2135,
      "نمودار<space>": 2136,
      "مت": 2137,
      "نوی": 2138,
      "مدیر<space>": 2139,
      "گو<space>با<space>": 2140,
      "غربی<space>": 2141,
      "اختیار<space>": 2142,
      "حداکثر<space>": 2143,
      "سبک<space>": 2144,
      "حقیق": 2145,
      "اتفاق<space>": 2146,
      "نموده<space>": 2147,
      "موجود<space>": 2148,
      "تورمی<space>": 2149,
      "er": 2150,
      "خریداری<space>": 2151,
      "وین<space>": 2152,
      "کرد.": 2153,
      "الات<space>": 2154,
      "ساز<space>": 2155,
      "فنی<space>": 2156,
      "درخواست<space>": 2157,
      "تا<space>سال<space>": 2158,
      "داد<space>و<space>": 2159,
      "کل<space>م": 2160,
      "ترک<space>": 2161,
      "حقوق<space>": 2162,
      "رعایت<space>": 2163,
      "اساسی<space>": 2164,
      "سیست": 2165,
      "متوقف<space>": 2166,
      "ویه<space>": 2167,
      "صحبت<space>": 2168,
      "مث": 2169,
      "نو<space>": 2170,
      "بر<space>روی<space>": 2171,
      "لایحه<space>": 2172,
      "ساب": 2173,
      "و<space>مدت<space>": 2174,
      "ب<space>م": 2175,
      "قصد<space>": 2176,
      "هستیم<space>": 2177,
      "رای<space>": 2178,
      "ام<space>و<space>": 2179,
      "august<space>": 2180,
      "ارک": 2181,
      "<space>همت<space>": 2182,
      "شنی": 2183,
      "نشانه<space>": 2184,
      "حواله<space>": 2185,
      "خبری<space>": 2186,
      "زن<space>": 2187,
      "قانونی<space>": 2188,
      "<space>g": 2189,
      "ران": 2190,
      "نجی<space>": 2191,
      "برزی": 2192,
      "میم": 2193,
      "ریز": 2194,
      "کنید<space>": 2195,
      "رسیدن<space>": 2196,
      "رویترز<space>": 2197,
      "هی<space>": 2198,
      "ایم<space>": 2199,
      "استایر": 2200,
      "کسری<space>": 2201,
      "رغم<space>": 2202,
      ".<space>م": 2203,
      "زودی<space>": 2204,
      "اکنش<space>": 2205,
      "و<space>نرخ<space>": 2206,
      "دقی": 2207,
      "سن": 2208,
      "انتخ": 2209,
      "<space>f": 2210,
      "بهتر<space>": 2211,
      "بگیر": 2212,
      "شود.": 2213,
      "پر<space>": 2214,
      "پلم": 2215,
      "گمرک": 2216,
      "ندارد<space>": 2217,
      "چون<space>": 2218,
      "وارد": 2219,
      "جلس<space>": 2220,
      "بست": 2221,
      "است<space>به<space>": 2222,
      "تشدید<space>": 2223,
      "اثر<space>": 2224,
      "ایم": 2225,
      "وست<space>": 2226,
      "جموعا<space>": 2227,
      "پیشنهادات<space>": 2228,
      "ها<space>با<space>": 2229,
      "افریق": 2230,
      "در<space>او": 2231,
      "<space>بش": 2232,
      "عبد": 2233,
      "مجموع<space>": 2234,
      "سودا": 2235,
      "زیاد<space>": 2236,
      "مهر<space>": 2237,
      "دیپلم": 2238,
      "دارای<space>": 2239,
      "<space>شرکت<space>": 2240,
      "ارسال<space>": 2241,
      "استایرن<space>": 2242,
      "تصمیم": 2243,
      "نیاز": 2244,
      "رساند<space>": 2245,
      "مرحله<space>": 2246,
      "وز<space>": 2247,
      "و<space>این<space>": 2248,
      "رتبه<space>": 2249,
      "زه<space>": 2250,
      "کیلو": 2251,
      "صرافی<space>": 2252,
      "دیزل<space>": 2253,
      "دیگری<space>": 2254,
      "عدالت<space>": 2255,
      "فران": 2256,
      "هیات<space>": 2257,
      "نقش<space>": 2258,
      "تداوم<space>": 2259,
      "جدیدی<space>": 2260,
      "رست<space>": 2261,
      "محدودیت<space>": 2262,
      "از<space>ان<space>": 2263,
      "اختصاص<space>": 2264,
      "خصوصی<space>": 2265,
      "وام<space>": 2266,
      "اینتر": 2267,
      "کارشناس<space>": 2268,
      "کارشناس": 2269,
      "ه<space>ماه": 2270,
      "ابلاغ<space>": 2271,
      "بازرگانی<space>": 2272,
      "افیت<space>": 2273,
      "عبدال": 2274,
      "غدیر<space>": 2275,
      "فردا<space>": 2276,
      "تخفی": 2277,
      "هند": 2278,
      "عالی<space>": 2279,
      "کردیم<space>": 2280,
      "سپ": 2281,
      "مسی": 2282,
      "افزود<space>": 2283,
      "زنجیره<space>": 2284,
      "به<space>سمت<space>": 2285,
      "فج": 2286,
      "نرخ<space>م": 2287,
      "زایلین<space>": 2288,
      "زغال<space>": 2289,
      "اعتبار<space>": 2290,
      "مستق": 2291,
      "امارات<space>": 2292,
      "دتا<space>": 2293,
      "بازدهی<space>": 2294,
      "نوسانات<space>": 2295,
      "چهارم<space>": 2296,
      "کا<space>": 2297,
      "ظر<space>": 2298,
      "زیر": 2299,
      "i<space>": 2300,
      "ذکر<space>": 2301,
      "به<space>است": 2302,
      "بود<space>در<space>": 2303,
      "نزوی": 2304,
      "مجموعه<space>": 2305,
      "گی": 2306,
      "ونزوی": 2307,
      "م<space>می<space>": 2308,
      "رسانه<space>": 2309,
      "نهایت<space>": 2310,
      "متر<space>": 2311,
      "شنیده<space>": 2312,
      "کوره<space>": 2313,
      "نحو": 2314,
      "سازان<space>": 2315,
      "ریل<space>": 2316,
      "شهر": 2317,
      "اسیایی<space>": 2318,
      "خیلی<space>": 2319,
      "دهنده<space>": 2320,
      "فرایند<space>": 2321,
      "چین<space>و<space>": 2322,
      "ارشد<space>": 2323,
      "شده<space>است.": 2324,
      "مقدار<space>": 2325,
      "ارز<space>در<space>": 2326,
      "مد": 2327,
      "پذیرش<space>": 2328,
      "نحوه<space>": 2329,
      "تعهد<space>": 2330,
      "چین<space>در<space>": 2331,
      "پیگیری<space>": 2332,
      "رسیده<space>است.": 2333,
      "و<space>فروش<space>": 2334,
      "نگه": 2335,
      "نیما<space>": 2336,
      "متع": 2337,
      "افش": 2338,
      "ارگوس": 2339,
      "رسانی<space>": 2340,
      "نبع<space>": 2341,
      "واگذاری<space>": 2342,
      "جان<space>": 2343,
      "لغ": 2344,
      "سا": 2345,
      "سری": 2346,
      "نیز<space>در<space>": 2347,
      "امده<space>": 2348,
      "امونی": 2349,
      "وب": 2350,
      "اسکناس<space>": 2351,
      "تگز": 2352,
      "طول": 2353,
      "وزن<space>": 2354,
      "مشاه": 2355,
      "حصول<space>": 2356,
      "ایا<space>": 2357,
      "میه<space>": 2358,
      "دریایی<space>": 2359,
      "بنزن<space>": 2360,
      "پنج<space>": 2361,
      "ونزویلا<space>": 2362,
      "ر<space>و<space>": 2363,
      "گاهی<space>": 2364,
      "بوده<space>است": 2365,
      "مشخص<space>": 2366,
      "tt": 2367,
      "مسیر<space>": 2368,
      "اجتم": 2369,
      "تگزاس<space>": 2370,
      "نام": 2371,
      "علت<space>": 2372,
      "ان<space>ها<space>": 2373,
      "الکترو": 2374,
      "سیم<space>": 2375,
      "ونی<space>": 2376,
      "شما<space>": 2377,
      "توزی": 2378,
      "و<space>مر": 2379,
      "اجتماع": 2380,
      "توان<space>": 2381,
      "مناقصه<space>": 2382,
      "انچه<space>": 2383,
      "و<space>کاهش<space>": 2384,
      "بوت": 2385,
      "گسترش<space>": 2386,
      "نیست.<space>": 2387,
      "فلز": 2388,
      "سایت<space>": 2389,
      "عمدتا<space>": 2390,
      "ماند<space>": 2391,
      "این<space>بد": 2392,
      "کند<space>و<space>": 2393,
      "تعطیلات<space>": 2394,
      "اتمی<space>": 2395,
      "قام<space>": 2396,
      "درست<space>": 2397,
      "رت<space>": 2398,
      "b<space>": 2399,
      "رس<space>": 2400,
      "و<space>سایر<space>": 2401,
      "واقعی<space>": 2402,
      "جایگ": 2403,
      "علی": 2404,
      "می<space>گرد": 2405,
      "مشاهده<space>": 2406,
      "زد": 2407,
      "جبران<space>": 2408,
      "برگ<space>": 2409,
      "افزو": 2410,
      "ندگی<space>": 2411,
      "تن<space>فوب<space>": 2412,
      "<space>برابر<space>": 2413,
      "co": 2414,
      "لیس<space>": 2415,
      "دیریت<space>": 2416,
      "تاسی": 2417,
      "محقق<space>": 2418,
      "عادی<space>": 2419,
      "بلوم": 2420,
      "تمدید<space>": 2421,
      "گام<space>": 2422,
      "در<space>یک<space>": 2423,
      "مقایسه<space>": 2424,
      "ابتدایی<space>": 2425,
      "تبط<space>": 2426,
      "<space>%<space>م": 2427,
      "موس": 2428,
      "تلفی": 2429,
      "امیدوار": 2430,
      "شده<space>که<space>": 2431,
      "و<space>مو": 2432,
      "افقت<space>": 2433,
      "نگه<space>": 2434,
      "برزیل<space>": 2435,
      "زده<space>": 2436,
      "موارد<space>": 2437,
      "دارند.<space>": 2438,
      "تاریخ": 2439,
      "در<space>مهر<space>": 2440,
      "بند<space>": 2441,
      "تازه<space>": 2442,
      "گرفت<space>": 2443,
      "سطو": 2444,
      "تخصیص<space>": 2445,
      "ta": 2446,
      "تنظ": 2447,
      "امر<space>": 2448,
      "بنادر<space>": 2449,
      "حجم<space>م": 2450,
      "حضار<space>": 2451,
      "شع": 2452,
      "دانش<space>": 2453,
      "ro": 2454,
      "نداشته<space>": 2455,
      "قدرت<space>": 2456,
      "ضمن<space>": 2457,
      "با<space>نرخ<space>": 2458,
      "یافته<space>": 2459,
      "حک": 2460,
      "فاصله<space>": 2461,
      "از<space>کل<space>": 2462,
      "چیزی<space>": 2463,
      "اتژ": 2464,
      "صادرکننده<space>": 2465,
      "ردم<space>": 2466,
      "f<space>": 2467,
      "محترم<space>": 2468,
      "و<space>مع": 2469,
      "استراتژ": 2470,
      "بند": 2471,
      "تمای": 2472,
      "ادی": 2473,
      "ویی<space>": 2474,
      "نص": 2475,
      "تخفیف<space>": 2476,
      "امل": 2477,
      "یای<space>": 2478,
      "بیر<space>": 2479,
      "اعل": 2480,
      "گسترده<space>": 2481,
      "هل": 2482,
      "موجب<space>": 2483,
      "کیل<space>": 2484,
      "کاهش<space>م": 2485,
      "شن<space>": 2486,
      "ناد<space>": 2487,
      "سیاست": 2488,
      "د-<space>": 2489,
      "میدان<space>": 2490,
      "عرضه<space>و<space>": 2491,
      "سهمیه<space>": 2492,
      "دنیای<space>": 2493,
      "جا<space>": 2494,
      "اتش<space>": 2495,
      "دی<space>ماه<space>": 2496,
      "ضرو": 2497,
      "نرخ<space>$<space>": 2498,
      "بالغ<space>": 2499,
      "بودند<space>": 2500,
      "فرصت<space>": 2501,
      "فلزات<space>": 2502,
      "قطعی<space>": 2503,
      "<space>معادل<space>": 2504,
      "ارکت<space>": 2505,
      "د<space>که<space>": 2506,
      "جت<space>": 2507,
      "گو<space>": 2508,
      "خواهد<space>یاف": 2509,
      "دام<space>": 2510,
      "احل<space>": 2511,
      "الکترونی": 2512,
      "فرا": 2513,
      "ف<space>م": 2514,
      "انقل": 2515,
      "گاز<space>در<space>": 2516,
      "مایع<space>": 2517,
      "دک": 2518,
      "رسید": 2519,
      "خواهد<space>شد.": 2520,
      "مرکز<space>م": 2521,
      "سیستم<space>": 2522,
      "توزیع<space>": 2523,
      "تال<space>": 2524,
      "پایدار<space>": 2525,
      "تشکیل<space>": 2526,
      "فروخته<space>": 2527,
      "شاخص": 2528,
      "ترکیبی<space>": 2529,
      "p<space>": 2530,
      "رم": 2531,
      "بازار<space>م": 2532,
      "می<space>باشد.": 2533,
      "واکنش<space>": 2534,
      "ان<space>با<space>": 2535,
      "وقتی<space>": 2536,
      "الله<space>": 2537,
      "اهد": 2538,
      "اصفه": 2539,
      "بنای<space>": 2540,
      "بارگیری<space>": 2541,
      "بعدی<space>": 2542,
      "اتفاقات<space>": 2543,
      "امضا<space>": 2544,
      "تمامی<space>": 2545,
      "<space>a": 2546,
      "بری<space>": 2547,
      "بلند": 2548,
      "بورس<space>و<space>": 2549,
      "سنا": 2550,
      "عمان<space>": 2551,
      "همزمان<space>": 2552,
      "کد<space>": 2553,
      "شرایطی<space>": 2554,
      "حالا<space>": 2555,
      "عوار": 2556,
      "خبرنگ": 2557,
      "تعطیل<space>": 2558,
      "افزایش<space>م": 2559,
      "دول<space>": 2560,
      "صب": 2561,
      "محاس": 2562,
      "حملات<space>": 2563,
      "ب<space>می<space>": 2564,
      "ای<space>از<space>": 2565,
      "سراس": 2566,
      "اختلاف<space>": 2567,
      "اعتباری<space>": 2568,
      "te": 2569,
      "عبور<space>": 2570,
      "مناطق<space>": 2571,
      "ترکیب<space>": 2572,
      "اعتم": 2573,
      "احس": 2574,
      "فرانسه<space>": 2575,
      "اسپر": 2576,
      "سینا<space>": 2577,
      "استاندارد<space>": 2578,
      "کش<space>": 2579,
      "ینی<space>": 2580,
      "گری": 2581,
      "<space>مورد<space>": 2582,
      "برد<space>": 2583,
      "احیای<space>": 2584,
      "جدول<space>": 2585,
      "طبیعی<space>": 2586,
      "فکر<space>": 2587,
      "باشد<space>و<space>": 2588,
      "اگرچه<space>": 2589,
      "سفید<space>": 2590,
      "غزه<space>": 2591,
      "انیه<space>": 2592,
      "ملت<space>": 2593,
      "طرف": 2594,
      "سفارش<space>": 2595,
      "ریلی": 2596,
      "<space>اسفند<space>": 2597,
      "شرقی<space>": 2598,
      "بوده<space>است.": 2599,
      "تمرکز<space>": 2600,
      "اطلاعیه<space>": 2601,
      "<space>خرداد<space>": 2602,
      "شخص<space>": 2603,
      "کربن<space>": 2604,
      "قراردادهای<space>": 2605,
      "یم<space>و<space>": 2606,
      "طرح": 2607,
      "موجودی<space>": 2608,
      "امیر": 2609,
      "با<space>ان<space>": 2610,
      "سابقه<space>": 2611,
      "سید<space>": 2612,
      "دنبال<space>": 2613,
      "اجازه<space>": 2614,
      "مند<space>": 2615,
      "سیاه<space>": 2616,
      "خصوص": 2617,
      "کارت<space>": 2618,
      "شپ": 2619,
      "نفت<space>را<space>": 2620,
      "<space>واحدی<space>": 2621,
      "داو": 2622,
      "ایران": 2623,
      "چندین<space>": 2624,
      "تسویه<space>": 2625,
      "ادین<space>": 2626,
      "بده": 2627,
      "ابه": 2628,
      "نوین<space>": 2629,
      "و<space>من": 2630,
      "هم<space>م": 2631,
      "<space>€<space>": 2632,
      "نال<space>": 2633,
      "الومینی": 2634,
      "درامدهای<space>": 2635,
      "اپ<space>": 2636,
      "احتمالی<space>": 2637,
      "ضای": 2638,
      "si": 2639,
      "اعط": 2640,
      "پالایشی<space>": 2641,
      "انطور<space>": 2642,
      "همترین<space>": 2643,
      "ماند.<space>": 2644,
      "ول<space>م": 2645,
      "رون<space>": 2646,
      "کنس": 2647,
      "پرد": 2648,
      "نماینده<space>": 2649,
      "خش<space>": 2650,
      "ماده<space>": 2651,
      "اندکی<space>": 2652,
      "نمی<space>تو": 2653,
      "واب": 2654,
      "ناتر": 2655,
      "جایگاه<space>": 2656,
      "سطوح<space>": 2657,
      "ذ<space>": 2658,
      "الز": 2659,
      "به<space>روز<space>": 2660,
      "هیدرو": 2661,
      "چشم": 2662,
      "اقی": 2663,
      "مشت": 2664,
      "مجدد<space>": 2665,
      "کنیم.<space>": 2666,
      "فراهم<space>": 2667,
      "رییسی<space>": 2668,
      "یم<space>م": 2669,
      "اقای<space>": 2670,
      "ند.<space>م": 2671,
      "حفاری<space>": 2672,
      "ندارد.<space>": 2673,
      "تعمیرات<space>": 2674,
      "رم<space>": 2675,
      "شام": 2676,
      "اطمی": 2677,
      "پیشرفت<space>": 2678,
      "جودی<space>": 2679,
      "صدور<space>": 2680,
      "فناوری<space>": 2681,
      "میلادی<space>": 2682,
      "غذایی<space>": 2683,
      "رفی<space>": 2684,
      "گاو": 2685,
      "اقیانو": 2686,
      "فروش<space>و<space>": 2687,
      "برداشت<space>": 2688,
      "دند<space>": 2689,
      "هشدار<space>": 2690,
      "تجه": 2691,
      "دها<space>": 2692,
      "سکن<space>": 2693,
      "به<space>دست<space>": 2694,
      "طولانی<space>": 2695,
      "روبر": 2696,
      "بودند.<space>": 2697,
      "شاید<space>": 2698,
      "دامنه<space>": 2699,
      "سرخ<space>": 2700,
      "تقاضیان<space>": 2701,
      "توافقی<space>": 2702,
      "گندم<space>": 2703,
      "g<space>": 2704,
      "سخت<space>": 2705,
      "وان<space>": 2706,
      "روز<space>سه<space>": 2707,
      "قطع<space>": 2708,
      "ریزش<space>": 2709,
      "کارشناسان<space>": 2710,
      "ای<space>که<space>": 2711,
      "تحقق<space>": 2712,
      "صنای": 2713,
      "وستان<space>": 2714,
      "نگهداری<space>": 2715,
      "پیشنهادی<space>": 2716,
      "روبرو<space>": 2717,
      "نمایندگان<space>": 2718,
      "اسپرد<space>": 2719,
      "رو<space>به<space>": 2720,
      "واش": 2721,
      "بیانیه<space>": 2722,
      "فولادی<space>": 2723,
      "انتخاب<space>": 2724,
      "گواهی<space>": 2725,
      "تعطیلی<space>": 2726,
      "لیتر<space>": 2727,
      "در<space>تیر<space>": 2728,
      "افزایشی<space>": 2729,
      "حراج<space>": 2730,
      "تصمیمات<space>": 2731,
      "ولی": 2732,
      "lo": 2733,
      "تکمیل<space>": 2734,
      "اگ": 2735,
      "مانی<space>": 2736,
      "شار": 2737,
      "عانات<space>": 2738,
      "مذکور<space>": 2739,
      "اما<space>در<space>": 2740,
      "کشورها<space>": 2741,
      "افزوده<space>": 2742,
      "حل": 2743,
      "ام<space>در<space>": 2744,
      "قطعه<space>": 2745,
      "جو<space>": 2746,
      "و<space>قیمت<space>": 2747,
      "دیس<space>": 2748,
      "خص": 2749,
      "مزایده<space>": 2750,
      "نگتن<space>": 2751,
      "حدودیت<space>": 2752,
      "اکثر<space>": 2753,
      "نمود<space>": 2754,
      "توافق": 2755,
      "پرس": 2756,
      "خریدار<space>": 2757,
      "ط<space>م": 2758,
      "مزد<space>": 2759,
      "از<space>می": 2760,
      "گذاش": 2761,
      "اژ<space>": 2762,
      "عبدالل": 2763,
      "pe<space>": 2764,
      "روش<space>": 2765,
      "چار<space>": 2766,
      "سومین<space>": 2767,
      "بازارها<space>": 2768,
      "راب": 2769,
      "مف": 2770,
      "گوی<space>": 2771,
      "شرکتهای<space>": 2772,
      "پولی<space>و<space>": 2773,
      "or": 2774,
      "دارد": 2775,
      "گرفتن<space>": 2776,
      "کلیدی<space>": 2777,
      "اولویت<space>": 2778,
      "مطرح<space>": 2779,
      "تاثیر": 2780,
      "اط<space>": 2781,
      "ارام": 2782,
      "ارزان<space>": 2783,
      "جلوگیر": 2784,
      "جایی<space>": 2785,
      "و<space>می<space>": 2786,
      "گل<space>": 2787,
      "زیرس": 2788,
      "واریز<space>": 2789,
      "قدر<space>": 2790,
      "عبداللهی": 2791,
      "<space>juan<space>": 2792,
      "خود<space>به<space>": 2793,
      "دنی<space>": 2794,
      "انجم": 2795,
      "پذی": 2796,
      "محمد<space>": 2797,
      "ر<space>در<space>": 2798,
      "عوارض<space>": 2799,
      "<space>-": 2800,
      "خاور<space>": 2801,
      "پیو": 2802,
      "پلیمر": 2803,
      "واشنگتن<space>": 2804,
      "صادرکنندگان<space>": 2805,
      "پیام<space>": 2806,
      "نظامی<space>": 2807,
      "نتای": 2808,
      "یک<space>ماه<space>": 2809,
      "عوامل<space>": 2810,
      "انقلاب<space>": 2811,
      "ت<space>که<space>": 2812,
      "مرتبط<space>": 2813,
      "متوالی<space>": 2814,
      "زیرساخ": 2815,
      "تقدم<space>": 2816,
      "امارهای<space>": 2817,
      "اجتماعی<space>": 2818,
      "نفت<space>به<space>": 2819,
      "رفتار<space>": 2820,
      "تنظیم<space>": 2821,
      "ددا<space>": 2822,
      "ل<space>به<space>": 2823,
      "انجمن<space>": 2824,
      "رد<space>": 2825,
      "<space>موضو": 2826,
      "لغو<space>": 2827,
      "ra": 2828,
      "اتیک<space>": 2829,
      "می<space>دان": 2830,
      "ادن<space>": 2831,
      "رفه<space>": 2832,
      "تیر": 2833,
      "مرکز<space>": 2834,
      "پنجشنبه<space>": 2835,
      "خاذ": 2836,
      "اند<space>که<space>": 2837,
      "جن": 2838,
      "مص": 2839,
      "<space>%-": 2840,
      "اجعه<space>": 2841,
      "شیر": 2842,
      "دادن<space>": 2843,
      "فه<space>": 2844,
      "<space>ساله<space>": 2845,
      "جیب<space>": 2846,
      "the<space>": 2847,
      "جانبه<space>": 2848,
      "<space>c": 2849,
      "نشست": 2850,
      "مجوز<space>": 2851,
      "تنش<space>": 2852,
      "ت.": 2853,
      "کاوه<space>": 2854,
      "دیروز<space>": 2855,
      "فرزین<space>": 2856,
      "<space>تیر<space>": 2857,
      "و<space>از<space>": 2858,
      "شفاف<space>": 2859,
      "اوج<space>": 2860,
      "تضمین<space>": 2861,
      "نکرده<space>": 2862,
      "یم<space>که<space>": 2863,
      "<space>از<space>": 2864,
      "اگاه<space>": 2865,
      "الیا<space>": 2866,
      "کند.": 2867,
      "حی": 2868,
      "بازارگرد": 2869,
      "تجهیز": 2870,
      "<space>بهمن<space>": 2871,
      "پایانه<space>": 2872,
      "تجدید": 2873,
      "وه": 2874,
      "انجام<space>م": 2875,
      "لذ": 2876,
      "متر": 2877,
      "روز<space>م": 2878,
      "مشترک<space>": 2879,
      "پی<space>وی<space>": 2880,
      "باب<space>": 2881,
      "ان<space>از<space>": 2882,
      "اذر": 2883,
      "نباید<space>": 2884,
      "<space>هفته<space>": 2885,
      "دسترس<space>": 2886,
      "گاز<space>طبیع": 2887,
      "و<space>یا<space>": 2888,
      "پالایش": 2889,
      "البات<space>": 2890,
      "بریتان": 2891,
      "ناترازی<space>": 2892,
      "مشتریان<space>": 2893,
      "در<space>طول<space>": 2894,
      "دهد.": 2895,
      "چالش<space>": 2896,
      "همی": 2897,
      "سراسر<space>": 2898,
      "<space>july<space>": 2899,
      "طقی<space>": 2900,
      "انتر": 2901,
      "پیم": 2902,
      "دهند.<space>": 2903,
      "اظهار<space>": 2904,
      "ترجی": 2905,
      "داخل<space>": 2906,
      "بازی<space>": 2907,
      "استرالیا<space>": 2908,
      "صبح<space>": 2909,
      "هفت<space>": 2910,
      "په": 2911,
      "اچ": 2912,
      "کشف<space>": 2913,
      "ترس<space>": 2914,
      "مستقیم<space>": 2915,
      "چیز<space>": 2916,
      "از<space>ماه<space>": 2917,
      "انی<space>که<space>": 2918,
      "شدند<space>": 2919,
      "مجموعا<space>": 2920,
      "<space>مرداد<space>": 2921,
      "هندوستان<space>": 2922,
      "<space>march<space>": 2923,
      "ثی<space>": 2924,
      "دور": 2925,
      "ابزار<space>": 2926,
      "تسهیل<space>": 2927,
      "دکل<space>": 2928,
      "ستین<space>": 2929,
      "سریع<space>": 2930,
      "عود<space>": 2931,
      "کافی<space>": 2932,
      "هر<space>دو<space>": 2933,
      "امیرعبداللهی": 2934,
      "اشته<space>": 2935,
      "هم<space>در<space>": 2936,
      "pv": 2937,
      "کف<space>": 2938,
      "ها<space>و<space>م": 2939,
      "عقب<space>": 2940,
      "سیگ": 2941,
      "صنایع<space>م": 2942,
      "اعتماد<space>": 2943,
      "تک": 2944,
      "پز": 2945,
      "توانند<space>": 2946,
      "املاک<space>": 2947,
      "قالب<space>": 2948,
      "پیرو<space>": 2949,
      "کلان<space>": 2950,
      "واس": 2951,
      "جز<space>": 2952,
      "وص": 2953,
      "شد<space>تا<space>": 2954,
      "<space>ریال": 2955,
      "موق": 2956,
      "نسب": 2957,
      "مشک": 2958,
      "نیروهای<space>": 2959,
      "اهداف<space>": 2960,
      "خانو": 2961,
      "کسی<space>": 2962,
      "اندازه<space>": 2963,
      "سایه<space>": 2964,
      "ده<space>و<space>": 2965,
      "افق<space>": 2966,
      "خودروی<space>": 2967,
      "فوق<space>ال": 2968,
      "صفر<space>": 2969,
      "زنی<space>": 2970,
      "ارتی<space>": 2971,
      "تولو": 2972,
      "اثر": 2973,
      "شکلات<space>": 2974,
      "تعهدات<space>": 2975,
      "بز": 2976,
      "فوری<space>": 2977,
      "بورسی<space>": 2978,
      "خرد-<space>": 2979,
      "فیزی": 2980,
      "برسد.<space>": 2981,
      "ازاد": 2982,
      "گذاشته<space>": 2983,
      "ng<space>": 2984,
      "طوری<space>": 2985,
      "ینه<space>": 2986,
      "ته<space>است<space>": 2987,
      "نمای<space>": 2988,
      "تولوین<space>": 2989,
      "li": 2990,
      "ریک<space>": 2991,
      "ساخت": 2992,
      "کاملا<space>": 2993,
      "مبار": 2994,
      "ونی": 2995,
      "کووی": 2996,
      "سکو": 2997,
      "جامعه<space>": 2998,
      "منتظر<space>": 2999,
      "بریتانیا<space>": 3000,
      "مشکلات<space>": 3001,
      "بک": 3002,
      "خه<space>": 3003,
      "لز": 3004,
      "<space>یوان<space>": 3005,
      "رکل<space>": 3006,
      "توافق<space>ه": 3007,
      "وقت<space>": 3008,
      "نخستین<space>": 3009,
      "گاوات<space>": 3010,
      "ثرو": 3011,
      "ایش<space>": 3012,
      "موافقت<space>": 3013,
      "دارو<space>": 3014,
      "شود<space>که<space>": 3015,
      "رابطه<space>": 3016,
      "ارز<space>م": 3017,
      "چین<space>به<space>": 3018,
      "لق<space>به<space>": 3019,
      "بازه<space>": 3020,
      "حجم<space>ماه": 3021,
      "بادلات<space>": 3022,
      "به<space>فصل<space>": 3023,
      "گرفت.<space>": 3024,
      "دستی<space>": 3025,
      "اتاق<space>": 3026,
      "پرونده<space>": 3027,
      "تدری": 3028,
      "زبان<space>": 3029,
      "کات": 3030,
      "دانه<space>": 3031,
      "درضا<space>": 3032,
      "تخل": 3033,
      "خزانه<space>": 3034,
      "تن<space>بر<space>": 3035,
      "صوب<space>": 3036,
      "جایگزین<space>": 3037,
      "موسسه<space>": 3038,
      "حی<space>": 3039,
      "تگزاس<space>اینتر": 3040,
      "ریم<space>": 3041,
      "نسبتا<space>": 3042,
      "ای<space>در<space>": 3043,
      "کرد<space>و<space>م": 3044,
      "<space>تریلی": 3045,
      "تالار<space>": 3046,
      "پاک<space>": 3047,
      "نهاد": 3048,
      "نهاد<space>": 3049,
      "انتره<space>": 3050,
      "خوز<space>": 3051,
      "اوایل<space>": 3052,
      "فس": 3053,
      "سبد<space>": 3054,
      "پاکستان<space>": 3055,
      "تجهیزات<space>": 3056,
      "تکلی": 3057,
      "دهند<space>": 3058,
      "افشای<space>": 3059,
      "پزشک": 3060,
      "الف": 3061,
      "می<space>شود.": 3062,
      "فسف": 3063,
      "شمالی<space>": 3064,
      "صاح": 3065,
      "نای<space>": 3066,
      "چار": 3067,
      "لذا<space>": 3068,
      "تن<space>در<space>": 3069,
      "سبز<space>": 3070,
      "گانه<space>": 3071,
      "اشتغ": 3072,
      "بهترین<space>": 3073,
      "اطمینان<space>": 3074,
      "استه<space>": 3075,
      "بازنشست": 3076,
      "شدند.<space>": 3077,
      "ابلاغ": 3078,
      "اید<space>": 3079,
      "<space>هم<space>": 3080,
      "هیات<space>م": 3081,
      "کود<space>": 3082,
      "جذب<space>": 3083,
      "ممنو": 3084,
      "مشکل<space>": 3085,
      "فاز<space>": 3086,
      "ک<space>می<space>": 3087,
      "فور": 3088,
      "ناو": 3089,
      "ازن<space>": 3090,
      "غل": 3091,
      "دیجی": 3092,
      "هوایی<space>": 3093,
      "سناری": 3094,
      "انند<space>": 3095,
      "کوچک<space>": 3096,
      "شرح<space>": 3097,
      "عدنی<space>": 3098,
      "برو": 3099,
      "کری": 3100,
      "بلندمدت<space>": 3101,
      "ولا<space>": 3102,
      "تا<space>این<space>": 3103,
      "بلکه<space>": 3104,
      "tu": 3105,
      "خام<space>": 3106,
      "باشد.": 3107,
      "شک<space>": 3108,
      "واسطه<space>": 3109,
      "<space>قیمت<space>": 3110,
      "قبال<space>": 3111,
      "تحلیلگر<space>": 3112,
      "fob<space>": 3113,
      "انگلیس<space>": 3114,
      "ایم.<space>": 3115,
      "قدار<space>": 3116,
      "داشته<space>است.": 3117,
      "کدام<space>": 3118,
      "<space>april<space>": 3119,
      "کلیه<space>": 3120,
      "ار<space>در<space>": 3121,
      "پژ": 3122,
      "قوه<space>": 3123,
      "قطعا<space>": 3124,
      "افریقا<space>": 3125,
      "ترانه<space>": 3126,
      "پاد": 3127,
      "به<space>سود<space>": 3128,
      "روشن<space>": 3129,
      "را<space>بر<space>": 3130,
      "مناسب<space>": 3131,
      "هم<space>به<space>": 3132,
      "پاراز": 3133,
      "al": 3134,
      "بتواند<space>": 3135,
      "کنون<space>": 3136,
      "تعادل<space>": 3137,
      "بازگش": 3138,
      "مدیت<space>": 3139,
      "تابل": 3140,
      "وف": 3141,
      "ان<space>مر": 3142,
      "عربی<space>": 3143,
      "ارامک": 3144,
      "نتایج<space>": 3145,
      "اند.": 3146,
      "اسان<space>": 3147,
      "اخی": 3148,
      "نگران<space>": 3149,
      "اتخاذ": 3150,
      "تورم": 3151,
      "k<space>": 3152,
      "ببی": 3153,
      "خاط": 3154,
      "دل<space>": 3155,
      "است<space>با<space>": 3156,
      "اساس<space>م": 3157,
      "ف<space>می<space>": 3158,
      "ادع": 3159,
      "گردیده<space>": 3160,
      "علیرغم<space>": 3161,
      "بیلت<space>": 3162,
      "معدن<space>": 3163,
      "مار": 3164,
      "نوعی<space>": 3165,
      "هستیم.<space>": 3166,
      "سهام<space>و<space>": 3167,
      "رون": 3168,
      "امیدواریم<space>": 3169,
      "کامی": 3170,
      "نزد<space>": 3171,
      "دستوری<space>": 3172,
      "ستاد<space>": 3173,
      "ای<space>به<space>": 3174,
      "دیره<space>": 3175,
      "خوش<space>": 3176,
      "مز": 3177,
      "ریاست<space>": 3178,
      "بخشی<space>": 3179,
      "بنگاه<space>": 3180,
      "مطل": 3181,
      "شب<space>": 3182,
      "به<space>کار<space>": 3183,
      "به<space>عدد<space>": 3184,
      "اندون": 3185,
      "ارتباط<space>": 3186,
      "عب": 3187,
      "مصوبه<space>": 3188,
      "کرمان<space>": 3189,
      "april": 3190,
      "پرداز": 3191,
      "<space>d": 3192,
      "تز": 3193,
      "اربی": 3194,
      "اواخر<space>": 3195,
      "الان<space>": 3196,
      "می<space>نمای": 3197,
      "قبل<space>به<space>": 3198,
      "قره<space>": 3199,
      "انی<space>در<space>": 3200,
      "خطو": 3201,
      "تجدیدپذیر<space>": 3202,
      "<space>اذر<space>": 3203,
      "خود<space>از<space>": 3204,
      "خارج": 3205,
      "فیت<space>": 3206,
      "مبنای<space>": 3207,
      "ریز<space>": 3208,
      "با<space>افت<space>": 3209,
      "قطع": 3210,
      "اگرس<space>": 3211,
      "اذربای": 3212,
      "ts<space>": 3213,
      "تیک<space>": 3214,
      "بر<space>سر<space>": 3215,
      "مرکزی<space>": 3216,
      "با<space>هدف<space>": 3217,
      "نظرس": 3218,
      "سوداوری<space>": 3219,
      "فجر<space>": 3220,
      "ضر": 3221,
      "پش": 3222,
      "کوثر<space>": 3223,
      "قوع<space>": 3224,
      "هزار<space>و<space>": 3225,
      "فات<space>": 3226,
      "بودیم<space>": 3227,
      "دارد.": 3228,
      "مقامات<space>": 3229,
      "وظ": 3230,
      "ست<space>و<space>": 3231,
      "گزارش<space>م": 3232,
      "اثرات<space>": 3233,
      "خزر<space>": 3234,
      "بابت<space>": 3235,
      "ادگی<space>": 3236,
      "تمع<space>": 3237,
      "اقیانوسیه<space>": 3238,
      "n<space>": 3239,
      "دای<space>": 3240,
      "اند<space>و<space>": 3241,
      "اض<space>": 3242,
      "دولت<space>و<space>": 3243,
      "گمرک<space>": 3244,
      "زاده<space>": 3245,
      "عه": 3246,
      "سی<space>اف<space>": 3247,
      "رویداد<space>": 3248,
      "شفافیت<space>": 3249,
      "گزارش": 3250,
      "گردان<space>": 3251,
      "کرک<space>": 3252,
      "نقشه<space>": 3253,
      "تاریخی<space>": 3254,
      "ام<space>وست<space>": 3255,
      "شد.<space>م": 3256,
      "مول": 3257,
      "یاد": 3258,
      "مهار<space>": 3259,
      "بیشتر": 3260,
      "ایرنا": 3261,
      "فروشندگان<space>": 3262,
      "خطوط<space>": 3263,
      "پان": 3264,
      "انبار": 3265,
      "گذشت<space>": 3266,
      "معدنی<space>": 3267,
      "as": 3268,
      "موثر<space>": 3269,
      "قابله<space>": 3270,
      "نفت<space>خام": 3271,
      "اوره<space>پ": 3272,
      "تاخیر<space>": 3273,
      "سیاس": 3274,
      "هر<space>تن<space>": 3275,
      "کنسانتره<space>": 3276,
      "دچار<space>": 3277,
      "عده<space>": 3278,
      "بوعلی<space>": 3279,
      "فوق<space>الع": 3280,
      "<space>کشور<space>": 3281,
      "اغاز": 3282,
      "فهرست<space>": 3283,
      "روس": 3284,
      "را<space>ثبت<space>": 3285,
      "یزه<space>": 3286,
      "الومینیوم<space>": 3287,
      "ضع<space>": 3288,
      "خواست": 3289,
      "درگیری<space>": 3290,
      "شوند<space>": 3291,
      "اسیب<space>": 3292,
      "دلایل<space>": 3293,
      "محاسبه<space>": 3294,
      "تجدید<space>": 3295,
      "وق<space>م": 3296,
      "اشتغال<space>": 3297,
      "اندونزی<space>": 3298,
      "چگونه<space>": 3299,
      "استقل": 3300,
      "نیروی<space>": 3301,
      "بحبو": 3302,
      "نفتکش<space>": 3303,
      "دو<space>م": 3304,
      "و<space>رشد<space>": 3305,
      "امام<space>": 3306,
      "تی<space>که<space>": 3307,
      "فعلا<space>": 3308,
      "on<space>": 3309,
      "بلومبرگ<space>": 3310,
      "اند<space>به<space>": 3311,
      "بحبوحه<space>": 3312,
      "کس<space>": 3313,
      "سا<space>": 3314,
      "در<space>دی<space>": 3315,
      "اضی<space>": 3316,
      "یک<space>سال<space>": 3317,
      "تنی<space>بر<space>": 3318,
      "اسر": 3319,
      "سیله<space>": 3320,
      "گردی": 3321,
      "بل<space>": 3322,
      "پشت<space>": 3323,
      "ها<space>در<space>م": 3324,
      "<space>محقق<space>": 3325,
      "ld": 3326,
      "خانگ": 3327,
      "ا<space>و": 3328,
      "پخش<space>": 3329,
      "یب<space>": 3330,
      "کیفیت<space>": 3331,
      "ایست": 3332,
      "ادا<space>": 3333,
      "دنیای<space>اقتصاد": 3334,
      "رونق<space>": 3335,
      "اسم<space>": 3336,
      "برابر": 3337,
      "دیران<space>": 3338,
      "مینی<space>": 3339,
      "دانش<space>بنی": 3340,
      "پارازای": 3341,
      "سول": 3342,
      "شوی": 3343,
      "استیک<space>": 3344,
      "تی<space>در<space>": 3345,
      "دن": 3346,
      "میلیون<space>": 3347,
      "قز": 3348,
      "به<space>شدت<space>": 3349,
      "های<space>ف": 3350,
      "خوش": 3351,
      "الیاتی<space>": 3352,
      "اومت<space>": 3353,
      "و<space>سکه<space>": 3354,
      "امونیاک<space>": 3355,
      "از<space>دست<space>": 3356,
      "همچون<space>": 3357,
      "تحقی": 3358,
      "شوند.<space>": 3359,
      "گاز<space>به<space>": 3360,
      "شد.<space>در<space>": 3361,
      "اندوزی<space>": 3362,
      "تلاش": 3363,
      "منبع<space>": 3364,
      "ع<space>می<space>": 3365,
      "قی<space>در<space>": 3366,
      "لیل<space>م": 3367,
      "کارگ": 3368,
      "داده<space>و<space>": 3369,
      "پروپ": 3370,
      "کمیته<space>": 3371,
      "نظرسنجی<space>": 3372,
      "نمود.<space>": 3373,
      "منستان<space>": 3374,
      "حماس<space>": 3375,
      "فیزیکی<space>": 3376,
      "اتو": 3377,
      "مذاکره<space>": 3378,
      "ابزار": 3379,
      "<space>منابع<space>": 3380,
      "چوب<space>": 3381,
      "رفتن<space>": 3382,
      "حسین<space>": 3383,
      "علاق": 3384,
      "ارامش<space>": 3385,
      "نیج": 3386,
      "خاندوزی<space>": 3387,
      "ارتق": 3388,
      "ber": 3389,
      "سایپا<space>": 3390,
      "شکست<space>": 3391,
      "پوت": 3392,
      "فارس": 3393,
      "رهبر<space>": 3394,
      "ک<space>م": 3395,
      "اب<space>و<space>": 3396,
      "حدودی<space>": 3397,
      "واردکننده<space>": 3398,
      "ساپا<space>": 3399,
      "تان<space>": 3400,
      "بخشن": 3401,
      "خطر<space>": 3402,
      "و<space>برای<space>": 3403,
      "مشارکت<space>": 3404,
      "دستیاب": 3405,
      "فکر": 3406,
      "ده<space>در<space>": 3407,
      "<space>کیلو": 3408,
      "فملی<space>": 3409,
      "مقصد<space>": 3410,
      "ذوب<space>": 3411,
      "سیلی<space>": 3412,
      "مسایل<space>": 3413,
      "فسفات<space>": 3414,
      "<space>است.<space>": 3415,
      "بانی<space>": 3416,
      "ثب": 3417,
      "در<space>ان<space>": 3418,
      "احت<space>": 3419,
      "استراتژیک<space>": 3420,
      "اتخاذ<space>": 3421,
      "مقر": 3422,
      "هدایت<space>": 3423,
      "دکتر<space>": 3424,
      "$<space>در<space>": 3425,
      "تشکل<space>": 3426,
      "شکر<space>": 3427,
      "ریب<space>": 3428,
      "توص": 3429,
      "تی<space>به<space>": 3430,
      "و<space>شرکت<space>": 3431,
      "al<space>": 3432,
      "زاگرس<space>": 3433,
      "رضا<space>": 3434,
      "نر<space>": 3435,
      "ند<space>در<space>": 3436,
      "واره<space>": 3437,
      "هفتم<space>": 3438,
      "ازادسازی<space>": 3439,
      "تن<space>به<space>": 3440,
      "رژیم<space>": 3441,
      "اقدام": 3442,
      "رشد<space>نقدینگ": 3443,
      "گستر<space>": 3444,
      "دیجیتال<space>": 3445,
      "استقلال<space>": 3446,
      "ندان<space>": 3447,
      "ارام<space>": 3448,
      "بالایی<space>": 3449,
      "حباب<space>": 3450,
      "ظاه": 3451,
      "عین<space>": 3452,
      "کف": 3453,
      "ارف<space>": 3454,
      "بخشنامه<space>": 3455,
      "پیش<space>از<space>": 3456,
      "جدید": 3457,
      "فق<space>": 3458,
      "قبو": 3459,
      "سیل<space>": 3460,
      "تراز": 3461,
      "نسبی<space>": 3462,
      "دو<space>سال<space>": 3463,
      "هرگونه<space>": 3464,
      "تنی<space>": 3465,
      "راهی<space>": 3466,
      "ایین<space>": 3467,
      "ایسنا": 3468,
      "در<space>فصل<space>": 3469,
      "لیت<space>": 3470,
      "همی<space>": 3471,
      "زاینده<space>": 3472,
      "ttm<space>": 3473,
      "le": 3474,
      "هر<space>کد<space>": 3475,
      "احدا": 3476,
      "بورس": 3477,
      "بلغ": 3478,
      "از<space>محل<space>": 3479,
      "تکر": 3480,
      "تومان": 3481,
      "تهیه<space>": 3482,
      "مازاد<space>": 3483,
      "انین<space>": 3484,
      "ریح<space>": 3485,
      "کرده<space>است": 3486,
      "ناشر<space>": 3487,
      "پاسخ": 3488,
      "خاطر<space>": 3489,
      "انس": 3490,
      "تقسیم<space>": 3491,
      "قوانین<space>": 3492,
      "ماش": 3493,
      "معم": 3494,
      "از<space>مو": 3495,
      "an<space>": 3496,
      "ور<space>در<space>": 3497,
      "مناس": 3498,
      "نیست<space>و<space>": 3499
    },
    "merges": [
      "c e",
      "s p",
      "a ce",
      "sp ace",
      "< space",
      "<space >",
      "ه <space>",
      "ی <space>",
      "ر <space>",
      "ن <space>",
      "د <space>",
      "ت <space>",
      "ا <space>",
      "ا ی",
      "ا ر",
      "د ر<space>",
      "<space> م",
      "ا ز",
      "ا ل",
      "و <space>",
      "ا ن<space>",
      "ا ن",
      "ا س",
      "ب ه<space>",
      "ا ی<space>",
      "ا م",
      "ش <space>",
      "ر و",
      ". <space>",
      "ر ی",
      "د ه<space>",
      "ل ی",
      "از <space>",
      "ا ر<space>",
      "ت و",
      "ل <space>",
      "ک ه<space>",
      "ال <space>",
      "م <space>",
      "ب ر",
      "ا ه",
      "ه ای<space>",
      "ا ت<space>",
      "و د<space>",
      "ی ن<space>",
      "ا ف",
      "و ر",
      "د ا",
      "ای ن<space>",
      "ت ه<space>",
      "م ی<space>",
      "اس ت",
      "د .<space>",
      "ب ا<space>",
      "<space>م ی",
      "ر ا<space>",
      "<space>می لی",
      "ی م",
      "ار د<space>",
      "ر ک",
      "ا د",
      "ا ب",
      "س ی",
      "اس ت<space>",
      "ن د<space>",
      "ز <space>",
      "د ی",
      "ک ر",
      "<space> %",
      "ا ه<space>",
      "ب از",
      "ق یم",
      "ن ف",
      "س <space>",
      "ک <space>",
      "قیم ت<space>",
      "ب و",
      "م ان<space>",
      "ف رو",
      "ق <space>",
      "ام <space>",
      "<space>% <space>",
      "ه ا<space>",
      "و ل",
      "ن ی",
      "ش د<space>",
      "ت ی<space>",
      "س ال<space>",
      "است .<space>",
      "باز ار<space>",
      "بر ای<space>",
      "خ و",
      "ا خ",
      "ب ی",
      "و ر<space>",
      "م ی",
      "<space> ٫",
      "<space>٫ <space>",
      "ک ن",
      "و ن<space>",
      "س ت",
      "ا د<space>",
      "ع <space>",
      "ر ان<space>",
      "ا ق",
      "نف ت<space>",
      "ز ای",
      "ه م",
      "فرو ش<space>",
      "$ <space>",
      "ار ی<space>",
      "ش ته<space>",
      "ش ده<space>",
      "ت ص",
      "م و",
      "ل ی<space>",
      "ش رک",
      "ک اه",
      "اف زای",
      "تو مان<space>",
      "ی ر<space>",
      "ان ه<space>",
      "گ ذ",
      "شرک ت<space>",
      "ت ا<space>",
      "ری ال<space>",
      "ن د",
      "ر ف",
      "افزای ش<space>",
      "کاه ش<space>",
      "ب <space>",
      "ت ح",
      "ا و",
      "ع ام",
      "ا ع",
      "ک ش",
      "ن گ",
      "م اه<space>",
      "ب ت<space>",
      "و ی",
      "د ه",
      "پ ی",
      "ت ر",
      "ت ر<space>",
      "ت ن<space>",
      "د ر",
      "ای ی<space>",
      "ه ر<space>",
      "خ <space>",
      "عام ل",
      "ان ی<space>",
      "ای ران<space>",
      "ب ر<space>",
      "ز ی",
      "م ح",
      "د ی<space>",
      "ن ی<space>",
      "تو لی",
      "ب ان",
      "ا ور",
      "ر شد<space>",
      "ا ص",
      "ط <space>",
      "م ن",
      "ی ر",
      "ر سی",
      "ا ش",
      "س ر",
      "پ ای",
      "ت ق",
      "ن ر",
      "ع ر",
      "ال ی<space>",
      "ری ن<space>",
      "رو ز<space>",
      "ا ح",
      "د ار",
      "ز ی<space>",
      "خ ود<space>",
      "د و",
      "م ای",
      "ن و",
      "<space> ه",
      "ز ار<space>",
      "<space>م ی<space>",
      "<space> $<space>",
      "است<space> که<space>",
      "ر س",
      "ه م<space>",
      "ج ه<space>",
      "خو اه",
      "ن س",
      "نر خ<space>",
      "ز ار",
      "تولی د<space>",
      "در<space> ح",
      "بو ده<space>",
      "ف ته<space>",
      "ف <space>",
      "<space>م اه",
      "گ ر",
      "و ل<space>",
      "ا ض",
      "اق تص",
      "و <space>م",
      "ب ه",
      "نس بت<space>",
      "ج ه",
      "اد ی<space>",
      "ب ود<space>",
      "دا د<space>",
      "د .",
      "ق ر",
      "<space>ه زار<space>",
      "ف ر",
      "ن ش",
      "ی ک<space>",
      "گذ شته<space>",
      "دا شته<space>",
      "س و",
      "ا ت",
      "س ت<space>",
      "س ود<space>",
      "ش ن",
      "ش ت<space>",
      "ی ت<space>",
      "بان ک",
      "ص <space>",
      "کر د<space>",
      "ن ده<space>",
      "ار ز",
      "اس <space>",
      "خواه د<space>",
      "م عامل",
      "ت ع",
      "ه فته<space>",
      "که<space> در<space>",
      "ری ک",
      "کش ور<space>",
      "ا تی<space>",
      "ام ه<space>",
      "عر ض",
      "ی ا<space>",
      "ی اف",
      "م ش",
      "ب ور",
      "عرض ه<space>",
      "س ه<space>",
      "ام ریک",
      "ص اد",
      "س ه",
      "ق ب",
      "ح <space>",
      "ج م",
      "گ زار",
      "د ن<space>",
      "م ر",
      "د ول",
      "ن ظ",
      "ت م",
      "ش و",
      "ن د.<space>",
      "ی<space> از<space>",
      "است .",
      "ع م",
      "ب ال",
      "ط ل",
      "چ ین<space>",
      "تو س",
      "س از",
      "ب ل",
      "چ ن",
      "کر ده<space>",
      "خ ری",
      "ب ی<space>",
      "ب ش",
      "صاد ر",
      "بور س<space>",
      "ا ج",
      "ت رین<space>",
      "د ود<space>",
      "ان گ",
      "ن ه<space>",
      "ل ه<space>",
      "ش ود<space>",
      "نی ز<space>",
      "ب ن",
      "ی م<space>",
      "در<space> م",
      "سی ه<space>",
      "مای ه<space>",
      "امریک ا<space>",
      "تق اض",
      "ی ه<space>",
      "گ از<space>",
      "سر مایه<space>",
      "ن ق",
      "ک ال",
      "هم چن",
      "ی ک",
      "ان د<space>",
      "<space>ماه ه<space>",
      "دول ت<space>",
      "رو سیه<space>",
      "دی د<space>",
      "بی ش",
      "ک م",
      "ار ز<space>",
      "و ار",
      "پ ر",
      "ق اب",
      "در<space> سال<space>",
      "در<space> هر<space>",
      "ک ار",
      "بانک <space>م",
      "ست ان<space>",
      "قب ل<space>",
      "رک زی<space>",
      "گ ر<space>",
      "از <space>م",
      "گ اه<space>",
      "تو ر",
      "ص ن",
      "غ <space>",
      "ار و",
      "نش ان<space>",
      "ا ک",
      "پی ش<space>",
      "ی<space> در<space>",
      "ان ت",
      "بو د",
      "ن م",
      "r <space>",
      "دا خ",
      "و ز",
      "ام ا<space>",
      "س ال",
      "گ ف",
      "ش ر",
      "ر ژ",
      "ع ه<space>",
      "م ع",
      "د ت<space>",
      "صادر ات<space>",
      "نفت<space> خ",
      "گزار ش<space>",
      "پ ا<space>",
      "اخ تص",
      "اختص اص",
      "به<space> د",
      "می<space> ده",
      "ان رژ",
      "ور د<space>",
      "ج <space>",
      "اقتص ادی<space>",
      "ش م",
      "ب خ",
      "ک ل<space>",
      "ار ه<space>",
      "- <space>",
      "ب ای",
      "گ یر",
      "است<space> و<space>",
      "ش ی",
      "ات<space> م",
      "ب اش",
      "ا ده<space>",
      "مح ص",
      "ل <space>م",
      "ت ل",
      "ف ع",
      "ت رو",
      "م ج",
      "ی د<space>",
      "ی<space> به<space>",
      "ت ج",
      "در<space> این<space>",
      "و ق<space>",
      "گذ اری<space>",
      "ب ین<space>",
      "اف ت<space>",
      "ی<space> و<space>",
      "خود<space> را<space>",
      "ت ه",
      "ن امه<space>",
      "انگ ین<space>",
      "قر ار<space>",
      "y <space>",
      "پای ان<space>",
      "ری ی",
      "ارز ش<space>",
      "لی ل<space>",
      "a r",
      "گ و",
      "د ارد<space>",
      "ا ق<space>",
      "نگ <space>",
      "همچن ین<space>",
      "د ار<space>",
      "ب ا",
      "ش د.<space>",
      "اب <space>",
      "ع د",
      "نم اد<space>",
      "انرژ ی<space>",
      "ه ی",
      "ش <space>م",
      "دا ده<space>",
      "ص ور",
      "گ ان<space>",
      "ت ی",
      "ان ج",
      "b e",
      "ک ند<space>",
      "ز ر",
      "اختصاص ی<space>",
      "ح دود<space>",
      "رسی ده<space>",
      "خری د<space>",
      "ارو پا<space>",
      "ل ام<space>",
      "بان ک<space>",
      "خ ر",
      "گ رف",
      "ی ل",
      "اس اس<space>",
      "های<space> م",
      "س ته<space>",
      "ت غ",
      "<space> تن<space>",
      "<space>م و",
      "ث بت<space>",
      "بل غ<space>",
      "ت .<space>",
      "د ات<space>",
      "گف ت<space>",
      "پ ترو",
      "ر ه<space>",
      "م اه",
      "ح م",
      "صور ت<space>",
      "نظ ر<space>",
      "دا شت<space>",
      "بو د.<space>",
      "<space> و<space>",
      "ام ین<space>",
      "صن ع",
      "ای ر<space>",
      "ت ش",
      "ریی س<space>",
      "ق ی<space>",
      "ج ود<space>",
      "ع ی<space>",
      "می<space>ده د<space>",
      "و اح",
      "بیش تر<space>",
      "a n",
      "شن به<space>",
      "معامل ات<space>",
      "و<space> به<space>",
      "رف <space>",
      "ص و",
      "بای د<space>",
      "ب د",
      "شو د.<space>",
      "<space> به<space>",
      "ول ات<space>",
      "اع لام<space>",
      "پ ال",
      "پ س<space>",
      "اقتص اد<space>",
      "توس ط<space>",
      "ک و",
      "جه انی<space>",
      "گ رو",
      "کال ا<space>",
      "be r<space>",
      "پال ای",
      "می<space> تو",
      "بی نی<space>",
      "بش که<space>",
      "د و<space>",
      "ه ست",
      "رو ند<space>",
      "بر گ",
      "ای ن",
      "ق و",
      "تغ ی",
      "ت امین<space>",
      "معامل ه<space>",
      "ام ل<space>",
      "د ری",
      "تو جه<space>",
      "ا ث",
      "ز ان<space>",
      "و<space> در<space>",
      "بی ش<space>",
      "ا به<space>",
      "م دت<space>",
      "ش اه",
      "ط ر",
      "شی می<space>",
      "وار دات<space>",
      "ت ب",
      "انت ظ",
      "پ رو",
      "خ ار",
      "تور م<space>",
      "ان د",
      "ی ل<space>",
      "ام ی<space>",
      "ند گان<space>",
      "می انگین<space>",
      "عامل ات<space>",
      "در<space>ح ال<space>",
      "دا ش",
      "بر خ",
      "د اری<space>",
      "ب زر",
      "در<space> ماه<space>",
      "ط ی<space>",
      "را<space> به<space>",
      "گرو ه<space>",
      "کاهش<space> یاف",
      "ک ار<space>",
      "پترو شیمی<space>",
      "بیش<space> از<space>",
      "م ل",
      "ض و",
      "بزر گ",
      "ه ایی<space>",
      "م ق",
      "ا غ",
      "دی گر<space>",
      "در ام",
      "خ ت<space>",
      "رسی د<space>",
      "ر اه<space>",
      "ژ ه<space>",
      "و جود<space>",
      "ج دید<space>",
      "م دی",
      "ساز مان<space>",
      "س ی<space>",
      "می<space> شود<space>",
      "مش ابه<space>",
      "ال ی",
      "کن د.<space>",
      "پس<space> از<space>",
      "ق ه<space>",
      "رس ی<space>",
      "ت رک",
      "اخ رین<space>",
      "ول ه<space>",
      "افزایش<space> یاف",
      "ن ز",
      "<space> ریال<space>",
      "ز م",
      "انج ام<space>",
      "م ا<space>",
      "ز ین<space>",
      "و دی<space>",
      "کن نده<space>",
      "ق ی",
      "اد امه<space>",
      "ض ع",
      "اور ه<space>",
      "رو ی<space>",
      "ش <space>ماه",
      "ق ط",
      "ا طل",
      "کر د.<space>",
      "ال ص<space>",
      "بخ ش<space>",
      "ج ل",
      "ب ع",
      "کش ور",
      "ول ی<space>",
      "ات<space>م تح",
      "پ ل",
      "تقاض ای<space>",
      "س هم<space>",
      "رسی د.<space>",
      "ش ی<space>",
      "فع ال",
      "<space> تا<space>",
      "چ ه<space>",
      "ت ان",
      "محص ول<space>",
      "ث <space>",
      "سه ام<space>",
      "ن ت<space>",
      "ای ال",
      "تو اف",
      "ص ند",
      "خو در",
      "م ان",
      "س ط",
      "کر د",
      "ذ خ",
      "ا پ",
      "ت د",
      "j u",
      "بر رسی<space>",
      "را<space> در<space>",
      "ش ه",
      "ک ن<space>",
      "اس یا<space>",
      "تقاض ا<space>",
      "تح ری",
      "ن مو",
      "خو د",
      "ش اخ",
      "اخ یر<space>",
      "بود جه<space>",
      "ند<space> که<space>",
      "ب سی",
      "m ber<space>",
      "ایال ات<space>متح",
      "ر د",
      "ف ول",
      "بر نامه<space>",
      "ا ک<space>",
      "و ی<space>",
      "ف ص",
      "ج اری<space>",
      "ا ذ",
      "گ ی<space>",
      "نف تی<space>",
      "س ف",
      "تر<space> از<space>",
      "ن ج",
      "ار ت<space>",
      "ای ت<space>",
      "توس عه<space>",
      "اق د",
      "با شد<space>",
      "ای نده<space>",
      "صند وق<space>",
      "ک نی",
      "اب تد",
      "ت ن",
      "<space> در<space>",
      "چ ه",
      "سی است<space>",
      "رو د<space>",
      "ط ور<space>",
      "ا کن",
      "ار ی",
      "می زان<space>",
      "انتظ ار<space>",
      "<space> تومان<space>",
      "ز <space>م",
      "پر داخ",
      "لی ه<space>",
      "است. <space>م",
      "تغی یر<space>",
      "د ست",
      "ت خ",
      "از ی<space>",
      "و ب<space>",
      "<space>م الی<space>",
      "اف <space>",
      "به ره<space>",
      "مو ضو",
      "واح د<space>",
      "ش ک",
      "وز یر<space>",
      "ار زی<space>",
      "ج نو",
      "گر د",
      "م<space> به<space>",
      "گیر ی<space>",
      "پ ار",
      "درام د<space>",
      "او ل<space>",
      "خ صو",
      "م ت<space>",
      "ص رف<space>",
      "اج ر",
      "دار ان<space>",
      "قر ار",
      "ند<space> و<space>",
      "صنع ت<space>",
      "تحری م<space>",
      "ا کر",
      "د ا<space>",
      "ور ی<space>",
      "ل از",
      "سو خت<space>",
      "بن زین<space>",
      "ط بی",
      "ن ا",
      "ها<space> در<space>",
      "u ar",
      "شر ای",
      "داخ لی<space>",
      "ش گاه<space>",
      "زی نه<space>",
      "جم ه",
      "ذ اکر",
      "و م<space>",
      "شاخ ص<space>",
      "از<space> این<space>",
      "م س",
      "د س",
      "در<space> روز<space>",
      "ای ر",
      "ب ار<space>",
      "ها<space> و<space>",
      "خودر و<space>",
      "قاب ل<space>",
      "م بلغ<space>",
      "ساز ی<space>",
      "پای ین<space>",
      "ش ار<space>",
      "و زار",
      "د های<space>",
      "تح وی",
      "جه ان<space>",
      "طل ا<space>",
      "اطل اع",
      "ی اب",
      "uar y<space>",
      "ب اره<space>",
      "به<space> ماه<space>",
      "ارد<space> $<space>",
      "ش دن<space>",
      "تر ی<space>",
      "ح س",
      "ذخ ایر<space>",
      "ق<space> به<space>",
      "ط قه<space>",
      "ز مان<space>",
      "عم لی",
      "ق ف<space>",
      "اس ف",
      "پرداخ ت<space>",
      "پ و",
      "لی ن<space>",
      "ن ب",
      "ج مو",
      "ب هم",
      "ب ح",
      "نو ان<space>",
      "تو ان",
      "پ ذ",
      "اور اق<space>",
      "n g",
      "طر ح<space>",
      "پای ه<space>",
      "ته ران<space>",
      "کن ندگان<space>",
      "ت اث",
      "ب ات<space>",
      "ظ رف",
      "وزار ت<space>",
      "ش امل<space>",
      "گرف ته<space>",
      "مح م",
      "ان و",
      "او پ",
      "و<space> س",
      "است ف",
      "چ ی",
      "ه زینه<space>",
      "بهم ن<space>",
      "تواف ق<space>",
      "عد د<space>",
      "م ین<space>",
      "ا گر<space>",
      "استف اده<space>",
      "ب اع",
      "اح تم",
      "سط ح<space>",
      "د. <space>م",
      "ت ف",
      "یم .<space>",
      "می لی",
      "ال مل",
      "تحوی ل<space>",
      "ک ان",
      "رد ین<space>",
      "فرو ردین<space>",
      "بین<space> المل",
      "ن یم",
      "<space>م اه<space>",
      "ع نوان<space>",
      "هم ین<space>",
      "ن مای",
      "s <space>",
      "اد ل<space>",
      "اغ از<space>",
      "ظرف یت<space>",
      "عر ب",
      "ک اری<space>",
      "این که<space>",
      "محص ولات<space>",
      "موضو ع<space>",
      "م لی<space>",
      "از<space> ط",
      "و<space> با<space>",
      "سو ی<space>",
      "اب ع<space>",
      "اوپ ک<space>",
      "ابتد ای<space>",
      "پ ول<space>",
      "د ان",
      "ب ار",
      "می<space> کن",
      "قاب ل<space>م",
      "پالای شگاه<space>",
      "ت ای",
      "c h",
      "ا ع<space>",
      "اس ی",
      "ور ه<space>",
      "ل ا<space>",
      "ار دی",
      "بود<space> و<space>",
      "ل ح",
      "<space> س",
      "عرب ستان<space>",
      "الی<space> که<space>",
      "ه د",
      "ت اری",
      "ع ل",
      "ن ا<space>",
      "گ ران<space>",
      "اص لی<space>",
      "برخ ی<space>",
      "باع ث<space>",
      "زی را<space>",
      "فول اد<space>",
      "به شت<space>",
      "خر داد<space>",
      "ک می",
      "عامل ه<space>",
      "س ب",
      "اب ر<space>",
      "رو ی",
      "پی شن",
      "تان ول<space>",
      "ا ط",
      "پیشن ه",
      "ت<space> و<space>",
      "e <space>",
      "اردی بهشت<space>",
      "ماه انه<space>",
      "خ الص<space>",
      "فعال یت<space>",
      "گ از",
      "اب ی<space>",
      "اس ی<space>",
      "ح ص",
      "ای ج",
      "ری ق<space>",
      "اکن ون<space>",
      "ا ظ",
      "ای ه<space>",
      "دو م<space>",
      "e mber<space>",
      "اذ ر<space>",
      "l <space>",
      "ایج اد<space>",
      "تش ر<space>",
      "ف ی",
      "ای ع<space>",
      "باش د.<space>",
      "من طقه<space>",
      "د م",
      "گاز<space> طبی",
      "شاه د<space>",
      "د<space> و<space>",
      "ا بر",
      "ب اد",
      "ا ژ",
      "ل اح",
      "ل ات<space>",
      "ض ی",
      "م الی<space>",
      "ه<space> به<space>",
      "و ارد<space>",
      "همچن ان<space>",
      "شرای ط<space>",
      "ر ق",
      "و ضع",
      "ر ای",
      "گ وی",
      "دی نگ",
      "ارز ش<space>م",
      "ار ات<space>",
      "تو ضی",
      "بر ق<space>",
      "دار د.<space>",
      "تر م<space>",
      "ف ار",
      "بسی ار<space>",
      "عام ل<space>",
      "نق دینگ",
      "ف ق<space>به<space>",
      "اسف ند<space>",
      "<space> -<space>",
      "خ بر<space>",
      "چه ار",
      "خ ور",
      "غ یر",
      "وی ت<space>",
      "ری ت<space>",
      "ا در<space>",
      "ام سال<space>",
      "د ست<space>",
      "ری ان<space>",
      "ه ف",
      "هم ه<space>",
      "س ام",
      "ر ی<space>",
      "r i",
      "می<space> کند<space>",
      "کشور های<space>",
      "وی ژه<space>",
      "بد ون<space>",
      "تاث یر<space>",
      "وضع یت<space>",
      "ع ودی<space>",
      "ز یر<space>",
      "یل ات<space>",
      "تولی د",
      "ام ی",
      "ت سه",
      "<space>% -<space>",
      "ط<space> به<space>",
      "بع د<space>",
      "ن ه",
      "اور ده<space>",
      "ف وق<space>",
      "ند .",
      "بانک ی<space>",
      "ج م<space>",
      "m ar",
      "ش ور",
      "ع ا<space>",
      "چ ند<space>",
      "ذاکر ات<space>",
      "س نگ",
      "قرار داد<space>",
      "تج ارت<space>",
      "t <space>",
      "ه ند<space>",
      "و اق",
      "ال ب",
      "ث ر<space>",
      "و س",
      "نف ی<space>",
      "ان<space> در<space>",
      "اب ت<space>",
      "ح ض",
      "<space>م بلغ<space>",
      "د م<space>",
      "غ ر",
      "+ <space>",
      "توضی ح<space>",
      "ض ای<space>",
      "سه ام",
      "ح اض",
      "ت یر<space>",
      "دی م<space>",
      "ام ات<space>",
      "a p",
      "داش ت",
      "مح دو",
      "خود رو",
      "خصو ص<space>",
      "ح قی",
      "ون<space> بش",
      "بال ا",
      "حاض ر<space>",
      "l ng",
      "t o",
      "خ بر",
      "ط ب",
      "ا جه<space>",
      "بود<space> که<space>",
      "وز ه<space>",
      "ک ی<space>",
      "ا تح",
      "ش <space>می<space>",
      "ان د.<space>",
      "بر ابر<space>",
      "از<space> سوی<space>",
      "ده ی<space>",
      "فرو ش<space>ماه",
      "میلی ارد<space>",
      "ح مای",
      "نب ال<space>",
      "ده د.<space>",
      "هی چ",
      "ف وب<space>",
      "ای ل<space>",
      "عم ل",
      "از اد<space>",
      "بزرگ <space>",
      "ح ال<space>",
      "رییس<space> جمه",
      "تج اری<space>",
      "ه ر",
      "با<space> این<space>",
      "mar ch",
      "می<space> رس",
      "ح دا",
      "ان ها<space>",
      "ju an",
      "شور ای<space>",
      "کرد<space> که<space>",
      "نز دی",
      "ل<space> و<space>",
      "اد یه<space>",
      "<space>م ن",
      "ه و",
      "نو س",
      "ط ه<space>",
      "تح لی",
      "اتح ادیه<space>",
      "ری ال",
      "عملی اتی<space>",
      "ان<space> به<space>",
      "شده<space> و<space>",
      "جم ع<space>",
      "کن تر",
      "ک م<space>",
      "تع داد<space>",
      "نی از<space>",
      "ش د",
      "تاری خ<space>",
      "پرو ژه<space>",
      "<space> با<space>",
      "ج ی<space>",
      "صنع تی<space>",
      "ار زی",
      "خو بی<space>",
      "خ انه<space>",
      "ات رین<space>",
      "بر اساس<space>",
      "بو ط<space>به<space>",
      "یک ی<space>از<space>",
      "ن اش",
      "او کر",
      "گزار ش<space>ماه",
      "بال اترین<space>",
      "ات ف",
      "الب ته<space>",
      "رو غ",
      "کنی م<space>",
      "شن اس",
      "ح و",
      "من تشر<space>",
      "رس می<space>",
      "یر ه<space>",
      "ان س<space>",
      "صن ایع<space>",
      "ش ش<space>",
      "ماه ه<space>",
      "ا ش<space>",
      "س اخ",
      "هم راه<space>",
      "پ لی<space>",
      "شاه ده<space>",
      "جه ت<space>",
      "ت اب",
      "ک ل",
      "در باره<space>",
      "ارزی ابی<space>",
      "ک می<space>",
      "ر قاب",
      "اجر ای<space>",
      "اقد ام<space>",
      "گ فته<space>",
      "اطلاع ات<space>",
      "نی ست<space>",
      "شر ق<space>",
      "اص لاح",
      "s e",
      "ون<space> و<space>",
      "فص ل<space>",
      "و ق",
      "ار ایه<space>",
      "€ <space>",
      "سی ر<space>",
      "به<space> طور<space>",
      "جمو ع<space>",
      "شه ری",
      "می انه<space>",
      "کال اه",
      "س خ",
      "محم وله<space>",
      "ای سه<space>",
      "ع <space>م",
      "مج مو",
      "اق ی<space>",
      "به<space> این<space>",
      "م ثبت<space>",
      "f e",
      "س اع",
      "اش یه<space>",
      "باد له<space>",
      "عمل کرد<space>",
      "داش ت.<space>",
      "ک س",
      "فر اورده<space>",
      "d e",
      "نفت<space> و<space>",
      "اس ل",
      "است.<space> لاز",
      "م تانول<space>",
      "گ ست",
      "حمای ت<space>",
      "باز ار",
      "ش م<space>",
      "گف ت",
      "تو ر<space>",
      "ون<space> تن<space>",
      "روغ ن<space>",
      "صادر اتی<space>",
      "بال ا<space>",
      "م صرف<space>",
      "بر نت<space>",
      "رق م<space>",
      "ح د<space>",
      "b r",
      "c f",
      "دری افت<space>",
      "اب ان<space>",
      "سام انه<space>",
      "ون<space> $<space>",
      "م ورد<space>",
      "ت س",
      "شد<space> و<space>",
      "ال ا<space>",
      "ته ی<space>به<space>",
      "اوکر این<space>",
      "l y<space>",
      "شهری ور<space>",
      "م رک",
      "گر د<space>",
      "پ اس",
      "<space>م ر",
      "ض ا<space>",
      "م الی",
      "هد ف<space>",
      "م هم<space>",
      "ج ی",
      "اه ن<space>",
      "ح جم<space>",
      "را<space> با<space>",
      "کنتر ل<space>",
      "ع مو",
      "جنو ب<space>",
      "ث ابت<space>",
      "تم ام<space>",
      "ش ب",
      "ش رو",
      "ن خ",
      "ام ور<space>",
      "خ اور",
      "عد م<space>",
      "تع ط",
      "جل سه<space>",
      "اه ی<space>",
      "نزدی ک<space>",
      "تص می",
      "دار ایی<space>",
      "بر ج",
      "ap ri",
      "تح ت<space>",
      "ها<space> به<space>",
      "تح لیل<space>",
      "عر اق<space>",
      "ی ین<space>",
      "اور د<space>",
      "سته<space> ای<space>",
      "هف ت",
      "تع یین<space>",
      "ق ان",
      "م کن<space>",
      "ند ی<space>",
      "س نگ<space>",
      "نگ ر",
      "خ تل",
      "بیش ترین<space>",
      "دا د",
      "ث بات<space>",
      "در<space> سال",
      "اف ی<space>",
      "ju ly<space>",
      "ی ف<space>",
      "ج ریان<space>",
      "<space> را<space>",
      "او لین<space>",
      "گذ ار",
      "n o",
      "س مت<space>",
      "ن اخ",
      "خار جه<space>",
      "می<space> رود<space>",
      "خاور میانه<space>",
      "هیچ <space>",
      "زم انی<space>",
      "تسه یلات<space>",
      "قان ون<space>",
      "fe br",
      "نی رو",
      "ن تی",
      "از ه<space>",
      "اس رای",
      "ح اشیه<space>",
      "کم تر<space>",
      "رقاب ت<space>",
      "بوده<space> و<space>",
      "<space> واحد<space>",
      "ل و",
      "جنو بی<space>",
      "ترک یه<space>",
      "ک ی",
      "تحلی ل",
      "ز و",
      "j an",
      "د وره<space>",
      "بزرگ ترین<space>",
      "عم ل<space>",
      "چ شم<space>",
      "س که<space>",
      "نتی جه<space>",
      "دا د.<space>",
      "ک ر<space>",
      "ز اری<space>",
      "پو شش<space>",
      "خ اص",
      "ا ون<space>",
      "از ای<space>",
      "تو قف<space>",
      "د ور<space>",
      "مج ل",
      "کان ال<space>",
      "زی ادی<space>",
      "کر ه<space>",
      "ف ل",
      "د نی",
      "ریال<space> و<space>",
      "ق ل",
      "کن ند.<space>",
      "ص د<space>",
      "febr uary<space>",
      "ج و",
      "ن می<space>",
      "او لیه<space>",
      "ح ف",
      "ناخ الص<space>",
      "ر<space> به<space>",
      "<space>م ع",
      "شم ال<space>",
      "ها<space> را<space>",
      "o c",
      "شم ش<space>",
      "march <space>",
      "ات یل",
      "طب ق<space>",
      "ع لی<space>",
      "ح ه<space>",
      "ند ار",
      "او ه<space>",
      "فار س<space>",
      "ق ق<space>",
      "تصمی م<space>",
      "به بود<space>",
      "a <space>",
      "ی ز<space>",
      "ام ک",
      "جم له<space>",
      "کر دن<space>",
      "jan uary<space>",
      "خر د<space>",
      "گو نه<space>",
      "کم ک<space>",
      "انت شار<space>",
      "م ک",
      "ک د",
      "بر س",
      "نف ت",
      "فص لی<space>",
      "اع تب",
      "ر ات<space>",
      "پی دا<space>",
      "p t",
      "هم کاری<space>",
      "ف ق",
      "تغی یر",
      "رو ز",
      "خری داران<space>",
      "ف شار<space>",
      "باز گ",
      "<space> سال<space>",
      "ب اقی<space>",
      "ت اک",
      "ع ض",
      "ری س",
      "پی ش",
      "م ه",
      "کش تی<space>",
      "د ان<space>",
      "که<space> به<space>",
      "ا ور<space>",
      "پار س<space>",
      "س ایر<space>",
      "u s",
      "اتیل ن<space>",
      "ض <space>",
      "توان سته<space>",
      "خ دم",
      "مجل س<space>",
      "که<space> این<space>",
      "دول تی<space>",
      "نقدینگ ی<space>",
      "من ابع<space>",
      "ی و",
      "نیم ه<space>",
      "عمو می<space>",
      "cf r<space>",
      "حص ولات<space>",
      "ر و<space>",
      "ز می",
      "دس تور",
      "نگر انی<space>",
      "ح قو",
      "ام و",
      "شده<space> در<space>",
      "ساع ت<space>",
      "پ ی<space>",
      "س پر",
      "دست گاه<space>",
      "ده د<space>",
      "ری نگ<space>",
      "ام <space>م",
      "ح رک",
      "مر دم<space>",
      "دری ای<space>",
      "ه نو",
      "ام ار<space>",
      "نش ست<space>",
      "پالای ش<space>",
      "اژ انس<space>",
      "سهام داران<space>",
      "خ لی",
      "lng <space>",
      "juan <space>",
      "de ce",
      "قیم تی<space>",
      "تل اش<space>",
      "ک لی",
      "د ل",
      "می ان<space>",
      "یک <space>م",
      "ی لی<space>",
      "س ر<space>",
      "ص ادر<space>",
      "بر اورد<space>",
      "س یم",
      "ان<space> و<space>",
      "ان ات<space>",
      "تن ها<space>",
      "ش د.",
      "خواه ند<space>",
      "هفته<space> من",
      "پ ن",
      "کرد<space> و<space>",
      "ون<space> برگ",
      "بعد<space> از<space>",
      "بسی اری<space>",
      "ال و",
      "تاک ید<space>",
      "ع یت<space>",
      "اب ق<space>",
      "م ن<space>",
      "oc to",
      "می<space> شو",
      "داشت<space> و<space>",
      "اف ر",
      "دی د",
      "دی ت<space>",
      "به اد",
      "se pt",
      "ع نی<space>",
      "اوپک<space> پل",
      "گست ر",
      "نی<space> بر<space>",
      "سال انه<space>",
      "ال ت<space>",
      "گذ ار<space>",
      "س قف<space>",
      "و رود<space>",
      "او ت<space>",
      "کالاه ای<space>",
      "اقتص اد",
      "ی عنی<space>",
      "سو م<space>",
      "از<space> نظر<space>",
      "م ب",
      "دو شنبه<space>",
      "ان<space> را<space>",
      "به<space> مدت<space>",
      "i n",
      "لح اظ",
      "apri l<space>",
      "در<space> نمو",
      "ضع یف<space>",
      "<space>س نت<space>",
      "زم ستان<space>",
      "خواه یم<space>",
      "حقی قی<space>",
      "س عودی<space>",
      "ق ت<space>",
      "خو ب<space>",
      "اسرای یل<space>",
      "م نفی<space>",
      "<space>% +<space>",
      "ح تی<space>",
      "هست ند<space>",
      "برج ام<space>",
      "ریال<space> بود",
      "شاهده<space> است.",
      "سی ون<space>",
      "پذ یر",
      "ترک ی",
      "فعال ان<space>",
      "ق ل<space>",
      "ار ت",
      "شب که<space>",
      "octo ber<space>",
      "به<space> نظر<space>",
      "ج زی",
      "م ذاکرات<space>",
      "حض ور<space>",
      "dece mber<space>",
      "فع لی<space>",
      "شد<space> که<space>",
      "س ل",
      "اخ ر<space>",
      "سپر ده<space>",
      "خار جی<space>",
      "sept ember<space>",
      "غ یر<space>",
      "ی ز",
      "شرو ع<space>",
      "ج نگ<space>",
      "نق ل<space>",
      "نق دی<space>",
      "ق ایسه<space>",
      "no v",
      "اجر ایی<space>",
      "ختل ف<space>",
      "من ظ",
      "خلی ج<space>",
      "کمی سیون<space>",
      "م ست",
      "ان تق",
      "چ ک<space>",
      "<space> قابل<space>م",
      "گو گرد<space>",
      "تق ویت<space>",
      "ح دو",
      "اخ تل",
      "بل و",
      "خور اک<space>",
      "ال ک",
      "چشم<space> اند",
      "ش ف",
      "<space> روز<space>",
      "می ت<space>",
      "تر تی",
      "m a",
      "ی ان<space>",
      "اوراق<space> بهاد",
      "ق یر<space>",
      "ع ات<space>",
      "یک ی<space>",
      "ف در",
      "کن ند<space>",
      "ص ی<space>",
      "ش ای",
      "ک امل<space>",
      "% <space>",
      "ص رف",
      "تولید کنندگان<space>",
      "ال ه<space>",
      "نی ست",
      "تو اند<space>",
      "پ ول",
      "خ رو",
      "بی ت<space>",
      "سال ه<space>",
      "می<space>تو ان",
      "ن شده<space>",
      "<space> b",
      "ع ب<space>",
      "رف ته<space>",
      "م مکن<space>",
      "عض و<space>",
      "گاز وی",
      "ش<space> های<space>",
      "ک یل",
      "اش اره<space>",
      "ش ه<space>",
      "دی ل<space>",
      "مو ج",
      "احتم الا<space>",
      "<space> ت",
      "ص ح",
      "مو اد<space>",
      "و ا",
      "ز د<space>",
      "غر ب<space>",
      "نخ ست<space>",
      "هفت گی<space>",
      "رک ورد<space>",
      "گر ی<space>",
      "ج ای",
      "فدر ال<space>",
      "ع لیه<space>",
      "ص ه<space>",
      "حرک ت<space>",
      "ارو پ",
      "حم وله<space>",
      "خار ج<space>",
      "nov ember<space>",
      "کار خانه<space>",
      "ن ک",
      "محدو ده<space>",
      "ق <space>م",
      "اور ی<space>",
      "هنو ز<space>",
      "یم ی",
      "ده م<space>",
      "برگ زاری<space>",
      "است ر",
      "مح دود<space>",
      "c <space>",
      "مدی ریت<space>",
      "تع ه",
      "خ ص<space>",
      "d <space>",
      "منظ ور<space>",
      "بن ا<space>",
      "خدم ات<space>",
      "ب نی",
      "ا گر",
      "پ نج",
      "تص وی",
      "g us",
      "ه زار<space>",
      "نف تا<space>",
      "اسل امی<space>",
      "خ ط<space>",
      "گر م<space>",
      "اصلاح <space>",
      "ب سته<space>",
      "بخ ش",
      "است<space> در<space>",
      "تق ری",
      "ظ ه<space>",
      "ل ن<space>",
      "ام نی",
      "<space> هم",
      "بال ای<space>",
      "مع ادل<space>",
      "نفت<space> در<space>",
      "چهار شنبه<space>",
      "رک ن",
      "زمی نه<space>",
      "بالا تر<space>",
      "م <space>م",
      "ام <space>می<space>",
      "م ال<space>",
      "اب ل",
      "تح ولات<space>",
      "مس کن<space>",
      "م ط",
      "گازوی یل<space>",
      "گر ان",
      "قبل<space> از<space>",
      "هست ند.<space>",
      "به<space> سال<space>",
      "<space> l",
      "کرده<space> و<space>",
      "ارد<space> ریال",
      "شناس ایی<space>",
      "ص ف",
      "a u",
      "حس اب<space>",
      "اج <space>",
      "چ ند",
      "<space> حدود<space>",
      "اقد امات<space>",
      "ال مان<space>",
      "به ار<space>",
      "ا<space> در<space>",
      "چه ار<space>",
      "می<space>رس د<space>",
      "ط رف<space>",
      "پ ولی<space>",
      "ر است",
      "صاد رکن",
      "را<space> از<space>",
      "ع و",
      "کش اور",
      "معامل اتی<space>",
      "ب از<space>",
      "د د<space>",
      "ش ت",
      "خ ز",
      "عم ده<space>",
      "بو د.",
      "نگ وی<space>",
      "که<space> از<space>",
      "پیشنه اد<space>",
      "ترتی ب<space>",
      "شرک ت",
      "ت ال",
      "رف ت<space>",
      "اب ط<space>",
      "ع ی",
      "سه امی<space>",
      "تقری با<space>",
      "حقو قی<space>",
      "طل ای<space>",
      "اص ل<space>",
      "حم له<space>",
      "تصوی ب<space>",
      "کو ت",
      "امک ان<space>",
      "اس اس",
      "با<space> رشد<space>",
      "دی ر<space>",
      "دار های<space>",
      "<space>مو اجه<space>",
      "خرو ج<space>",
      "یم .",
      "فدرال<space> ر",
      "ن هایی<space>",
      "نوس ان<space>",
      "ف ضای<space>",
      "ح ر",
      "دار ند<space>",
      "جمه وری<space>",
      "بیش تری<space>",
      "ع ق",
      "تر از<space>",
      "پی لن<space>",
      "است<space> تا<space>",
      "ص ر",
      "مک عب<space>",
      "سخ نگوی<space>",
      "ح جم",
      "ر به<space>",
      "<space>می زان<space>",
      "ش یمی",
      "خ ط",
      "راه<space> اند",
      "اتف اق",
      "ریس ک<space>",
      "که<space> با<space>",
      "فر اب",
      "ب یم",
      "تخ ص",
      "ل ت<space>",
      "مع اون<space>",
      "بو دن<space>",
      "می<space> باش",
      "دارد<space> و<space>",
      "ک و<space>",
      "نر خ",
      "قط ر<space>",
      "ارز<space> و<space>",
      "کرد ند.<space>",
      "است ان<space>",
      "ر عامل<space>",
      "اپ ور<space>",
      "ت ث",
      "ب دهی<space>",
      "ف ه",
      "ل ادی<space>",
      "در<space> چین<space>",
      "ش هر<space>",
      "فراب ور",
      "دی ده<space>",
      "حدا قل<space>",
      "سنگ ین<space>",
      "امریک ایی<space>",
      "گ ل",
      "تولی دی<space>",
      "e n",
      "فرو ش",
      "بر داری<space>",
      "یک <space>میلی",
      "اخ بار<space>",
      "یاب د.<space>",
      "س تی<space>",
      "سی اسی<space>",
      "امی دو",
      "رک ز<space>",
      "سر انه<space>",
      "تع می",
      "بح ران<space>",
      "ش کل<space>",
      "ع ت<space>",
      "ح وزه<space>",
      "<space> $",
      "سف ار",
      "ف ن",
      "au gus",
      "احتم ال<space>",
      "تاب ستان<space>",
      "فدرال<space>ر زر",
      "ا غ<space>",
      "اخ تی",
      "ح ل<space>",
      "فع ال<space>",
      "داشته<space> باش",
      "می<space> گوی",
      "پاس خ<space>",
      "ارد<space> و<space>",
      "رک ز<space>م",
      "ی ار",
      "ر ت",
      "از<space> سال<space>",
      "t h",
      "ی ات<space>",
      "مر داد<space>",
      "اس کن",
      "م ز<space>",
      "ار گو",
      "ک لی<space>",
      "لح ظه<space>",
      "ام ار",
      "نگ اه<space>",
      "ر ه",
      "ز غ",
      "در<space> سه<space>",
      "بو ر<space>",
      "لاز م<space>",
      "صو به<space>",
      "برگ زار<space>",
      "عملی ات<space>",
      "ر گ",
      "سرمایه<space> گذار",
      "ر ع",
      "پای انی<space>",
      "بازگ شت<space>",
      "سف ر<space>",
      "اف ت",
      "قو ی<space>",
      "ن به<space>",
      "انتظ ارات<space>",
      "نک ته<space>",
      "شم اره<space>",
      "ح له<space>",
      "بر<space> این<space>",
      "قرار<space> گرف",
      "f o",
      "اق صه<space>",
      "ح ذ",
      "t i",
      "د ف",
      "رک <space>",
      "فرابور س<space>",
      "تث بیت<space>",
      "واق ع<space>",
      "تای ید<space>",
      "ص عودی<space>",
      "م س<space>",
      "هر<space> سهم<space>",
      "اطل اع<space>",
      "تف اوت<space>",
      "ا ول",
      "ا<space> و<space>",
      "قیمت<space> $<space>",
      "نی ز<space>م",
      "از<space> لحاظ",
      "رو ابط<space>",
      "ر اه",
      "تحلیل گران<space>",
      "دس تور<space>",
      "سی ز",
      "زی ان<space>",
      "ایر انی<space>",
      "دو باره<space>",
      "د لیل<space>",
      "ال <space>م",
      "گ ند",
      "p e",
      "ام اده<space>",
      "کوت اه<space>",
      "ظ <space>",
      "ژ اپ",
      "الی ات<space>",
      "قب لی<space>",
      "دا وم<space>",
      "مان ند<space>",
      "ma y<space>",
      "اروپ ایی<space>",
      "ت ار<space>",
      "ب ن<space>",
      "ال عمل<space>",
      "گفت<space> و",
      "حم ل<space>",
      "انتق ال<space>",
      "ب های<space>",
      "ص مت<space>",
      "ها<space> از<space>",
      "ساخ ت<space>",
      "ج ام",
      "خود<space> در<space>",
      "ور ق<space>",
      "پیشنه اد",
      "چ را<space>",
      "پ لی",
      "کرد ند<space>",
      "ن ام<space>",
      "پل ت",
      "ب ع<space>",
      "ف ی<space>",
      "دار یم<space>",
      "نیز<space> به<space>",
      "ی کش",
      "سیم ان<space>",
      "خودرو های<space>",
      "r e",
      "ق در",
      "o n",
      "حدا ک",
      "ح اک",
      "سنگ اپور<space>",
      "نظ ام<space>",
      "اع مال<space>",
      "پ <space>",
      "دا تی<space>",
      "بیم ه<space>",
      "به<space> م",
      "تولید کننده<space>",
      "نف ر<space>",
      "خو است<space>",
      "اف ری",
      "ل ای",
      "دولت<space> سیز",
      "پرو پیلن<space>",
      "ای بنا<space>",
      "این<space> م",
      "زای ده<space>",
      "هم<space> و<space>",
      "تب دیل<space>",
      "یار انه<space>",
      "ش دید<space>",
      "ک ور<space>",
      "اه م<space>",
      "اف ز",
      "دی ز",
      "کم ترین<space>",
      "گ یر<space>",
      "<space> نسبت<space>",
      "اض اف",
      "ش ان<space>",
      "نظ ارت<space>",
      "کد ال<space>",
      "ب ان<space>",
      "در<space> بخش<space>",
      "m <space>",
      "ز نج",
      "ک ام",
      "م ر<space>",
      "پذ یر<space>",
      "چ ر",
      "تو جه",
      "دی دی<space>",
      "من ج",
      "یکش نبه<space>",
      "ان دو",
      "رک ود<space>",
      "ا و<space>",
      "دستور العمل<space>",
      "خ ل",
      "کار شن",
      "یاب د<space>",
      "ط ول<space>",
      "جزی یات<space>",
      "سر ی<space>",
      "ن خواهد<space>",
      "حم ل<space>و<space>",
      "کاه شی<space>",
      "ب ندی<space>",
      "افر اد<space>",
      "ل وله<space>",
      "در<space> نظر<space>",
      "اد اره<space>",
      "جل و",
      "ذخ یره<space>",
      "ف و",
      "سر عت<space>",
      "کشاور زی<space>",
      "رف ع<space>",
      "مالی اتی<space>",
      "د ام",
      "اج را<space>",
      "بح ث<space>",
      "ری ه<space>",
      "اظ ه",
      "ح ق<space>",
      "ذ کور<space>",
      "ری زی<space>",
      "بای دن<space>",
      "تج ربه<space>",
      "جم عه<space>",
      "مق داری<space>",
      "س <space>م",
      "رسید<space> و<space>",
      "بن ابر",
      "امنی ت<space>",
      "مع نی<space>",
      "ت ض",
      "مو اجه<space>",
      "س وی",
      "برای<space> سال",
      "ص ر<space>",
      "ا<space> به<space>",
      "مان ده<space>",
      "و <space>می",
      "گ ازی<space>",
      "م خ",
      "ن ابع<space>",
      "خاص <space>",
      "ارت با",
      "ژاپ ن<space>",
      "نو ع<space>",
      "اضاف ه<space>",
      "دی دار<space>",
      "گفت<space> که<space>",
      "است ان",
      "مو ل<space>",
      "الو می",
      "بنابر این<space>",
      "فرو ش<space>م",
      "قو ط<space>",
      "ای ند<space>",
      "ه مان<space>",
      "کن ار<space>",
      "نز ولی<space>",
      "ذاکر ه<space>",
      "نگ ی<space>",
      "اس ب<space>",
      "ل <space>می<space>",
      "باز رگ",
      "م توسط<space>",
      "س ای",
      "پلت س<space>",
      "ح اصل<space>",
      "حذ ف<space>",
      "شود<space> و<space>",
      "انو اع<space>",
      "ر غ",
      "داد<space> که<space>",
      "نق طه<space>",
      "ال ب<space>",
      "واح دی<space>",
      "ب ری",
      "فق ط<space>",
      "ان ی",
      "ن ان<space>",
      "روی تر",
      "<space>م ح",
      "ج دی<space>",
      "دو مین<space>",
      "قابل<space> توجه",
      "نیرو گاه<space>",
      "بر ان<space>",
      "اع ضای<space>",
      "من ت",
      "چ ال",
      "نی م<space>",
      "کس ب<space>",
      "پای یز<space>",
      "ج ای<space>",
      "جه ش<space>",
      "داشته<space> است",
      "قرار دا",
      "ق انو",
      "ان ده<space>",
      "گ از<space>م",
      "نو شت<space>",
      "چن ین<space>",
      "خ ته<space>",
      "د رو",
      "ح ق",
      "حف ظ<space>",
      "کال ای<space>",
      "مع تق",
      "ش دت<space>",
      "مالی ات<space>",
      "بن در<space>",
      "هی یت<space>",
      "ر خ<space>",
      "تغییر ات<space>",
      "رسی د.",
      "من و",
      "س ات<space>",
      "فر ص",
      "چی نی<space>",
      "وار داتی<space>",
      "گران ول<space>",
      "م ه<space>",
      "راست ای<space>",
      "ج ذ",
      "می<space> گیر",
      "اص له<space>",
      "مدی رعامل<space>",
      "واح دهای<space>",
      "اه میت<space>",
      "یو ان<space>",
      "ط ابق<space>",
      "غ ذ",
      "گ ز",
      "ت<space> های<space>",
      "ده ه<space>",
      "زم ین<space>",
      "شیمی ایی<space>",
      "ت کمی",
      "عل اوه<space>",
      "دنی ا<space>",
      "م جمع<space>",
      "م تو",
      "نیز<space> با<space>",
      "پ اک",
      "ام ید<space>",
      "س قوط<space>",
      "ت اکنون<space>",
      "من اط",
      "کم بود<space>",
      "ج ان",
      "ی ص<space>",
      "ه ش",
      "بی ان<space>",
      "نمو دار<space>",
      "م ت",
      "ن وی",
      "مدی ر<space>",
      "گ و<space>با<space>",
      "غر بی<space>",
      "اختی ار<space>",
      "حداک ثر<space>",
      "سب ک<space>",
      "حقی ق",
      "اتف اق<space>",
      "نمو ده<space>",
      "مو جود<space>",
      "تور می<space>",
      "e r",
      "خری داری<space>",
      "و ین<space>",
      "کر د.",
      "ال ات<space>",
      "س از<space>",
      "ف نی<space>",
      "در خواست<space>",
      "تا<space> سال<space>",
      "داد<space> و<space>",
      "ک ل<space>م",
      "ترک <space>",
      "حق وق<space>",
      "رع ایت<space>",
      "اس اسی<space>",
      "سی ست",
      "م توقف<space>",
      "وی ه<space>",
      "صح بت<space>",
      "م ث",
      "ن و<space>",
      "بر<space> روی<space>",
      "لای حه<space>",
      "س اب",
      "و<space>م دت<space>",
      "ب <space>م",
      "ق صد<space>",
      "هست یم<space>",
      "ر ای<space>",
      "ام<space> و<space>",
      "augus t<space>",
      "ار ک",
      "<space>هم ت<space>",
      "ش نی",
      "نش انه<space>",
      "حو اله<space>",
      "خبر ی<space>",
      "ز ن<space>",
      "قانو نی<space>",
      "<space> g",
      "ر ان",
      "نج ی<space>",
      "بر زی",
      "م یم",
      "ری ز",
      "کنی د<space>",
      "رسی دن<space>",
      "رویتر ز<space>",
      "ه ی<space>",
      "ای م<space>",
      "است ایر",
      "ک سری<space>",
      "رغ م<space>",
      ". <space>م",
      "ز ودی<space>",
      "اکن ش<space>",
      "و<space> نرخ<space>",
      "د قی",
      "س ن",
      "انت خ",
      "<space> f",
      "به تر<space>",
      "ب گیر",
      "شو د.",
      "پ ر<space>",
      "پل م",
      "گ مرک",
      "ند ارد<space>",
      "چ ون<space>",
      "وار د",
      "جل س<space>",
      "ب ست",
      "است<space> به<space>",
      "تش دید<space>",
      "اث ر<space>",
      "ای م",
      "و ست<space>",
      "جمو عا<space>",
      "پیشنهاد ات<space>",
      "ها<space> با<space>",
      "افری ق",
      "در<space> او",
      "<space> بش",
      "ع بد",
      "مجمو ع<space>",
      "سو دا",
      "زی اد<space>",
      "م هر<space>",
      "دی پلم",
      "دار ای<space>",
      "<space> شرکت<space>",
      "ار سال<space>",
      "استایر ن<space>",
      "تص میم",
      "نی از",
      "رس اند<space>",
      "مر حله<space>",
      "و ز<space>",
      "و<space> این<space>",
      "رت به<space>",
      "ز ه<space>",
      "کیل و",
      "صر افی<space>",
      "دیز ل<space>",
      "دی گری<space>",
      "عد الت<space>",
      "فر ان",
      "هی ات<space>",
      "نق ش<space>",
      "ت داوم<space>",
      "ج دیدی<space>",
      "رس ت<space>",
      "محدو دیت<space>",
      "از<space> ان<space>",
      "اختصاص <space>",
      "خصو صی<space>",
      "و ام<space>",
      "این تر",
      "کارشن اس<space>",
      "کار شناس",
      "ه<space> ماه",
      "ابل اغ<space>",
      "بازرگ انی<space>",
      "اف یت<space>",
      "عبد ال",
      "غ دیر<space>",
      "فر دا<space>",
      "تخ فی",
      "ه ند",
      "ع الی<space>",
      "کر دیم<space>",
      "س پ",
      "م سی",
      "افز ود<space>",
      "زنج یره<space>",
      "به<space> سمت<space>",
      "ف ج",
      "نرخ <space>م",
      "زای لین<space>",
      "زغ ال<space>",
      "اعتب ار<space>",
      "مست ق",
      "ام ارات<space>",
      "د تا<space>",
      "باز دهی<space>",
      "نوس انات<space>",
      "چهار م<space>",
      "ک ا<space>",
      "ظ ر<space>",
      "زی ر",
      "i <space>",
      "ذ کر<space>",
      "به<space> است",
      "بود<space> در<space>",
      "نز وی",
      "مجمو عه<space>",
      "گ ی",
      "و نزوی",
      "م <space>می<space>",
      "رس انه<space>",
      "نه ایت<space>",
      "م تر<space>",
      "شنی ده<space>",
      "ک وره<space>",
      "ن حو",
      "ساز ان<space>",
      "ری ل<space>",
      "شه ر",
      "اسی ایی<space>",
      "خ یلی<space>",
      "ده نده<space>",
      "فر ایند<space>",
      "چین<space> و<space>",
      "ار شد<space>",
      "شده<space> است.",
      "مق دار<space>",
      "ارز<space> در<space>",
      "م د",
      "پذیر ش<space>",
      "نحو ه<space>",
      "تعه د<space>",
      "چین<space> در<space>",
      "پی گیری<space>",
      "رسیده<space> است.",
      "و<space> فروش<space>",
      "نگ ه",
      "نیم ا<space>",
      "م تع",
      "اف ش",
      "ارگو س",
      "رس انی<space>",
      "نب ع<space>",
      "وا گذاری<space>",
      "ج ان<space>",
      "ل غ",
      "س ا",
      "س ری",
      "نیز<space> در<space>",
      "ام ده<space>",
      "امو نی",
      "و ب",
      "اسکن اس<space>",
      "ت گز",
      "ط ول",
      "وز ن<space>",
      "مش اه",
      "حص ول<space>",
      "ای ا<space>",
      "می ه<space>",
      "دری ایی<space>",
      "بن زن<space>",
      "پن ج<space>",
      "ونزوی لا<space>",
      "ر<space> و<space>",
      "گ اهی<space>",
      "بوده<space> است",
      "مش خص<space>",
      "t t",
      "م سیر<space>",
      "اج تم",
      "تگز اس<space>",
      "ن ام",
      "عل ت<space>",
      "ان<space> ها<space>",
      "الک ترو",
      "سی م<space>",
      "و نی<space>",
      "شم ا<space>",
      "تو زی",
      "و<space>م ر",
      "اجتم اع",
      "تو ان<space>",
      "من اقصه<space>",
      "ان چه<space>",
      "و<space> کاهش<space>",
      "بو ت",
      "گستر ش<space>",
      "نیست .<space>",
      "فل ز",
      "س ایت<space>",
      "عم دتا<space>",
      "م اند<space>",
      "این<space> بد",
      "کند<space> و<space>",
      "تعط یلات<space>",
      "ات می<space>",
      "ق ام<space>",
      "در ست<space>",
      "ر ت<space>",
      "b <space>",
      "ر س<space>",
      "و<space>س ایر<space>",
      "واق عی<space>",
      "جای گ",
      "ع لی",
      "می<space> گرد",
      "مشاه ده<space>",
      "ز د",
      "ج بران<space>",
      "برگ <space>",
      "اف زو",
      "ند گی<space>",
      "تن<space> فوب<space>",
      "<space> برابر<space>",
      "c o",
      "لی س<space>",
      "دی ریت<space>",
      "ت اسی",
      "مح قق<space>",
      "ع ادی<space>",
      "بلو م",
      "تم دید<space>",
      "گ ام<space>",
      "در<space> یک<space>",
      "مق ایسه<space>",
      "ابتد ایی<space>",
      "تب ط<space>",
      "<space>% <space>م",
      "مو س",
      "تل فی",
      "امیدو ار",
      "شده<space> که<space>",
      "و<space>م و",
      "اف قت<space>",
      "نگ ه<space>",
      "برزی ل<space>",
      "ز ده<space>",
      "مو ارد<space>",
      "دار ند.<space>",
      "تاری خ",
      "در<space>م هر<space>",
      "ب ند<space>",
      "ت ازه<space>",
      "گرف ت<space>",
      "سط و",
      "تخص یص<space>",
      "t a",
      "ت نظ",
      "ام ر<space>",
      "بن ادر<space>",
      "حجم <space>م",
      "حض ار<space>",
      "ش ع",
      "دان ش<space>",
      "r o",
      "ن داشته<space>",
      "قدر ت<space>",
      "ض من<space>",
      "با<space> نرخ<space>",
      "یاف ته<space>",
      "ح ک",
      "ف اصله<space>",
      "از<space> کل<space>",
      "چی زی<space>",
      "ات ژ",
      "صادرکن نده<space>",
      "رد م<space>",
      "f <space>",
      "مح ترم<space>",
      "و<space>م ع",
      "استر اتژ",
      "ب ند",
      "ت مای",
      "اد ی",
      "وی ی<space>",
      "ن ص",
      "تخفی ف<space>",
      "ام ل",
      "ی ای<space>",
      "بی ر<space>",
      "اع ل",
      "گستر ده<space>",
      "ه ل",
      "موج ب<space>",
      "ک یل<space>",
      "کاه ش<space>م",
      "ش ن<space>",
      "ن اد<space>",
      "سی است",
      "د -<space>",
      "می دان<space>",
      "عرضه<space> و<space>",
      "سه میه<space>",
      "دنی ای<space>",
      "ج ا<space>",
      "ات ش<space>",
      "دی<space> ماه<space>",
      "ض رو",
      "نرخ<space> $<space>",
      "بال غ<space>",
      "بود ند<space>",
      "فرص ت<space>",
      "فلز ات<space>",
      "قط عی<space>",
      "<space>مع ادل<space>",
      "ارک ت<space>",
      "د<space> که<space>",
      "ج ت<space>",
      "گ و<space>",
      "خواهد<space> یاف",
      "د ام<space>",
      "اح ل<space>",
      "الکترو نی",
      "فر ا",
      "ف <space>م",
      "ان قل",
      "گاز<space> در<space>",
      "مای ع<space>",
      "د ک",
      "رسی د",
      "خواهد<space> شد.",
      "مرک ز<space>م",
      "سیست م<space>",
      "توزی ع<space>",
      "ت ال<space>",
      "پای دار<space>",
      "تش کیل<space>",
      "فرو خته<space>",
      "شاخ ص",
      "ترکی بی<space>",
      "p <space>",
      "ر م",
      "بازار<space> م",
      "می<space>باش د.",
      "و اکنش<space>",
      "ان<space> با<space>",
      "وق تی<space>",
      "ال له<space>",
      "اه د",
      "اص فه",
      "بن ای<space>",
      "بار گیری<space>",
      "بع دی<space>",
      "اتفاق ات<space>",
      "ام ضا<space>",
      "تم امی<space>",
      "<space> a",
      "بر ی<space>",
      "بل ند",
      "بورس<space> و<space>",
      "س نا",
      "ع مان<space>",
      "هم زمان<space>",
      "ک د<space>",
      "شرای طی<space>",
      "ح الا<space>",
      "ع وار",
      "خبر نگ",
      "تعط یل<space>",
      "افزای ش<space>م",
      "دو ل<space>",
      "ص ب",
      "مح اس",
      "حم لات<space>",
      "ب <space>می<space>",
      "ای<space> از<space>",
      "سر اس",
      "اختل اف<space>",
      "اعتب اری<space>",
      "t e",
      "ع بور<space>",
      "مناط ق<space>",
      "ترکی ب<space>",
      "اع تم",
      "اح س",
      "فران سه<space>",
      "اس پر",
      "سی نا<space>",
      "استان دارد<space>",
      "ک ش<space>",
      "ی نی<space>",
      "گ ری",
      "<space>م ورد<space>",
      "بر د<space>",
      "اح یای<space>",
      "ج دول<space>",
      "طبی عی<space>",
      "ف کر<space>",
      "باشد<space> و<space>",
      "اگر چه<space>",
      "سف ید<space>",
      "غ زه<space>",
      "ان یه<space>",
      "مل ت<space>",
      "ط رف",
      "سفار ش<space>",
      "ری لی",
      "<space> اسفند<space>",
      "شر قی<space>",
      "بوده<space> است.",
      "تم رکز<space>",
      "اطلاع یه<space>",
      "<space> خرداد<space>",
      "ش خص<space>",
      "کر بن<space>",
      "قراردا دهای<space>",
      "یم<space> و<space>",
      "طر ح",
      "موج ودی<space>",
      "ام یر",
      "با<space> ان<space>",
      "ساب قه<space>",
      "سی د<space>",
      "د نبال<space>",
      "اج ازه<space>",
      "م ند<space>",
      "سی اه<space>",
      "خصو ص",
      "کار ت<space>",
      "ش پ",
      "نفت<space> را<space>",
      "<space> واحدی<space>",
      "دا و",
      "ایر ان",
      "چند ین<space>",
      "تس ویه<space>",
      "اد ین<space>",
      "ب ده",
      "اب ه",
      "نو ین<space>",
      "و<space>م ن",
      "هم <space>م",
      "<space> €<space>",
      "ن ال<space>",
      "الومی نی",
      "درام دهای<space>",
      "اپ <space>",
      "احتم الی<space>",
      "ض ای",
      "s i",
      "اع ط",
      "پالای شی<space>",
      "ان طور<space>",
      "هم ترین<space>",
      "مان د.<space>",
      "ول <space>م",
      "رو ن<space>",
      "کن س",
      "پر د",
      "نمای نده<space>",
      "خ ش<space>",
      "م اده<space>",
      "اند کی<space>",
      "ن می<space>تو",
      "و اب",
      "نا تر",
      "جای گاه<space>",
      "سطو ح<space>",
      "ذ <space>",
      "ال ز",
      "به<space> روز<space>",
      "هی درو",
      "چ شم",
      "اق ی",
      "مش ت",
      "مج دد<space>",
      "کن یم.<space>",
      "فر اهم<space>",
      "ریی سی<space>",
      "یم <space>م",
      "اق ای<space>",
      "ند. <space>م",
      "حف اری<space>",
      "ندار د.<space>",
      "تعمی رات<space>",
      "ر م<space>",
      "ش ام",
      "اط می",
      "پیش رفت<space>",
      "ج ودی<space>",
      "ص دور<space>",
      "فن اوری<space>",
      "می لادی<space>",
      "غذ ایی<space>",
      "رف ی<space>",
      "گ او",
      "اقی انو",
      "فروش<space> و<space>",
      "بر داشت<space>",
      "د ند<space>",
      "هش دار<space>",
      "ت جه",
      "د ها<space>",
      "س کن<space>",
      "به<space>د ست<space>",
      "طول انی<space>",
      "رو بر",
      "بود ند.<space>",
      "شای د<space>",
      "دام نه<space>",
      "سر خ<space>",
      "تقاض یان<space>",
      "تواف قی<space>",
      "گند م<space>",
      "g <space>",
      "س خت<space>",
      "و ان<space>",
      "روز<space> سه<space>",
      "قط ع<space>",
      "ریز ش<space>",
      "کارشناس ان<space>",
      "ای<space> که<space>",
      "تح قق<space>",
      "صن ای",
      "و ستان<space>",
      "نگه داری<space>",
      "پیشنه ادی<space>",
      "روبر و<space>",
      "نمای ندگان<space>",
      "اسپر د<space>",
      "ر و<space>به<space>",
      "و اش",
      "بی انیه<space>",
      "فول ادی<space>",
      "انتخ اب<space>",
      "گو اهی<space>",
      "تعط یلی<space>",
      "لی تر<space>",
      "در<space> تیر<space>",
      "افزای شی<space>",
      "حر اج<space>",
      "تصمیم ات<space>",
      "و لی",
      "l o",
      "تکمی ل<space>",
      "ا گ",
      "م انی<space>",
      "ش ار",
      "ع انات<space>",
      "م ذکور<space>",
      "اما<space> در<space>",
      "کشور ها<space>",
      "افزو ده<space>",
      "ح ل",
      "ام<space> در<space>",
      "قط عه<space>",
      "ج و<space>",
      "و<space> قیمت<space>",
      "دی س<space>",
      "خ ص",
      "م زایده<space>",
      "نگ تن<space>",
      "حدو دیت<space>",
      "اک ثر<space>",
      "نم ود<space>",
      "تواف ق",
      "پ رس",
      "خری دار<space>",
      "ط <space>م",
      "م زد<space>",
      "از <space>می",
      "گذ اش",
      "اژ <space>",
      "عبدال ل",
      "p e<space>",
      "رو ش<space>",
      "چ ار<space>",
      "سو مین<space>",
      "بازار ها<space>",
      "ر اب",
      "م ف",
      "گو ی<space>",
      "شرکت های<space>",
      "پول ی<space>و<space>",
      "o r",
      "دار د",
      "گرف تن<space>",
      "کلی دی<space>",
      "اول ویت<space>",
      "م طرح<space>",
      "تاث یر",
      "ا ط<space>",
      "ار ام",
      "ارز ان<space>",
      "جلو گیر",
      "ج ایی<space>",
      "و <space>می<space>",
      "گ ل<space>",
      "زی رس",
      "وار یز<space>",
      "ق در<space>",
      "عبدالل هی",
      "<space> juan<space>",
      "خود<space> به<space>",
      "د نی<space>",
      "ان جم",
      "پذ ی",
      "محم د<space>",
      "ر<space> در<space>",
      "عوار ض<space>",
      "<space> -",
      "خ اور<space>",
      "پی و",
      "پلی مر",
      "واش نگتن<space>",
      "صادرکن ندگان<space>",
      "پی ام<space>",
      "نظ امی<space>",
      "ن تای",
      "یک <space>ماه<space>",
      "عو امل<space>",
      "انقل اب<space>",
      "ت<space> که<space>",
      "مر تبط<space>",
      "متو الی<space>",
      "زیرس اخ",
      "تق دم<space>",
      "امار های<space>",
      "اجتماع ی<space>",
      "نفت<space> به<space>",
      "رف تار<space>",
      "تنظ یم<space>",
      "د دا<space>",
      "ل<space> به<space>",
      "انجم ن<space>",
      "ر د<space>",
      "<space>مو ضو",
      "لغ و<space>",
      "r a",
      "ات یک<space>",
      "می<space> دان",
      "اد ن<space>",
      "رف ه<space>",
      "ت یر",
      "مرک ز<space>",
      "پنج شنبه<space>",
      "خ اذ",
      "اند<space> که<space>",
      "ج ن",
      "م ص",
      "<space>% -",
      "اج عه<space>",
      "ش یر",
      "دا دن<space>",
      "ف ه<space>",
      "<space> ساله<space>",
      "جی ب<space>",
      "th e<space>",
      "جان به<space>",
      "<space> c",
      "نش ست",
      "مج وز<space>",
      "تن ش<space>",
      "ت .",
      "ک اوه<space>",
      "دی روز<space>",
      "فر زین<space>",
      "<space> تیر<space>",
      "و<space> از<space>",
      "شف اف<space>",
      "او ج<space>",
      "تض مین<space>",
      "ن کرده<space>",
      "یم<space> که<space>",
      "<space> از<space>",
      "ا گاه<space>",
      "ال یا<space>",
      "کن د.",
      "ح ی",
      "بازار گرد",
      "تجه یز",
      "<space> بهمن<space>",
      "پای انه<space>",
      "تج دید",
      "و ه",
      "انج ام<space>م",
      "ل ذ",
      "م تر",
      "رو ز<space>م",
      "مش ترک<space>",
      "پی<space> وی<space>",
      "ب اب<space>",
      "ان<space> از<space>",
      "اذ ر",
      "ن باید<space>",
      "<space>ه فته<space>",
      "دست رس<space>",
      "گاز<space>طبی ع",
      "و<space> یا<space>",
      "پالای ش",
      "ال بات<space>",
      "بری تان",
      "ناتر ازی<space>",
      "مشت ریان<space>",
      "در<space> طول<space>",
      "ده د.",
      "چال ش<space>",
      "ه می",
      "سراس ر<space>",
      "<space> july<space>",
      "ط قی<space>",
      "ان تر",
      "پ یم",
      "ده ند.<space>",
      "اظه ار<space>",
      "تر جی",
      "داخ ل<space>",
      "باز ی<space>",
      "استر الیا<space>",
      "صب ح<space>",
      "هف ت<space>",
      "پ ه",
      "ا چ",
      "کش ف<space>",
      "تر س<space>",
      "مستق یم<space>",
      "چی ز<space>",
      "از<space>م اه<space>",
      "انی<space> که<space>",
      "شد ند<space>",
      "مجمو عا<space>",
      "<space>مر داد<space>",
      "هند وستان<space>",
      "<space> march<space>",
      "ث ی<space>",
      "د ور",
      "اب زار<space>",
      "تسه یل<space>",
      "د کل<space>",
      "ست ین<space>",
      "سری ع<space>",
      "ع ود<space>",
      "ک افی<space>",
      "هر<space> دو<space>",
      "امیر عبداللهی",
      "ا شته<space>",
      "هم<space> در<space>",
      "p v",
      "ک ف<space>",
      "ها<space> و<space>م",
      "عق ب<space>",
      "سی گ",
      "صنای ع<space>م",
      "اعتم اد<space>",
      "ت ک",
      "پ ز",
      "توان ند<space>",
      "امل اک<space>",
      "ق الب<space>",
      "پی رو<space>",
      "کل ان<space>",
      "و اس",
      "ج ز<space>",
      "و ص",
      "شد<space> تا<space>",
      "<space> ریال",
      "مو ق",
      "نس ب",
      "مش ک",
      "نیرو های<space>",
      "اهد اف<space>",
      "خ انو",
      "ک سی<space>",
      "اند ازه<space>",
      "س ایه<space>",
      "ده<space> و<space>",
      "اف ق<space>",
      "خود روی<space>",
      "فوق<space> ال",
      "صف ر<space>",
      "ز نی<space>",
      "ار تی<space>",
      "تو لو",
      "اث ر",
      "شک لات<space>",
      "تعه دات<space>",
      "ب ز",
      "ف وری<space>",
      "بور سی<space>",
      "خر د-<space>",
      "فی زی",
      "برس د.<space>",
      "از اد",
      "گذ اشته<space>",
      "ng <space>",
      "ط وری<space>",
      "ی نه<space>",
      "ته<space> است<space>",
      "نم ای<space>",
      "تولو ین<space>",
      "l i",
      "ری ک<space>",
      "ساخ ت",
      "کام لا<space>",
      "م بار",
      "و نی",
      "کو وی",
      "س کو",
      "جام عه<space>",
      "منت ظر<space>",
      "بریتان یا<space>",
      "مشک لات<space>",
      "ب ک",
      "خ ه<space>",
      "ل ز",
      "<space> یوان<space>",
      "رک ل<space>",
      "توافق<space> ه",
      "وق ت<space>",
      "نخ ستین<space>",
      "گاو ات<space>",
      "ث رو",
      "ای ش<space>",
      "مو افقت<space>",
      "دار و<space>",
      "شود<space> که<space>",
      "راب طه<space>",
      "ارز <space>م",
      "چین<space> به<space>",
      "ل ق<space>به<space>",
      "باز ه<space>",
      "حجم <space>ماه",
      "باد لات<space>",
      "به<space> فصل<space>",
      "گرف ت.<space>",
      "دس تی<space>",
      "ات اق<space>",
      "پرو نده<space>",
      "ت دری",
      "ز بان<space>",
      "ک ات",
      "د انه<space>",
      "در ضا<space>",
      "تخ ل",
      "خز انه<space>",
      "تن<space> بر<space>",
      "صو ب<space>",
      "جایگ زین<space>",
      "موس سه<space>",
      "ح ی<space>",
      "تگزاس<space> اینتر",
      "ری م<space>",
      "نسب تا<space>",
      "ای<space> در<space>",
      "کرد<space> و<space>م",
      "<space>ت ریلی",
      "تال ار<space>",
      "پ اک<space>",
      "نه اد",
      "نه اد<space>",
      "انتر ه<space>",
      "خو ز<space>",
      "او ایل<space>",
      "ف س",
      "سب د<space>",
      "پاک ستان<space>",
      "تجهیز ات<space>",
      "ت کلی",
      "ده ند<space>",
      "افش ای<space>",
      "پز شک",
      "ال ف",
      "می<space>شو د.",
      "ف سف",
      "شم الی<space>",
      "ص اح",
      "ن ای<space>",
      "چ ار",
      "لذ ا<space>",
      "تن<space> در<space>",
      "سب ز<space>",
      "گ انه<space>",
      "اش تغ",
      "به ترین<space>",
      "اطمی نان<space>",
      "اس ته<space>",
      "باز نشست",
      "شد ند.<space>",
      "ابل اغ",
      "ای د<space>",
      "<space>ه م<space>",
      "هی ات<space>م",
      "ک ود<space>",
      "جذ ب<space>",
      "م منو",
      "مش کل<space>",
      "ف از<space>",
      "ک <space>می<space>",
      "ف ور",
      "ن او",
      "از ن<space>",
      "غ ل",
      "دی جی",
      "هو ایی<space>",
      "سن اری",
      "ان ند<space>",
      "کو چک<space>",
      "شر ح<space>",
      "عد نی<space>",
      "ب رو",
      "ک ری",
      "بلند مدت<space>",
      "ول ا<space>",
      "تا<space> این<space>",
      "بل که<space>",
      "t u",
      "خ ام<space>",
      "باش د.",
      "ش ک<space>",
      "واس طه<space>",
      "<space> قیمت<space>",
      "قب ال<space>",
      "تحلیل گر<space>",
      "fo b<space>",
      "انگ لیس<space>",
      "ایم .<space>",
      "ق دار<space>",
      "داشته<space> است.",
      "کد ام<space>",
      "<space> april<space>",
      "ک لیه<space>",
      "ار<space> در<space>",
      "پ ژ",
      "قو ه<space>",
      "قط عا<space>",
      "افریق ا<space>",
      "تر انه<space>",
      "پ اد",
      "به<space> سود<space>",
      "رو شن<space>",
      "را<space> بر<space>",
      "من اسب<space>",
      "هم<space> به<space>",
      "پار از",
      "a l",
      "ب تواند<space>",
      "کن ون<space>",
      "تع ادل<space>",
      "بازگ ش",
      "مدی ت<space>",
      "تاب ل",
      "و ف",
      "ان<space> مر",
      "عر بی<space>",
      "ار امک",
      "نتای ج<space>",
      "ان د.",
      "اس ان<space>",
      "اخ ی",
      "نگ ران<space>",
      "ات خاذ",
      "تور م",
      "k <space>",
      "ب بی",
      "خ اط",
      "د ل<space>",
      "است<space> با<space>",
      "اساس <space>م",
      "ف <space>می<space>",
      "اد ع",
      "گر دیده<space>",
      "علی رغم<space>",
      "بی لت<space>",
      "مع دن<space>",
      "م ار",
      "نو عی<space>",
      "هست یم.<space>",
      "سهام<space> و<space>",
      "رو ن",
      "امیدوار یم<space>",
      "ک امی",
      "نز د<space>",
      "دستور ی<space>",
      "ست اد<space>",
      "ای<space> به<space>",
      "دی ره<space>",
      "خو ش<space>",
      "م ز",
      "ری است<space>",
      "بخ شی<space>",
      "ب نگاه<space>",
      "م طل",
      "ش ب<space>",
      "به<space> کار<space>",
      "به<space> عدد<space>",
      "اندو ن",
      "ارتبا ط<space>",
      "ع ب",
      "م صوبه<space>",
      "کر مان<space>",
      "apri l",
      "پرد از",
      "<space> d",
      "ت ز",
      "ار بی",
      "او اخر<space>",
      "ال ان<space>",
      "می<space> نمای",
      "قبل<space> به<space>",
      "قر ه<space>",
      "انی<space> در<space>",
      "خط و",
      "تجدید پذیر<space>",
      "<space> اذر<space>",
      "خود<space> از<space>",
      "خار ج",
      "ف یت<space>",
      "م بنای<space>",
      "ری ز<space>",
      "با<space> افت<space>",
      "قط ع",
      "اگر س<space>",
      "اذر بای",
      "t s<space>",
      "ت یک<space>",
      "بر<space> سر<space>",
      "م رکزی<space>",
      "با<space> هدف<space>",
      "نظ رس",
      "سودا وری<space>",
      "فج ر<space>",
      "ض ر",
      "پ ش",
      "کو ثر<space>",
      "قو ع<space>",
      "هزار<space> و<space>",
      "ف ات<space>",
      "بو دیم<space>",
      "دار د.",
      "مق امات<space>",
      "و ظ",
      "ست<space> و<space>",
      "گزار ش<space>م",
      "اث رات<space>",
      "خز ر<space>",
      "ب ابت<space>",
      "اد گی<space>",
      "تم ع<space>",
      "اقیانو سیه<space>",
      "n <space>",
      "د ای<space>",
      "اند<space> و<space>",
      "اض <space>",
      "دولت<space> و<space>",
      "گمرک <space>",
      "ز اده<space>",
      "ع ه",
      "سی<space> اف<space>",
      "روی داد<space>",
      "شف افیت<space>",
      "گزار ش",
      "گرد ان<space>",
      "ک رک<space>",
      "نق شه<space>",
      "تاریخ ی<space>",
      "ام<space> وست<space>",
      "ش د.<space>م",
      "م ول",
      "ی اد",
      "مه ار<space>",
      "بیش تر",
      "ایر نا",
      "فروش ندگان<space>",
      "خطو ط<space>",
      "پ ان",
      "ان بار",
      "گذ شت<space>",
      "مع دنی<space>",
      "a s",
      "مو ثر<space>",
      "قاب له<space>",
      "نفت<space>خ ام",
      "اوره<space> پ",
      "ت اخیر<space>",
      "سی اس",
      "هر<space> تن<space>",
      "کنس انتره<space>",
      "د چار<space>",
      "ع ده<space>",
      "بو علی<space>",
      "فوق<space>ال ع",
      "<space> کشور<space>",
      "اغ از",
      "فه رست<space>",
      "رو س",
      "را<space> ثبت<space>",
      "یز ه<space>",
      "الومینی وم<space>",
      "ض ع<space>",
      "خو است",
      "در گیری<space>",
      "شو ند<space>",
      "اسی ب<space>",
      "دل ایل<space>",
      "محاس به<space>",
      "تج دید<space>",
      "وق <space>م",
      "اشتغ ال<space>",
      "اندون زی<space>",
      "چ گونه<space>",
      "است قل",
      "نی روی<space>",
      "بح بو",
      "نفت کش<space>",
      "دو <space>م",
      "و<space> رشد<space>",
      "ام ام<space>",
      "تی<space> که<space>",
      "فع لا<space>",
      "on <space>",
      "بلوم برگ<space>",
      "اند<space> به<space>",
      "بحبو حه<space>",
      "ک س<space>",
      "س ا<space>",
      "در<space> دی<space>",
      "اض ی<space>",
      "یک<space> سال<space>",
      "ت نی<space>بر<space>",
      "اس ر",
      "سی له<space>",
      "گر دی",
      "ب ل<space>",
      "پ شت<space>",
      "ها<space> در<space>م",
      "<space>مح قق<space>",
      "l d",
      "خ انگ",
      "ا<space> و",
      "پ خش<space>",
      "ی ب<space>",
      "کی فیت<space>",
      "ای ست",
      "اد ا<space>",
      "دنیای<space> اقتصاد",
      "رون ق<space>",
      "اس م<space>",
      "بر ابر",
      "دی ران<space>",
      "می نی<space>",
      "دانش<space> بنی",
      "پاراز ای",
      "س ول",
      "ش وی",
      "است یک<space>",
      "تی<space> در<space>",
      "د ن",
      "میلی ون<space>",
      "ق ز",
      "به<space> شدت<space>",
      "های<space> ف",
      "خو ش",
      "الی اتی<space>",
      "او مت<space>",
      "و<space>س که<space>",
      "امونی اک<space>",
      "از<space> دست<space>",
      "هم چون<space>",
      "تح قی",
      "شو ند.<space>",
      "گاز<space> به<space>",
      "شد.<space> در<space>",
      "اندو زی<space>",
      "تل اش",
      "من بع<space>",
      "ع <space>می<space>",
      "ق ی<space>در<space>",
      "لی ل<space>م",
      "کار گ",
      "داده<space> و<space>",
      "پرو پ",
      "کمی ته<space>",
      "نظرس نجی<space>",
      "نمو د.<space>",
      "من ستان<space>",
      "حم اس<space>",
      "فیزی کی<space>",
      "ا تو",
      "م ذاکره<space>",
      "اب زار",
      "<space>من ابع<space>",
      "چ وب<space>",
      "رف تن<space>",
      "حس ین<space>",
      "عل اق",
      "ارام ش<space>",
      "نی ج",
      "خ اندوزی<space>",
      "ار تق",
      "be r",
      "سای پا<space>",
      "شک ست<space>",
      "پو ت",
      "فار س",
      "ره بر<space>",
      "ک <space>م",
      "اب<space> و<space>",
      "حدو دی<space>",
      "وارد کننده<space>",
      "سا پا<space>",
      "ت ان<space>",
      "بخ شن",
      "خط ر<space>",
      "و<space> برای<space>",
      "مش ارکت<space>",
      "دست یاب",
      "ف کر",
      "ده<space> در<space>",
      "<space> کیلو",
      "ف ملی<space>",
      "مق صد<space>",
      "ذ وب<space>",
      "سی لی<space>",
      "مس ایل<space>",
      "فسف ات<space>",
      "<space> است.<space>",
      "ب انی<space>",
      "ث ب",
      "در<space> ان<space>",
      "اح ت<space>",
      "استراتژ یک<space>",
      "اتخاذ <space>",
      "م قر",
      "هد ایت<space>",
      "دک تر<space>",
      "$<space> در<space>",
      "تش کل<space>",
      "شک ر<space>",
      "ری ب<space>",
      "تو ص",
      "تی<space> به<space>",
      "و<space> شرکت<space>",
      "a l<space>",
      "ز اگرس<space>",
      "ر ضا<space>",
      "ن ر<space>",
      "ند<space> در<space>",
      "وار ه<space>",
      "هفت م<space>",
      "ازاد سازی<space>",
      "تن<space> به<space>",
      "رژ یم<space>",
      "اقد ام",
      "رشد<space> نقدینگ",
      "گست ر<space>",
      "دیجی تال<space>",
      "استقل ال<space>",
      "ند ان<space>",
      "ار ام<space>",
      "بال ایی<space>",
      "ح باب<space>",
      "ظ اه",
      "ع ین<space>",
      "ک ف",
      "ار ف<space>",
      "بخشن امه<space>",
      "پیش<space> از<space>",
      "ج دید",
      "ف ق<space>",
      "ق بو",
      "سی ل<space>",
      "تر از",
      "نس بی<space>",
      "دو<space> سال<space>",
      "هر گونه<space>",
      "ت نی<space>",
      "ر اهی<space>",
      "ای ین<space>",
      "ای سنا",
      "در<space> فصل<space>",
      "لی ت<space>",
      "ه می<space>",
      "زای نده<space>",
      "tt m<space>",
      "l e",
      "هر<space> کد<space>",
      "اح دا",
      "بور س",
      "بل غ",
      "از<space>م حل<space>",
      "ت کر",
      "تو مان",
      "ته یه<space>",
      "م ازاد<space>",
      "ان ین<space>",
      "ری ح<space>",
      "کرده<space> است",
      "ناش ر<space>",
      "پاس خ",
      "خاط ر<space>",
      "ان س",
      "تق سیم<space>",
      "قو انین<space>",
      "م اش",
      "م عم",
      "از<space>م و",
      "an <space>",
      "ور<space> در<space>",
      "من اس",
      "نیست<space> و<space>"
    ]
  }
}